unsigned char boxing_model_left_10_tflite[] = {
  0x1c, 0x00, 0x00, 0x00, 0x54, 0x46, 0x4c, 0x33, 0x14, 0x00, 0x20, 0x00,
  0x1c, 0x00, 0x18, 0x00, 0x14, 0x00, 0x10, 0x00, 0x0c, 0x00, 0x00, 0x00,
  0x08, 0x00, 0x04, 0x00, 0x14, 0x00, 0x00, 0x00, 0x1c, 0x00, 0x00, 0x00,
  0x8c, 0x00, 0x00, 0x00, 0xe4, 0x00, 0x00, 0x00, 0xf4, 0x14, 0x00, 0x00,
  0x04, 0x15, 0x00, 0x00, 0x08, 0x1f, 0x00, 0x00, 0x03, 0x00, 0x00, 0x00,
  0x01, 0x00, 0x00, 0x00, 0x04, 0x00, 0x00, 0x00, 0xae, 0xe9, 0xff, 0xff,
  0x0c, 0x00, 0x00, 0x00, 0x1c, 0x00, 0x00, 0x00, 0x3c, 0x00, 0x00, 0x00,
  0x0f, 0x00, 0x00, 0x00, 0x73, 0x65, 0x72, 0x76, 0x69, 0x6e, 0x67, 0x5f,
  0x64, 0x65, 0x66, 0x61, 0x75, 0x6c, 0x74, 0x00, 0x01, 0x00, 0x00, 0x00,
  0x04, 0x00, 0x00, 0x00, 0x90, 0xff, 0xff, 0xff, 0x11, 0x00, 0x00, 0x00,
  0x04, 0x00, 0x00, 0x00, 0x08, 0x00, 0x00, 0x00, 0x6f, 0x75, 0x74, 0x70,
  0x75, 0x74, 0x5f, 0x30, 0x00, 0x00, 0x00, 0x00, 0x01, 0x00, 0x00, 0x00,
  0x04, 0x00, 0x00, 0x00, 0xe6, 0xea, 0xff, 0xff, 0x04, 0x00, 0x00, 0x00,
  0x0f, 0x00, 0x00, 0x00, 0x6b, 0x65, 0x72, 0x61, 0x73, 0x5f, 0x74, 0x65,
  0x6e, 0x73, 0x6f, 0x72, 0x5f, 0x31, 0x30, 0x00, 0x02, 0x00, 0x00, 0x00,
  0x34, 0x00, 0x00, 0x00, 0x04, 0x00, 0x00, 0x00, 0xdc, 0xff, 0xff, 0xff,
  0x14, 0x00, 0x00, 0x00, 0x04, 0x00, 0x00, 0x00, 0x13, 0x00, 0x00, 0x00,
  0x43, 0x4f, 0x4e, 0x56, 0x45, 0x52, 0x53, 0x49, 0x4f, 0x4e, 0x5f, 0x4d,
  0x45, 0x54, 0x41, 0x44, 0x41, 0x54, 0x41, 0x00, 0x08, 0x00, 0x0c, 0x00,
  0x08, 0x00, 0x04, 0x00, 0x08, 0x00, 0x00, 0x00, 0x13, 0x00, 0x00, 0x00,
  0x04, 0x00, 0x00, 0x00, 0x13, 0x00, 0x00, 0x00, 0x6d, 0x69, 0x6e, 0x5f,
  0x72, 0x75, 0x6e, 0x74, 0x69, 0x6d, 0x65, 0x5f, 0x76, 0x65, 0x72, 0x73,
  0x69, 0x6f, 0x6e, 0x00, 0x15, 0x00, 0x00, 0x00, 0x0c, 0x14, 0x00, 0x00,
  0x04, 0x14, 0x00, 0x00, 0x74, 0x13, 0x00, 0x00, 0x58, 0x13, 0x00, 0x00,
  0x48, 0x0a, 0x00, 0x00, 0x78, 0x09, 0x00, 0x00, 0x68, 0x01, 0x00, 0x00,
  0x4c, 0x01, 0x00, 0x00, 0xfc, 0x00, 0x00, 0x00, 0xe8, 0x00, 0x00, 0x00,
  0xd4, 0x00, 0x00, 0x00, 0xcc, 0x00, 0x00, 0x00, 0xc4, 0x00, 0x00, 0x00,
  0xbc, 0x00, 0x00, 0x00, 0xb4, 0x00, 0x00, 0x00, 0xac, 0x00, 0x00, 0x00,
  0xa4, 0x00, 0x00, 0x00, 0x9c, 0x00, 0x00, 0x00, 0x94, 0x00, 0x00, 0x00,
  0x74, 0x00, 0x00, 0x00, 0x04, 0x00, 0x00, 0x00, 0xb6, 0xeb, 0xff, 0xff,
  0x04, 0x00, 0x00, 0x00, 0x60, 0x00, 0x00, 0x00, 0x0c, 0x00, 0x00, 0x00,
  0x08, 0x00, 0x0e, 0x00, 0x08, 0x00, 0x04, 0x00, 0x08, 0x00, 0x00, 0x00,
  0x10, 0x00, 0x00, 0x00, 0x28, 0x00, 0x00, 0x00, 0x00, 0x00, 0x06, 0x00,
  0x08, 0x00, 0x04, 0x00, 0x06, 0x00, 0x00, 0x00, 0x04, 0x00, 0x00, 0x00,
  0x01, 0x00, 0x00, 0x00, 0xea, 0x03, 0x00, 0x00, 0x0c, 0x00, 0x18, 0x00,
  0x14, 0x00, 0x10, 0x00, 0x0c, 0x00, 0x04, 0x00, 0x0c, 0x00, 0x00, 0x00,
  0x8a, 0xb2, 0x93, 0x88, 0xcc, 0x4a, 0x90, 0x6b, 0x02, 0x00, 0x00, 0x00,
  0x02, 0x00, 0x00, 0x00, 0x04, 0x00, 0x00, 0x00, 0x06, 0x00, 0x00, 0x00,
  0x32, 0x2e, 0x31, 0x38, 0x2e, 0x30, 0x00, 0x00, 0x22, 0xec, 0xff, 0xff,
  0x04, 0x00, 0x00, 0x00, 0x10, 0x00, 0x00, 0x00, 0x31, 0x2e, 0x31, 0x34,
  0x2e, 0x30, 0x00, 0x00, 0x00, 0x00, 0x00, 0x00, 0x00, 0x00, 0x00, 0x00,
  0xf0, 0xe2, 0xff, 0xff, 0xf4, 0xe2, 0xff, 0xff, 0xf8, 0xe2, 0xff, 0xff,
  0xfc, 0xe2, 0xff, 0xff, 0x00, 0xe3, 0xff, 0xff, 0x04, 0xe3, 0xff, 0xff,
  0x08, 0xe3, 0xff, 0xff, 0x0c, 0xe3, 0xff, 0xff, 0x5e, 0xec, 0xff, 0xff,
  0x04, 0x00, 0x00, 0x00, 0x04, 0x00, 0x00, 0x00, 0xfd, 0xff, 0xff, 0xff,
  0x6e, 0xec, 0xff, 0xff, 0x04, 0x00, 0x00, 0x00, 0x04, 0x00, 0x00, 0x00,
  0x01, 0x00, 0x00, 0x00, 0x7e, 0xec, 0xff, 0xff, 0x04, 0x00, 0x00, 0x00,
  0x40, 0x00, 0x00, 0x00, 0x03, 0x05, 0x26, 0x3e, 0xdc, 0xcf, 0xf8, 0x3c,
  0x9d, 0x19, 0xee, 0xbc, 0x5f, 0xce, 0xc4, 0x3d, 0x58, 0x96, 0x06, 0x3e,
  0xfc, 0x80, 0xe5, 0xbc, 0xba, 0xe4, 0xee, 0xbc, 0x0e, 0x1e, 0x09, 0x3e,
  0xe4, 0x94, 0x90, 0x3d, 0x77, 0xc8, 0x58, 0xbc, 0x61, 0x4d, 0x99, 0x3c,
  0x8f, 0x38, 0xde, 0x3d, 0xd7, 0x3c, 0xed, 0x3d, 0xd0, 0x7c, 0x03, 0x3e,
  0xbe, 0x6e, 0x55, 0xbd, 0x6c, 0xfe, 0xe2, 0x3c, 0xca, 0xec, 0xff, 0xff,
  0x04, 0x00, 0x00, 0x00, 0x0c, 0x00, 0x00, 0x00, 0x73, 0x07, 0x09, 0xbe,
  0x23, 0xae, 0xe5, 0x3d, 0x67, 0x8d, 0x61, 0x3c, 0xe2, 0xec, 0xff, 0xff,
  0x04, 0x00, 0x00, 0x00, 0x00, 0x08, 0x00, 0x00, 0x4e, 0x27, 0x73, 0xbd,
  0x7f, 0x44, 0xb6, 0xbe, 0x99, 0x18, 0xd6, 0x3e, 0x88, 0x90, 0x8a, 0x3e,
  0x76, 0xd1, 0x4b, 0xbe, 0xe5, 0x00, 0xa4, 0x3e, 0xac, 0xa2, 0xc9, 0x3e,
  0x15, 0x74, 0x67, 0x3e, 0xe9, 0x9a, 0x7a, 0x3e, 0xf6, 0x93, 0xa6, 0xbd,
  0x4a, 0x43, 0x32, 0xbe, 0x8a, 0x08, 0x42, 0xbd, 0x14, 0xc1, 0xda, 0xbe,
  0x5a, 0x92, 0x15, 0xbe, 0x6c, 0x73, 0x52, 0x3e, 0x7d, 0xc5, 0x80, 0x3e,
  0xb1, 0x67, 0x50, 0xbe, 0x88, 0x52, 0x25, 0xbd, 0xdd, 0xf8, 0xcd, 0xbe,
  0x7a, 0xc4, 0x12, 0x3e, 0x50, 0xa6, 0xd8, 0x3d, 0x2e, 0x60, 0xe3, 0xbd,
  0xcd, 0x0a, 0xd6, 0x3e, 0x7e, 0x9b, 0xcf, 0xbe, 0x28, 0x7c, 0xc2, 0xbd,
  0x7f, 0x2d, 0x62, 0xbe, 0x74, 0x89, 0xd3, 0x3d, 0xd3, 0x02, 0x65, 0xbd,
  0xe9, 0xa1, 0x6d, 0x3e, 0xde, 0x55, 0x89, 0xbe, 0xfb, 0x06, 0x37, 0xbe,
  0x57, 0x94, 0x50, 0xbd, 0x01, 0xb2, 0x48, 0x3e, 0x22, 0x6c, 0x84, 0xbd,
  0x65, 0x48, 0x98, 0x3e, 0x85, 0x8a, 0xcd, 0xbd, 0x4f, 0xb3, 0x91, 0xbe,
  0x1f, 0x40, 0xbd, 0xbe, 0x7a, 0x79, 0x8b, 0xbe, 0xa6, 0xde, 0x9f, 0x3e,
  0x8e, 0xd3, 0x35, 0x3d, 0x49, 0xe5, 0x8c, 0xbd, 0xa1, 0x6f, 0x1c, 0xbd,
  0x7f, 0x67, 0x84, 0x3e, 0x15, 0xb9, 0xa0, 0x3e, 0x82, 0xac, 0xd5, 0xbe,
  0x32, 0xd5, 0x3f, 0x3d, 0x04, 0xeb, 0x11, 0x3e, 0x01, 0x95, 0x62, 0x3e,
  0x6e, 0x59, 0x1a, 0x3d, 0x2a, 0x7c, 0x64, 0xbe, 0xd5, 0xc9, 0x5a, 0xbe,
  0xff, 0x8a, 0x30, 0x3e, 0x31, 0x97, 0x2d, 0xbe, 0x86, 0x1c, 0xa4, 0x3d,
  0xd5, 0x4d, 0x2b, 0xbd, 0xe5, 0x2e, 0x96, 0x3e, 0xd6, 0xc2, 0x40, 0x3e,
  0x0d, 0x9a, 0x12, 0xbe, 0x39, 0x5f, 0x5b, 0x3e, 0x91, 0x15, 0x8e, 0x3e,
  0x6d, 0xf4, 0x20, 0xbe, 0x1c, 0xc5, 0x29, 0xbe, 0x82, 0xdc, 0xd6, 0xbe,
  0xda, 0xd1, 0x70, 0x3e, 0xe2, 0x67, 0xfc, 0xbc, 0x95, 0x40, 0x31, 0x3e,
  0xa3, 0x9f, 0x58, 0x3e, 0x24, 0x56, 0x34, 0x3e, 0xbf, 0xbe, 0xd0, 0x3d,
  0x17, 0xdf, 0xb3, 0x3d, 0x0c, 0x37, 0x2a, 0x3d, 0xa1, 0x0a, 0x36, 0xbe,
  0x74, 0x0e, 0xd2, 0x3b, 0xdb, 0x26, 0xdb, 0x3d, 0x8c, 0x17, 0x9d, 0x3e,
  0x0c, 0x19, 0x1c, 0x3e, 0x2b, 0x33, 0x05, 0xbe, 0x77, 0x3c, 0xb1, 0xbe,
  0xfd, 0xe1, 0xae, 0x3e, 0x71, 0x6e, 0x6a, 0xbe, 0x16, 0x3e, 0xc0, 0xbe,
  0xd6, 0x33, 0x6f, 0xbe, 0x49, 0xd6, 0x99, 0x3e, 0x7f, 0xad, 0x82, 0xbe,
  0x00, 0xc5, 0x83, 0x3d, 0x40, 0x47, 0x0f, 0xbe, 0x7b, 0x37, 0xe2, 0xbe,
  0xed, 0x9e, 0x8e, 0xbe, 0xdf, 0xd7, 0xc2, 0xbe, 0x2d, 0xdf, 0x43, 0xbe,
  0x49, 0xed, 0x98, 0x3e, 0x4a, 0x96, 0x33, 0x3e, 0x38, 0x5c, 0x1b, 0x3e,
  0x65, 0x29, 0xd3, 0x3c, 0xdb, 0x12, 0xf3, 0x3e, 0x2d, 0xc6, 0x93, 0xbe,
  0x3a, 0x10, 0x7d, 0xbe, 0x0a, 0x39, 0x29, 0x3e, 0x53, 0xa7, 0x68, 0xbe,
  0xd3, 0xea, 0x9c, 0x3d, 0x7c, 0x01, 0xae, 0xbd, 0x67, 0x9d, 0x78, 0x3e,
  0xaa, 0x27, 0x4a, 0xbe, 0x53, 0xb8, 0x05, 0x3e, 0x66, 0x8e, 0xd4, 0x3e,
  0x0c, 0xee, 0xb3, 0xbe, 0x69, 0xd2, 0x3e, 0xbc, 0xac, 0x51, 0x39, 0x3e,
  0xfa, 0xe4, 0x8b, 0x3e, 0x04, 0xdc, 0x9e, 0xbe, 0x03, 0x2f, 0xc2, 0xbd,
  0xf3, 0x06, 0xfa, 0x3d, 0x54, 0x5c, 0x6d, 0x3e, 0x90, 0xf8, 0x16, 0xbe,
  0xcc, 0x93, 0x9e, 0xbe, 0x27, 0x99, 0x5e, 0x3e, 0x7b, 0x33, 0x95, 0xbe,
  0xda, 0xbd, 0xab, 0x3e, 0x13, 0x41, 0x11, 0x3e, 0x0f, 0xbc, 0x84, 0xbd,
  0xe0, 0x5a, 0x99, 0x3d, 0x48, 0xbd, 0xd1, 0x3d, 0xc5, 0x6c, 0x1d, 0x3e,
  0xa8, 0xf9, 0x20, 0xbe, 0x03, 0x8c, 0x1e, 0xbe, 0xc5, 0xa5, 0x0b, 0xbd,
  0x3e, 0x37, 0xe8, 0xbe, 0xbb, 0x33, 0x0a, 0xbf, 0xd0, 0xae, 0x94, 0x3e,
  0x9f, 0x1e, 0xce, 0x3e, 0x8e, 0xd6, 0x87, 0x3e, 0x13, 0xb9, 0x4d, 0xbe,
  0xdc, 0x03, 0xac, 0xbe, 0x94, 0xc8, 0x62, 0x3d, 0xc1, 0xca, 0xa8, 0xbe,
  0xe1, 0xdb, 0x9b, 0xbe, 0x41, 0x2f, 0x23, 0x3e, 0x04, 0xdb, 0xc2, 0xbe,
  0xce, 0x74, 0x2f, 0x3e, 0xa8, 0x3b, 0x26, 0xbe, 0x35, 0xe3, 0x3d, 0x3e,
  0xd3, 0xe3, 0xad, 0xbe, 0xff, 0xbb, 0x1d, 0x3c, 0x1b, 0x97, 0xbe, 0x3e,
  0x03, 0x0e, 0x5a, 0xbe, 0x1e, 0x8a, 0x26, 0xbe, 0xef, 0x46, 0x81, 0xbe,
  0xc7, 0x00, 0xd6, 0xbd, 0x89, 0xf9, 0xd9, 0xbe, 0x3b, 0xd1, 0xc1, 0x3e,
  0xce, 0xc8, 0xce, 0x3e, 0x49, 0x40, 0xbd, 0x3e, 0x89, 0x59, 0x95, 0xbd,
  0x13, 0xdb, 0xbb, 0xbc, 0xd3, 0xdf, 0x7c, 0xbe, 0xc4, 0xd9, 0xb3, 0x3a,
  0x4c, 0xc2, 0x3b, 0x3e, 0x1e, 0xab, 0x9f, 0xbe, 0xdb, 0x38, 0x9b, 0xbe,
  0x2e, 0xa3, 0xaf, 0xbc, 0xc4, 0x7a, 0xac, 0x3e, 0xc2, 0xeb, 0x48, 0xbe,
  0x72, 0xba, 0x80, 0xbe, 0xf7, 0xf4, 0x21, 0xbe, 0x45, 0xe4, 0xc7, 0xbe,
  0xb0, 0x81, 0x54, 0x3c, 0xfe, 0x5f, 0x75, 0xbe, 0x39, 0x28, 0x98, 0x3e,
  0x91, 0x06, 0xb9, 0x3e, 0x60, 0xb9, 0x04, 0xbe, 0x0b, 0x70, 0x2f, 0x3e,
  0x13, 0xa4, 0x88, 0x3e, 0xc4, 0xd3, 0xbf, 0xbe, 0x0b, 0x7d, 0xc2, 0x3e,
  0x02, 0x1e, 0x1b, 0xbe, 0x8a, 0x74, 0x86, 0x3e, 0xa1, 0x1c, 0x3a, 0x3e,
  0xca, 0xd2, 0x43, 0x3e, 0x72, 0xb3, 0x91, 0x3e, 0xbf, 0x5a, 0xb5, 0x3e,
  0xac, 0x07, 0xbe, 0x3c, 0x32, 0x8e, 0xb4, 0xbc, 0xb8, 0x85, 0x8f, 0x3e,
  0xf1, 0xf3, 0xb8, 0xbe, 0x29, 0x24, 0x63, 0x3d, 0x62, 0xb4, 0x9c, 0x3e,
  0x23, 0xb5, 0xb6, 0x3e, 0xbb, 0x4a, 0xd6, 0x3c, 0xf5, 0xcc, 0x5a, 0xbe,
  0x8d, 0xca, 0x85, 0xbe, 0x11, 0xbb, 0xe2, 0xbd, 0x88, 0x2f, 0xe8, 0x3d,
  0x40, 0x3c, 0x9b, 0xbe, 0x07, 0xc8, 0xd6, 0x3d, 0xe4, 0xa2, 0x99, 0x3e,
  0x93, 0x27, 0xe3, 0xbe, 0x1e, 0x5d, 0x4a, 0x3e, 0x66, 0x68, 0x05, 0xbc,
  0xd1, 0x97, 0xc4, 0xbc, 0x80, 0x68, 0x52, 0xbe, 0xd1, 0x05, 0xc7, 0xbe,
  0xac, 0x8f, 0x09, 0x3e, 0x93, 0x1e, 0xcb, 0x3d, 0xa1, 0x9f, 0xce, 0x3e,
  0x9e, 0xf8, 0x40, 0xbc, 0xde, 0x8a, 0x86, 0x3b, 0x2c, 0x03, 0x7f, 0xbe,
  0x64, 0x8f, 0x93, 0x3e, 0x1d, 0xba, 0xba, 0x3e, 0x60, 0xc3, 0xa1, 0xbe,
  0xc4, 0xf0, 0xc4, 0x3e, 0x1d, 0x41, 0xa1, 0x3e, 0x44, 0x69, 0x58, 0x3d,
  0xaa, 0xa9, 0x2d, 0xbe, 0x08, 0x11, 0x45, 0x3e, 0xd4, 0x24, 0xbb, 0xbd,
  0x12, 0xa8, 0x35, 0xbe, 0xf4, 0x79, 0xe0, 0xbd, 0x08, 0xcb, 0x06, 0xbe,
  0xf1, 0xed, 0x61, 0xbe, 0xf0, 0xaa, 0x25, 0xbe, 0xc7, 0x56, 0x9d, 0xbd,
  0x31, 0x6e, 0xd9, 0x3d, 0x33, 0xdc, 0x31, 0x3b, 0x90, 0x9b, 0x07, 0xbe,
  0xdf, 0xee, 0xac, 0x3e, 0xed, 0x30, 0x2f, 0xbc, 0x14, 0xb4, 0x99, 0x3e,
  0x94, 0xfe, 0xba, 0x3c, 0x53, 0xe5, 0x1b, 0x3e, 0x85, 0xc4, 0x45, 0xbc,
  0x92, 0x28, 0x6c, 0xbe, 0x2b, 0xd3, 0x5d, 0x3e, 0x52, 0xf6, 0x1f, 0xbe,
  0xc7, 0x1c, 0x80, 0xbe, 0x90, 0x6a, 0x3f, 0x3e, 0x87, 0xec, 0xb5, 0x3c,
  0x17, 0x9d, 0x85, 0xbc, 0x5c, 0x0c, 0xc9, 0x3e, 0x91, 0xa2, 0x23, 0x3e,
  0xf2, 0x5e, 0x49, 0x3e, 0x70, 0x12, 0x93, 0xbe, 0x91, 0x7c, 0xc5, 0xbd,
  0x28, 0x0e, 0x15, 0xbd, 0x5e, 0x31, 0xa1, 0xbd, 0x3d, 0x58, 0x07, 0x3e,
  0xe3, 0x71, 0x51, 0x3e, 0x59, 0x1b, 0x86, 0xbe, 0x93, 0xf3, 0xc8, 0x3e,
  0x6f, 0x9a, 0x6c, 0xbd, 0xcc, 0x70, 0x0e, 0xbe, 0x32, 0xbd, 0xdd, 0xbe,
  0xd2, 0x42, 0xb3, 0x3e, 0xae, 0x68, 0xc5, 0xbe, 0x97, 0xb3, 0xe4, 0xbe,
  0x7c, 0x5b, 0x87, 0x3e, 0x7b, 0x4b, 0x7a, 0xbe, 0xf4, 0x46, 0x6e, 0xbe,
  0xf4, 0x5b, 0x99, 0x3e, 0xe9, 0x8a, 0x37, 0xbe, 0xae, 0xdc, 0xb8, 0x3e,
  0x75, 0x06, 0x3a, 0xbd, 0x91, 0x4e, 0x4a, 0xbe, 0x00, 0x7b, 0x5f, 0xbe,
  0x9c, 0xd0, 0xcc, 0xbe, 0x5c, 0x99, 0x5d, 0x3e, 0xc2, 0x44, 0x70, 0x3e,
  0x15, 0x22, 0xd6, 0xbe, 0xdd, 0xdc, 0xc9, 0x3d, 0x8f, 0x42, 0x31, 0xbe,
  0xfc, 0xad, 0x2a, 0xbe, 0xa1, 0x9c, 0xfe, 0xbe, 0x16, 0x9a, 0x91, 0xbd,
  0x61, 0xeb, 0x0d, 0x3e, 0x16, 0x2c, 0x31, 0x3e, 0x98, 0x78, 0x2e, 0x3e,
  0xe6, 0x47, 0xbc, 0x3d, 0xa0, 0xd9, 0xcc, 0xbc, 0xaa, 0xd0, 0xf5, 0x3b,
  0xdd, 0x40, 0xd9, 0xbe, 0xb1, 0x1d, 0x6c, 0xbd, 0xd4, 0x37, 0x6c, 0xbb,
  0xbc, 0x56, 0x81, 0xbe, 0xb4, 0x0c, 0xce, 0x3c, 0xa9, 0x13, 0x29, 0x3e,
  0xd8, 0x6e, 0xaf, 0x3e, 0x44, 0x75, 0x6c, 0xbe, 0xa1, 0x95, 0x52, 0x3c,
  0xf2, 0x46, 0xdb, 0x3e, 0x92, 0x8d, 0xba, 0xbe, 0xbb, 0x95, 0x88, 0x3c,
  0xef, 0x8b, 0x22, 0x3e, 0xbd, 0xfa, 0x6a, 0x3e, 0x7c, 0x5f, 0x90, 0xbe,
  0xa4, 0x9a, 0xc3, 0x3d, 0x29, 0xab, 0xb2, 0x3e, 0x24, 0x12, 0x9d, 0x3c,
  0xf6, 0xb9, 0x96, 0x3e, 0x08, 0x36, 0x88, 0x3e, 0xbf, 0x5c, 0x98, 0xbd,
  0xa4, 0xaa, 0xa6, 0xbe, 0x04, 0x13, 0xd2, 0xbc, 0xac, 0x59, 0xca, 0xbd,
  0xab, 0x00, 0x63, 0xbe, 0xe4, 0xf9, 0x5c, 0x3d, 0x45, 0xb1, 0xb2, 0xbe,
  0x20, 0x4b, 0x45, 0xbc, 0x6b, 0xfe, 0x30, 0x3e, 0x5f, 0x8a, 0xac, 0xbe,
  0x6e, 0x6c, 0x9b, 0x3e, 0x90, 0x8d, 0xa4, 0x3e, 0x22, 0x8d, 0x5e, 0xbe,
  0xfc, 0xdb, 0x78, 0xbe, 0x16, 0x20, 0x27, 0x3d, 0x3d, 0xf0, 0x32, 0xbe,
  0x4e, 0x72, 0x43, 0xbe, 0x37, 0xb1, 0xbe, 0x3d, 0xb8, 0x65, 0x0a, 0xbe,
  0x84, 0x4d, 0x9c, 0xbc, 0xeb, 0x15, 0x1a, 0xbc, 0xa8, 0x15, 0xc7, 0xbd,
  0x2e, 0x48, 0x9b, 0xbe, 0x50, 0x73, 0xeb, 0xbd, 0x29, 0x2c, 0x20, 0xbe,
  0x40, 0x93, 0x21, 0x3e, 0x87, 0x15, 0xd1, 0xbe, 0x93, 0xa7, 0x40, 0x3e,
  0x87, 0xdf, 0x5d, 0xbe, 0x61, 0x8f, 0x74, 0x3e, 0x19, 0xb8, 0xbb, 0x3e,
  0x17, 0x11, 0xc5, 0xbd, 0x20, 0xa8, 0x64, 0x3e, 0x6d, 0xd9, 0xbb, 0xbe,
  0x57, 0xb7, 0x6f, 0x3e, 0xcc, 0x61, 0xde, 0xbd, 0xf5, 0x6d, 0x5a, 0x3e,
  0xfc, 0x3b, 0x86, 0x3e, 0x3e, 0xbc, 0xdd, 0xbe, 0xc8, 0x5f, 0x06, 0x3d,
  0x00, 0xdc, 0xab, 0x3e, 0x31, 0x10, 0x94, 0xbe, 0x3b, 0xf7, 0x2b, 0xbc,
  0x74, 0xcc, 0xb5, 0x3e, 0x37, 0x9c, 0x99, 0x3d, 0x28, 0x93, 0x7e, 0xbe,
  0xac, 0xc1, 0x55, 0xbc, 0xa1, 0xac, 0xa7, 0x3c, 0xdd, 0xcb, 0x8b, 0x3e,
  0x27, 0x29, 0xd9, 0x3d, 0x41, 0xb1, 0x1d, 0xbe, 0x82, 0x70, 0x96, 0xbe,
  0xf6, 0x63, 0x92, 0x3e, 0x27, 0x00, 0x9e, 0x3d, 0x9c, 0x60, 0x3d, 0x3c,
  0x14, 0xbf, 0xa9, 0x3d, 0xed, 0x30, 0xd7, 0xbe, 0x3d, 0x0b, 0x06, 0x3e,
  0x85, 0xe7, 0x2f, 0x3d, 0x97, 0x3b, 0xc1, 0xbe, 0x2f, 0xab, 0x8e, 0x3e,
  0x34, 0x10, 0xa8, 0xbe, 0xf5, 0xe0, 0xa3, 0xbe, 0x84, 0xb3, 0xf9, 0xbd,
  0xc7, 0xea, 0x9b, 0xbd, 0xa6, 0xea, 0x9c, 0x3e, 0x60, 0xbf, 0x8b, 0x3e,
  0x78, 0x9d, 0xe5, 0xbd, 0x48, 0xad, 0xa9, 0xbe, 0x2a, 0x79, 0x4f, 0x3e,
  0x7a, 0x35, 0x92, 0x3d, 0xf1, 0xe1, 0xb2, 0x3e, 0xd3, 0xe9, 0x6f, 0x3e,
  0x54, 0xc3, 0x27, 0x3e, 0x87, 0x99, 0xa5, 0x3e, 0x73, 0x9d, 0xb5, 0x3d,
  0xa5, 0x32, 0x25, 0x3d, 0xfd, 0x92, 0x09, 0xbd, 0xfd, 0x4e, 0x7a, 0x3c,
  0x23, 0xc5, 0xac, 0x3c, 0x99, 0x1a, 0x20, 0xbd, 0x72, 0xcb, 0xfb, 0x3b,
  0x39, 0xcd, 0xc6, 0xbd, 0xb0, 0xa9, 0x0a, 0xbe, 0x3a, 0x51, 0x04, 0x3f,
  0xa5, 0x1b, 0x15, 0xbe, 0x7d, 0xb8, 0x3c, 0xbe, 0xd0, 0xcb, 0x9a, 0x3e,
  0xa8, 0x2e, 0xd8, 0xbe, 0x5c, 0x7e, 0x9f, 0x3e, 0xdb, 0x84, 0x04, 0x3e,
  0x50, 0xd9, 0x7c, 0x3e, 0x7e, 0x82, 0x0f, 0x3d, 0x04, 0xc0, 0x9b, 0xbe,
  0xec, 0xfb, 0x28, 0x3e, 0x60, 0x32, 0x8f, 0x3e, 0xc1, 0xfe, 0xfa, 0xbe,
  0x98, 0x1a, 0xd9, 0x3d, 0x09, 0x61, 0x53, 0xbc, 0x0c, 0x92, 0x71, 0x3e,
  0x1e, 0xb2, 0x35, 0xbe, 0x27, 0xb1, 0x90, 0xbe, 0xff, 0xa9, 0xd4, 0x3d,
  0xa8, 0xc2, 0xf5, 0x3e, 0xab, 0x48, 0x9e, 0x3e, 0x17, 0x6c, 0xed, 0x3e,
  0x57, 0xf8, 0x4e, 0x3e, 0xfc, 0xba, 0xc3, 0xbd, 0x36, 0x5a, 0xda, 0xbe,
  0x0e, 0x04, 0x16, 0xbe, 0xbf, 0xaf, 0xd4, 0xbd, 0x07, 0x4b, 0x06, 0xbc,
  0x22, 0xa3, 0x80, 0xbe, 0x71, 0xbe, 0xa9, 0xbe, 0x02, 0x3f, 0x29, 0x3e,
  0xd3, 0x4e, 0x86, 0xbe, 0x91, 0x3f, 0xfb, 0xbe, 0x9d, 0x84, 0x78, 0x3d,
  0x16, 0xf1, 0xca, 0x3d, 0xba, 0xa6, 0x94, 0xbd, 0x87, 0xdb, 0x62, 0xbe,
  0xaf, 0x2b, 0xb7, 0xbe, 0x9a, 0x4c, 0x1e, 0x3e, 0x20, 0xdd, 0xeb, 0xbd,
  0x2c, 0x3d, 0xe4, 0xbe, 0x12, 0x42, 0xbd, 0x3c, 0x71, 0x2b, 0x33, 0x3e,
  0x16, 0xeb, 0x82, 0xbe, 0xa4, 0xa5, 0x8e, 0x3e, 0x67, 0x62, 0xf1, 0xbe,
  0xb8, 0x72, 0x9f, 0xbe, 0x3a, 0x3f, 0x5d, 0xbe, 0x1d, 0x99, 0x0e, 0x3f,
  0x5b, 0x49, 0x2e, 0xbe, 0xcb, 0x7a, 0xdb, 0xbe, 0x96, 0x14, 0x5f, 0xbe,
  0xc5, 0xc3, 0x31, 0xbe, 0x1a, 0x3e, 0xa2, 0xbc, 0x70, 0xe4, 0xac, 0x3e,
  0x32, 0x5a, 0x36, 0x3e, 0x94, 0xa5, 0xc7, 0xbd, 0xae, 0xa6, 0x75, 0x3e,
  0x61, 0x6a, 0xa6, 0x3e, 0xcd, 0xf4, 0x84, 0x3e, 0x7e, 0xb8, 0x30, 0xbe,
  0xd5, 0xfa, 0x42, 0x3d, 0xa9, 0xd3, 0x8f, 0xbe, 0xa8, 0x43, 0x2e, 0xbd,
  0x75, 0xcd, 0x9e, 0xbe, 0xb7, 0x47, 0xcd, 0x3d, 0x3d, 0x74, 0xbd, 0xbc,
  0x24, 0xb8, 0xa6, 0x3d, 0xe0, 0x2f, 0xc7, 0xbd, 0x4c, 0xb3, 0x49, 0x3e,
  0x91, 0x6f, 0xb9, 0xbe, 0xcd, 0xb8, 0x14, 0xbe, 0x1d, 0x96, 0x7d, 0x3e,
  0xe6, 0xca, 0x70, 0xbe, 0x0a, 0xb6, 0x7a, 0x3e, 0x8e, 0x1c, 0xe3, 0xbb,
  0x5e, 0x34, 0xf5, 0x3d, 0xda, 0x84, 0xad, 0x3e, 0x7c, 0x1f, 0xe0, 0x3d,
  0x93, 0x76, 0x89, 0xbe, 0x8c, 0x5f, 0x2b, 0xbd, 0x8b, 0x5c, 0x7a, 0x3e,
  0x3a, 0xbd, 0x01, 0x3e, 0x5a, 0x9a, 0x46, 0x3e, 0xf6, 0xb2, 0x3c, 0xbe,
  0x93, 0x81, 0x59, 0xbe, 0xa1, 0xeb, 0x03, 0x3b, 0x7a, 0x85, 0x1a, 0xbe,
  0x56, 0xeb, 0x5a, 0x3e, 0x39, 0xc2, 0x98, 0x3e, 0xbe, 0xba, 0xac, 0xbe,
  0x99, 0x4e, 0x9a, 0xbd, 0x8f, 0x99, 0xc9, 0xbe, 0x92, 0xb1, 0x71, 0xbe,
  0x43, 0xa5, 0x27, 0x3e, 0x71, 0xcb, 0xa2, 0x3e, 0x47, 0xf8, 0x79, 0x3e,
  0x60, 0xc1, 0x28, 0x3e, 0xf8, 0xbd, 0xa9, 0x3e, 0x87, 0x99, 0x84, 0x3e,
  0xbf, 0x3d, 0x1b, 0x3e, 0xd9, 0x0b, 0x14, 0xbb, 0x2a, 0x8e, 0x68, 0xbe,
  0xf1, 0xb5, 0x39, 0x3e, 0x9c, 0x21, 0x9b, 0x3e, 0xb4, 0x14, 0xc5, 0xbe,
  0x26, 0x9d, 0x81, 0x3e, 0xe8, 0xb6, 0xd9, 0xbd, 0x39, 0xb3, 0x5b, 0xbe,
  0x91, 0x19, 0x5d, 0x3e, 0x99, 0x81, 0xb9, 0xbe, 0x76, 0xc3, 0x6c, 0x3e,
  0x82, 0x5c, 0x32, 0x3d, 0x68, 0x8b, 0xa8, 0x3b, 0x6b, 0xdb, 0x81, 0x3e,
  0x0d, 0xa5, 0x1f, 0x3e, 0xdd, 0x2a, 0x84, 0x3e, 0xd0, 0x1b, 0x78, 0xbe,
  0x04, 0xa3, 0xd1, 0xbd, 0x9a, 0x83, 0x8f, 0xbe, 0x2b, 0xc5, 0x28, 0xbe,
  0x64, 0xcf, 0xb8, 0xbe, 0x5a, 0xe0, 0x18, 0xbe, 0x98, 0x82, 0xb0, 0x3e,
  0x8c, 0x23, 0x68, 0x3e, 0x97, 0xac, 0xf5, 0xbd, 0x2e, 0xb1, 0x90, 0x3e,
  0x9d, 0x42, 0x8a, 0xbe, 0xee, 0xf4, 0xff, 0xff, 0x04, 0x00, 0x00, 0x00,
  0xc0, 0x00, 0x00, 0x00, 0xd6, 0x3f, 0x2a, 0xbf, 0x61, 0x68, 0x39, 0x3e,
  0xc8, 0x02, 0x11, 0xbe, 0x18, 0xfc, 0xb1, 0xbd, 0xdb, 0xd8, 0xb0, 0xbe,
  0x47, 0xbc, 0x9a, 0x3e, 0xe0, 0x50, 0x96, 0x3e, 0x0b, 0xf5, 0x4b, 0xbd,
  0xb2, 0xed, 0x69, 0xbd, 0x8a, 0x83, 0x07, 0x3f, 0xf0, 0x27, 0x07, 0x3f,
  0xe4, 0xbc, 0xee, 0xbe, 0x64, 0xf0, 0x8b, 0x3e, 0x8d, 0x9e, 0xa8, 0xbd,
  0x3d, 0xad, 0xf2, 0x3e, 0xcd, 0x06, 0xcb, 0x3e, 0xc6, 0x7a, 0x0c, 0xbb,
  0xf9, 0xb7, 0x17, 0x3e, 0xaf, 0x85, 0x9f, 0xbe, 0x16, 0x3e, 0xcb, 0x3e,
  0x7b, 0xe6, 0x21, 0x3f, 0x91, 0x99, 0x2b, 0xbf, 0xf7, 0x30, 0x3b, 0xbf,
  0x73, 0x7a, 0x1b, 0x3f, 0x1a, 0x3b, 0x2c, 0xbf, 0x57, 0x6c, 0x6b, 0x3e,
  0x68, 0xfe, 0xef, 0xbe, 0x13, 0x55, 0xa2, 0xbe, 0xdc, 0x68, 0x83, 0x3e,
  0x26, 0xd7, 0xfd, 0x3d, 0x3b, 0x57, 0x6a, 0x3e, 0xb6, 0xaa, 0x29, 0xbe,
  0x6c, 0xa1, 0xb3, 0x3e, 0xf5, 0x2b, 0x02, 0xbf, 0xb1, 0xb5, 0xaa, 0x3e,
  0x61, 0x6e, 0x13, 0xbf, 0xc2, 0x48, 0x17, 0xbf, 0x14, 0xdc, 0xb2, 0x3c,
  0x39, 0x1a, 0x69, 0x3e, 0x4c, 0x8b, 0x9e, 0xbe, 0x55, 0x9f, 0xe1, 0x3e,
  0xcf, 0x1d, 0xf1, 0xbd, 0x77, 0x52, 0x3e, 0xbe, 0xfa, 0x6b, 0xc0, 0x3e,
  0xdc, 0x7a, 0x3c, 0x3f, 0x56, 0x17, 0x8b, 0xbe, 0x7a, 0xe2, 0xbc, 0xbe,
  0x5d, 0x6f, 0x13, 0x3f, 0xba, 0xf5, 0xff, 0xff, 0x04, 0x00, 0x00, 0x00,
  0x00, 0x09, 0x00, 0x00, 0xe2, 0x8c, 0x3b, 0x3d, 0x7d, 0x7c, 0xdb, 0x3d,
  0xbc, 0xe4, 0xb2, 0x3d, 0xff, 0x91, 0xaa, 0xbc, 0xd7, 0x49, 0x90, 0x3e,
  0x02, 0xe2, 0x7e, 0x3e, 0x32, 0xed, 0xcd, 0x3d, 0x21, 0xd2, 0xd4, 0x3b,
  0xc7, 0x73, 0x08, 0xbe, 0x49, 0x99, 0x51, 0xbe, 0xc1, 0xb6, 0x2b, 0x3e,
  0xff, 0x22, 0xba, 0xbd, 0xf7, 0x7a, 0xae, 0xbd, 0x03, 0x09, 0xbf, 0xbc,
  0x7e, 0x3c, 0x42, 0x3c, 0x26, 0x69, 0x2e, 0xbe, 0x16, 0xd1, 0x07, 0x3e,
  0x7e, 0x1e, 0xb4, 0x3d, 0xe2, 0x1d, 0xd0, 0xbd, 0x4c, 0xf0, 0x0c, 0xbe,
  0x43, 0x15, 0xae, 0x3d, 0x0f, 0x72, 0x5e, 0x3e, 0xf9, 0xeb, 0xa3, 0xbd,
  0x1a, 0x2d, 0x2d, 0x3e, 0x91, 0x74, 0x70, 0xbe, 0xb0, 0x6b, 0x28, 0x3e,
  0x9b, 0x6c, 0xdb, 0xbd, 0xea, 0x3e, 0x56, 0x3e, 0x1c, 0xa5, 0x01, 0x3d,
  0x34, 0x14, 0xb7, 0xbb, 0x47, 0x6b, 0x0b, 0xbe, 0x6a, 0x05, 0xe5, 0x3d,
  0xa6, 0x2f, 0x35, 0x3e, 0x2c, 0xcf, 0x75, 0x3e, 0x1a, 0x5d, 0x9c, 0xbd,
  0x17, 0x2c, 0xe4, 0xbd, 0xac, 0x5e, 0xf5, 0x3d, 0x26, 0x95, 0x88, 0xbd,
  0xeb, 0x37, 0x0c, 0xbe, 0x8b, 0x79, 0x9e, 0xbb, 0xf3, 0xbe, 0x9b, 0xbe,
  0x25, 0xe1, 0xf3, 0xbd, 0x13, 0x8f, 0x17, 0x3c, 0x8f, 0x72, 0x67, 0xbc,
  0x77, 0xc5, 0x09, 0x3d, 0x07, 0xcc, 0xbc, 0xbc, 0x4a, 0xa8, 0x2f, 0xbe,
  0x64, 0x39, 0x14, 0x3e, 0x6d, 0x8f, 0x78, 0xbb, 0xe6, 0x2a, 0x14, 0x3e,
  0xb7, 0x55, 0x53, 0xbe, 0x2f, 0x15, 0x1f, 0xba, 0x32, 0x10, 0x3b, 0xbd,
  0xab, 0xb0, 0x15, 0x3e, 0x6c, 0x1e, 0x1e, 0xbe, 0x7d, 0x39, 0x9a, 0xbd,
  0xf5, 0x97, 0x51, 0xbe, 0xb5, 0xfa, 0x61, 0xbe, 0x5c, 0xb1, 0xb6, 0x3d,
  0x29, 0xb6, 0x4a, 0x3e, 0x5b, 0x67, 0x97, 0x3c, 0xeb, 0x59, 0xd0, 0x3d,
  0xd9, 0x0e, 0x59, 0xbd, 0x8f, 0x65, 0x6d, 0xbe, 0xd9, 0x53, 0x9f, 0x3d,
  0x9f, 0x4a, 0x63, 0xbd, 0x5d, 0xaa, 0x1f, 0x3e, 0x1d, 0xe8, 0x36, 0xbd,
  0xbc, 0x54, 0x38, 0xbd, 0xa3, 0x1d, 0xdd, 0xbd, 0x01, 0x83, 0x8d, 0xbd,
  0xa3, 0x2b, 0x6c, 0x3c, 0x5e, 0x87, 0x00, 0xbe, 0x26, 0xec, 0x41, 0xbe,
  0xbf, 0x8b, 0x00, 0xbe, 0x74, 0xc4, 0x61, 0xbd, 0xa6, 0xc5, 0x63, 0xbe,
  0x0b, 0x17, 0x2c, 0x3d, 0xaa, 0x48, 0x80, 0xbe, 0xcf, 0x84, 0x50, 0x3e,
  0x31, 0x99, 0x23, 0x3e, 0x12, 0x93, 0x17, 0xbe, 0x00, 0xea, 0x2c, 0xbe,
  0x98, 0x4a, 0x9f, 0xbe, 0xcb, 0x35, 0x2a, 0xbe, 0xe7, 0xe1, 0x4d, 0x3e,
  0x49, 0xb7, 0xc9, 0xbd, 0x1d, 0x36, 0x94, 0xbd, 0xfc, 0x87, 0x23, 0xbe,
  0x8f, 0xfa, 0xbd, 0x3d, 0x52, 0x93, 0x22, 0x3d, 0x6b, 0x7f, 0x02, 0xbe,
  0xd1, 0xe2, 0x84, 0xbd, 0xb7, 0xa5, 0x00, 0x3e, 0x05, 0x23, 0x61, 0x3d,
  0xfe, 0x32, 0xbf, 0x3b, 0xb0, 0xe8, 0x1d, 0xbe, 0xdd, 0x0b, 0x72, 0xbe,
  0x3f, 0x55, 0xa6, 0x3c, 0x7c, 0xe8, 0x12, 0x3e, 0x23, 0xc9, 0x63, 0x3e,
  0x26, 0x02, 0x2b, 0x3e, 0xad, 0x1a, 0x10, 0xbe, 0x4b, 0x39, 0x45, 0x3d,
  0x72, 0xa0, 0x8d, 0xbd, 0xa2, 0x5d, 0xe2, 0xbd, 0xd9, 0x59, 0x95, 0x3d,
  0xf9, 0x68, 0xcf, 0x3c, 0x17, 0x34, 0x81, 0x3e, 0x39, 0xde, 0xd1, 0xbd,
  0x8b, 0xe1, 0xe9, 0x3d, 0x04, 0x8b, 0x38, 0x3e, 0xca, 0xdb, 0x08, 0xbc,
  0x01, 0xa9, 0x1c, 0xbe, 0x40, 0x9d, 0x67, 0x3d, 0x2d, 0xb5, 0x49, 0x3d,
  0x79, 0x94, 0xae, 0xbd, 0xa6, 0x6c, 0xb4, 0xbd, 0x02, 0x90, 0xd2, 0xbd,
  0x4c, 0xb4, 0x2d, 0xbe, 0xc9, 0x03, 0xc1, 0xbd, 0x9d, 0xbe, 0xfb, 0xbd,
  0x65, 0x91, 0x62, 0xbe, 0xdb, 0xe9, 0x94, 0x3e, 0x2f, 0x07, 0x56, 0x3e,
  0x61, 0x9f, 0x9a, 0xbe, 0x3a, 0x8a, 0x4d, 0xbe, 0xef, 0x0c, 0x89, 0x3d,
  0x48, 0x37, 0x4c, 0xbe, 0xff, 0x9f, 0x0c, 0xbe, 0x32, 0xce, 0xb0, 0xbd,
  0xfb, 0x08, 0x32, 0x3e, 0xbd, 0xff, 0xa6, 0x3b, 0x06, 0x67, 0xa2, 0xbd,
  0x07, 0x3d, 0xc7, 0xbd, 0x3e, 0x8a, 0xfa, 0x3d, 0x30, 0x2f, 0x39, 0x3d,
  0x0c, 0xe7, 0x40, 0xbd, 0xa7, 0xfa, 0x13, 0xbe, 0xde, 0xb9, 0x3b, 0x3e,
  0x86, 0x1a, 0x55, 0xbc, 0xc2, 0x8c, 0x04, 0xbe, 0xb9, 0x21, 0x30, 0xbe,
  0x94, 0xc4, 0x6d, 0xbe, 0x50, 0x5a, 0x9e, 0x3d, 0x62, 0x94, 0x9d, 0xbd,
  0x9a, 0x24, 0x6d, 0x3e, 0xf7, 0xf8, 0xf2, 0x3c, 0xb5, 0x45, 0x10, 0x3e,
  0xb2, 0x76, 0x6f, 0xbd, 0xa4, 0xed, 0xa0, 0x3d, 0xf8, 0xee, 0x41, 0x3e,
  0x06, 0x2f, 0x07, 0x3e, 0x7c, 0x17, 0xb9, 0xbd, 0x3e, 0x07, 0x85, 0x3e,
  0xe7, 0xb7, 0xb7, 0xbd, 0x85, 0x6f, 0x06, 0xbe, 0x83, 0x17, 0x2b, 0x3c,
  0x9d, 0x71, 0x67, 0xbe, 0xab, 0x91, 0x0d, 0x3e, 0x58, 0x80, 0x4b, 0xbe,
  0x8c, 0x6c, 0xeb, 0x3d, 0x86, 0x39, 0x99, 0x3b, 0xcc, 0xd4, 0x96, 0xbc,
  0x82, 0x4d, 0xcf, 0x3c, 0x5b, 0xcc, 0x06, 0x3e, 0x2d, 0x99, 0x60, 0xbe,
  0x71, 0x96, 0x42, 0xbe, 0x59, 0x9d, 0xf2, 0xbd, 0xdd, 0x8f, 0x31, 0xbe,
  0x78, 0x5b, 0xf0, 0xbd, 0xcb, 0x32, 0x2f, 0x3e, 0xff, 0x89, 0x5b, 0xbd,
  0x30, 0x3a, 0x5b, 0xbe, 0xbf, 0xe1, 0xd3, 0xbd, 0x33, 0x20, 0x89, 0x3e,
  0x05, 0x31, 0x6f, 0x3e, 0x90, 0x81, 0x90, 0xbd, 0x41, 0x25, 0xb2, 0x3d,
  0xa4, 0x9d, 0x6c, 0x3d, 0xa0, 0xe0, 0xbe, 0xbd, 0xc0, 0xe8, 0xde, 0x3d,
  0x38, 0xba, 0x0c, 0x3e, 0x63, 0xe0, 0x8d, 0x3e, 0x19, 0xc2, 0x85, 0x3e,
  0x3b, 0xb7, 0x0f, 0x3d, 0x2b, 0xc4, 0x07, 0xbc, 0x48, 0x8c, 0x0b, 0xbd,
  0x37, 0x20, 0xb8, 0xbd, 0xa6, 0x62, 0xa4, 0xbd, 0xcb, 0x92, 0x4e, 0xbc,
  0x4a, 0xa8, 0xe2, 0xbd, 0xb1, 0x8b, 0x1e, 0x3d, 0x7b, 0xf4, 0x43, 0xbb,
  0xdb, 0x2f, 0xf7, 0x3d, 0x52, 0x2f, 0x99, 0x3d, 0xa8, 0xb8, 0xa2, 0xbe,
  0xf1, 0x74, 0xca, 0x3c, 0x6b, 0x00, 0xcd, 0x3d, 0x90, 0xf5, 0xaf, 0x3d,
  0x84, 0x9e, 0x14, 0xbe, 0xe9, 0x3b, 0x21, 0x3e, 0x6d, 0x9d, 0x01, 0xbd,
  0x61, 0xb8, 0xfe, 0x3d, 0x2b, 0x32, 0x12, 0xbe, 0xec, 0x10, 0x64, 0xbe,
  0x1e, 0x7e, 0x10, 0xbe, 0x7d, 0x2d, 0x46, 0x3e, 0x7c, 0xaa, 0x1c, 0x3e,
  0xa8, 0x78, 0x3c, 0x3d, 0x66, 0xf1, 0x05, 0x3e, 0xc0, 0x52, 0x5d, 0xbe,
  0x1c, 0x17, 0xf3, 0xbd, 0x11, 0xd5, 0xfe, 0x3d, 0x4c, 0xf8, 0x56, 0x3e,
  0xf6, 0x11, 0x73, 0xbd, 0x69, 0xb9, 0x1c, 0xbe, 0x92, 0x4e, 0xc4, 0xbd,
  0xef, 0xde, 0x60, 0xbe, 0xa0, 0x44, 0xf0, 0x3d, 0xc7, 0x2e, 0x45, 0x3e,
  0x0a, 0x73, 0xde, 0xbd, 0x1c, 0x34, 0xb8, 0xbd, 0xb2, 0x2f, 0x5c, 0x3e,
  0xf5, 0xde, 0x2f, 0x3e, 0x0b, 0x9b, 0xc6, 0x3d, 0xd2, 0x78, 0x23, 0xbe,
  0xee, 0x02, 0xc4, 0xbb, 0xd7, 0x7c, 0xd5, 0x3d, 0x35, 0x43, 0x84, 0xbd,
  0x28, 0x38, 0x52, 0x3e, 0x21, 0xf9, 0x53, 0x3c, 0xbe, 0xdb, 0xb5, 0x3d,
  0x21, 0x10, 0x09, 0xbe, 0x6f, 0xf7, 0xcd, 0xbc, 0xb2, 0xaf, 0xf7, 0x3d,
  0xea, 0x25, 0xc2, 0x3d, 0xda, 0x8b, 0xa8, 0xbd, 0x00, 0xd8, 0xd6, 0xbd,
  0xa6, 0x3a, 0xeb, 0xbb, 0xee, 0x52, 0x06, 0x3d, 0x3d, 0x12, 0x4c, 0xbd,
  0xd3, 0x88, 0xeb, 0xbd, 0x02, 0xa4, 0x57, 0xbd, 0x6e, 0xea, 0xce, 0xbc,
  0x76, 0x2a, 0xeb, 0x3d, 0xc6, 0x8d, 0xc6, 0xbd, 0x18, 0x15, 0xfc, 0x3d,
  0x85, 0x6c, 0x93, 0xbe, 0x3c, 0xe4, 0xe1, 0x3d, 0x7c, 0x17, 0x5e, 0x3d,
  0xa0, 0x37, 0x05, 0xbc, 0xfa, 0x4b, 0xca, 0x3d, 0x54, 0x02, 0x2c, 0xbe,
  0x04, 0xcc, 0x4a, 0x3e, 0x82, 0xff, 0xe0, 0x3d, 0x19, 0xa9, 0x3a, 0x3e,
  0x95, 0x5f, 0xa4, 0xbc, 0xc1, 0x2e, 0x8a, 0xbd, 0x4a, 0xd5, 0x0d, 0x3e,
  0xda, 0x84, 0x47, 0x3d, 0x4d, 0x72, 0x2f, 0x3c, 0x04, 0x1b, 0x6e, 0x3e,
  0x8f, 0x17, 0x88, 0x3d, 0x4f, 0x69, 0x09, 0xbe, 0x3a, 0xd8, 0x97, 0xbc,
  0x2a, 0xc6, 0xe1, 0x3c, 0xef, 0x41, 0x23, 0x3e, 0x0b, 0xec, 0xc8, 0xbd,
  0xb0, 0xc4, 0xc8, 0xbd, 0x86, 0x30, 0xcb, 0xbc, 0xd7, 0xb4, 0x08, 0xbe,
  0x52, 0x84, 0xdc, 0x3d, 0xfb, 0x8b, 0x69, 0xbd, 0x39, 0x13, 0x23, 0xbe,
  0x03, 0x01, 0xd2, 0xbd, 0x76, 0x85, 0x11, 0x3e, 0x76, 0xe5, 0x63, 0x3e,
  0x3b, 0x32, 0xa5, 0xbd, 0xb4, 0x5a, 0xda, 0x3d, 0x3b, 0x81, 0x5a, 0xbd,
  0x63, 0xcb, 0x75, 0xbd, 0xd2, 0x90, 0xd6, 0xbd, 0xa5, 0xcf, 0x4d, 0x3e,
  0xe3, 0x67, 0xce, 0xbc, 0x4d, 0xa8, 0x5a, 0xbe, 0xf2, 0xcf, 0x16, 0x3e,
  0xd8, 0x2b, 0x83, 0x3d, 0xca, 0x9d, 0x75, 0x3b, 0x0c, 0x02, 0x40, 0xbe,
  0x4a, 0xe0, 0xc4, 0xbd, 0xe1, 0x29, 0x97, 0x3e, 0xef, 0x6d, 0x48, 0xbe,
  0x55, 0x60, 0x75, 0xbe, 0x27, 0x25, 0x1b, 0xbe, 0x1f, 0xf3, 0x9e, 0x3d,
  0x79, 0x7c, 0xf8, 0x3d, 0xcd, 0xeb, 0xaa, 0xbd, 0x05, 0x9c, 0x6b, 0x3d,
  0xe6, 0x86, 0xf3, 0xbd, 0xb5, 0x9f, 0xe6, 0x3c, 0x7c, 0x8f, 0x04, 0x3e,
  0xee, 0x07, 0xeb, 0x3d, 0x82, 0xb3, 0x86, 0xbc, 0xa0, 0x4e, 0x89, 0xbd,
  0x92, 0xb0, 0x1b, 0x3c, 0x2a, 0xe6, 0x51, 0xbe, 0xe0, 0x9e, 0xd5, 0xbd,
  0x1a, 0x09, 0xfd, 0x3b, 0xb2, 0xfb, 0x24, 0x3e, 0xf9, 0xa8, 0x56, 0xbd,
  0xf3, 0x4b, 0xd8, 0x3c, 0x2f, 0xc9, 0x04, 0xbe, 0xc6, 0x10, 0xcd, 0xbd,
  0xe8, 0x0f, 0x55, 0x3d, 0xb6, 0xca, 0x11, 0x3e, 0x33, 0x79, 0x54, 0x3e,
  0xdd, 0x16, 0x95, 0x3d, 0x78, 0x69, 0x83, 0x3e, 0xb6, 0xb9, 0xfa, 0x3d,
  0x4b, 0x78, 0xce, 0x3d, 0xbd, 0x3c, 0x53, 0xbe, 0x2e, 0xa4, 0x1a, 0x3e,
  0x72, 0xa2, 0x3c, 0xbc, 0x6a, 0xf8, 0x30, 0xbe, 0xd9, 0x70, 0x03, 0xbd,
  0xa1, 0x9b, 0x65, 0x3e, 0x04, 0x48, 0x2d, 0x3e, 0xc8, 0x82, 0x63, 0x3c,
  0x63, 0x76, 0x52, 0x3e, 0xe8, 0x4d, 0x16, 0x3c, 0x23, 0xa0, 0x35, 0xbd,
  0xb4, 0x30, 0xe4, 0xbd, 0x04, 0x3a, 0xf0, 0x3d, 0xcf, 0x63, 0x3c, 0x3e,
  0x4e, 0x9f, 0x73, 0x3d, 0xaf, 0x72, 0x48, 0xbd, 0x07, 0x97, 0x86, 0xbd,
  0x59, 0x7b, 0x07, 0x3d, 0x06, 0xd7, 0xcc, 0x3d, 0x06, 0x27, 0x8f, 0xbd,
  0x7b, 0x56, 0x14, 0x3e, 0x2b, 0xe3, 0x32, 0x3e, 0xd8, 0x08, 0x01, 0x3e,
  0x64, 0xe4, 0x3e, 0x3d, 0x39, 0x85, 0xde, 0x3c, 0xcd, 0xef, 0xa6, 0x3e,
  0xd5, 0x56, 0xa3, 0x3e, 0xf0, 0x38, 0x11, 0x3e, 0x15, 0xbf, 0x39, 0xbe,
  0xcd, 0x07, 0x07, 0xbe, 0x8f, 0x92, 0x5a, 0xbe, 0xd5, 0x82, 0x85, 0x3e,
  0xf6, 0x51, 0xe7, 0x3d, 0x33, 0x43, 0x04, 0x3e, 0xe8, 0x79, 0xac, 0xbd,
  0xf8, 0x7a, 0x41, 0xbe, 0xd7, 0x59, 0x06, 0xbe, 0xfe, 0xae, 0x5a, 0xbe,
  0x51, 0xc4, 0x1b, 0xbe, 0xcc, 0x4b, 0x11, 0x3d, 0xa0, 0x27, 0xef, 0xbb,
  0x67, 0x98, 0x4a, 0xbd, 0x2e, 0x88, 0x03, 0x3e, 0x43, 0xca, 0xc4, 0x3d,
  0x56, 0x98, 0xfd, 0x3d, 0x1f, 0x59, 0x06, 0x3c, 0xbf, 0xef, 0xd9, 0xbc,
  0x7e, 0xe5, 0x81, 0x3d, 0xcf, 0xf4, 0xe0, 0x3d, 0xf5, 0x98, 0x8c, 0x3e,
  0x75, 0x74, 0xde, 0xbc, 0xba, 0x43, 0x8f, 0x3c, 0x2b, 0x00, 0xb9, 0xbc,
  0x51, 0x9e, 0xce, 0x3d, 0x81, 0xcc, 0x1f, 0xbe, 0x98, 0x63, 0x8a, 0xbb,
  0x52, 0xf5, 0x4a, 0xbe, 0xf9, 0xc6, 0x33, 0x3e, 0xdf, 0x96, 0xa0, 0xbd,
  0x6d, 0x47, 0x27, 0xbe, 0xd9, 0xa1, 0x98, 0xbd, 0x34, 0x94, 0x9b, 0x3d,
  0x87, 0x7f, 0x83, 0x3e, 0x5c, 0xe3, 0xbb, 0x3d, 0xb8, 0x07, 0xab, 0x3d,
  0x67, 0x9c, 0x21, 0xbd, 0xbd, 0x36, 0x29, 0x3e, 0x32, 0x54, 0xfe, 0x3d,
  0x7d, 0x70, 0xcf, 0xbd, 0x77, 0x81, 0x39, 0xbd, 0xa0, 0xd2, 0x10, 0xbe,
  0xfa, 0xaf, 0xb6, 0xbc, 0xc6, 0x26, 0xb2, 0x3d, 0xca, 0x83, 0xb6, 0xbe,
  0x01, 0xc1, 0x89, 0xbe, 0xe7, 0x9e, 0x09, 0x3e, 0x67, 0x59, 0x0c, 0x3d,
  0x4d, 0x7c, 0x64, 0xbe, 0x4f, 0x2d, 0xba, 0xbe, 0xc3, 0x80, 0xcb, 0xbc,
  0xc5, 0xf5, 0x96, 0xbe, 0xee, 0x03, 0x3e, 0x3b, 0x96, 0x68, 0x20, 0x3e,
  0x78, 0x2a, 0x77, 0xbc, 0x2d, 0xa8, 0xbd, 0xbd, 0x29, 0x2c, 0x42, 0x3c,
  0xfd, 0x9b, 0x7e, 0x3d, 0x81, 0x16, 0xa8, 0xbd, 0x7e, 0xfc, 0x9b, 0xbd,
  0x48, 0x8d, 0x5f, 0xbd, 0x90, 0x08, 0x85, 0xbe, 0x63, 0xfb, 0x46, 0xbe,
  0xa4, 0x01, 0xdb, 0x3c, 0x84, 0xb5, 0x15, 0xbd, 0x52, 0x9b, 0x9a, 0x3d,
  0xd2, 0x93, 0x8a, 0x3c, 0x1b, 0xe7, 0xbc, 0xbd, 0x60, 0xaf, 0x0d, 0xbe,
  0x65, 0x82, 0x6d, 0x3c, 0x9e, 0xa5, 0xcf, 0xbb, 0x09, 0xda, 0x3d, 0xbe,
  0xff, 0x6e, 0xdf, 0x3d, 0xee, 0x6f, 0x82, 0xb8, 0x6a, 0xa5, 0x7a, 0xbe,
  0xcc, 0x48, 0xbd, 0xbd, 0x96, 0x34, 0x8e, 0xbd, 0x15, 0x04, 0x30, 0x3d,
  0x1c, 0x18, 0x28, 0x3e, 0x86, 0xbc, 0x03, 0x3e, 0xb4, 0x09, 0x68, 0xbe,
  0xdf, 0x29, 0x9e, 0xbe, 0x3a, 0xe8, 0x25, 0xbc, 0x98, 0xcf, 0x46, 0x3e,
  0x6b, 0xfa, 0xd8, 0x3d, 0x19, 0x0e, 0xa2, 0x3d, 0x99, 0x4e, 0x8e, 0xbe,
  0x9e, 0x90, 0x6f, 0x3b, 0x38, 0x40, 0x99, 0x3d, 0x05, 0xad, 0x0a, 0xbe,
  0x7d, 0x93, 0xed, 0xbd, 0x1b, 0xf0, 0x2a, 0x3e, 0x50, 0x95, 0x42, 0xbe,
  0x70, 0x55, 0x01, 0x3e, 0xa5, 0xc9, 0x06, 0xbe, 0x08, 0xe8, 0x33, 0x3d,
  0x15, 0x85, 0x81, 0x3d, 0x93, 0x2c, 0x20, 0x3e, 0x72, 0xf8, 0x3a, 0xbe,
  0xba, 0x6a, 0x74, 0x3e, 0x09, 0xea, 0x29, 0x3e, 0x03, 0xbd, 0x33, 0xbe,
  0x91, 0x8a, 0x6b, 0xbe, 0xd2, 0x4c, 0x5f, 0x3d, 0x10, 0x2d, 0x1f, 0xbe,
  0x17, 0x4c, 0x04, 0xbe, 0x14, 0xb4, 0x58, 0xbe, 0xa4, 0x26, 0x23, 0xbe,
  0xc8, 0xc0, 0x81, 0xbd, 0x15, 0x8c, 0xf2, 0xbd, 0xe4, 0xd9, 0x29, 0xbd,
  0xff, 0xaa, 0xc0, 0x3d, 0x95, 0x68, 0x23, 0x3e, 0xe8, 0x7f, 0x2f, 0xbd,
  0xd7, 0xca, 0x0c, 0xbe, 0xb0, 0xbc, 0x6a, 0xbe, 0x79, 0x0f, 0x7d, 0xbd,
  0xb1, 0x02, 0x25, 0x3e, 0xdc, 0xb1, 0x1b, 0xbb, 0xf7, 0x12, 0x4b, 0x3b,
  0x44, 0x28, 0x1d, 0xbe, 0x77, 0xcf, 0x61, 0xbe, 0x3d, 0x74, 0x33, 0xbd,
  0xf4, 0xc6, 0xfc, 0xbd, 0xec, 0xe1, 0x34, 0x3e, 0xb4, 0x8d, 0x3c, 0x3e,
  0xa4, 0xb4, 0x43, 0xbe, 0x00, 0x61, 0xdc, 0xbd, 0x53, 0x51, 0x51, 0x3d,
  0xe2, 0x64, 0x78, 0xbd, 0x84, 0xcb, 0x4f, 0x3e, 0x9d, 0x8a, 0xfd, 0x3d,
  0xa2, 0x38, 0x0e, 0xbe, 0x35, 0x51, 0xc9, 0x3b, 0x00, 0x81, 0x6f, 0x3d,
  0x2f, 0xc3, 0x0c, 0x3e, 0xb9, 0xad, 0x7b, 0xbe, 0xb5, 0x85, 0x1c, 0x3d,
  0xb4, 0xcb, 0xb0, 0x3c, 0x88, 0x64, 0x90, 0x3e, 0x3e, 0x65, 0xeb, 0x3d,
  0x7b, 0xcb, 0x2d, 0x3c, 0x15, 0x3d, 0x20, 0x3e, 0x0a, 0xdb, 0x34, 0x3e,
  0x21, 0x34, 0x49, 0x3e, 0xc8, 0xd0, 0x68, 0x3e, 0x68, 0x2b, 0x6f, 0x3e,
  0x5c, 0x8e, 0x37, 0xbd, 0xfd, 0x76, 0xeb, 0x3d, 0x5a, 0xbb, 0x35, 0x3e,
  0x1b, 0x2d, 0x0c, 0x3d, 0xa3, 0x71, 0x6e, 0xbe, 0x71, 0x31, 0xae, 0x3d,
  0x60, 0x33, 0x5a, 0xbb, 0xde, 0x87, 0x84, 0x3d, 0x88, 0xa1, 0x1e, 0xbe,
  0xe4, 0x45, 0x8d, 0xbd, 0x55, 0x91, 0xd7, 0x3d, 0x90, 0x52, 0xa6, 0x3e,
  0x88, 0xcd, 0xa0, 0xbd, 0x9c, 0xda, 0x8c, 0x3d, 0x16, 0x9f, 0x7d, 0xbd,
  0xfc, 0xa1, 0xc0, 0x3c, 0x29, 0x57, 0x49, 0x3e, 0x75, 0x7f, 0x9c, 0xbd,
  0x9e, 0xb0, 0x50, 0x3e, 0x1d, 0x01, 0x9c, 0xbd, 0xcb, 0x16, 0x3e, 0x3c,
  0x2a, 0x80, 0x32, 0x3e, 0xe3, 0x72, 0x87, 0x3e, 0xa2, 0xbc, 0x88, 0x3e,
  0x12, 0x4d, 0xd4, 0x3d, 0x09, 0xec, 0x5a, 0xbe, 0x36, 0x66, 0x4c, 0x3d,
  0xd7, 0x32, 0xdc, 0x3d, 0x0f, 0xd9, 0x1c, 0xbe, 0xb1, 0x2a, 0x4c, 0xbe,
  0xb4, 0x82, 0x94, 0xbe, 0x25, 0xb8, 0x02, 0xbe, 0x40, 0xe4, 0x4b, 0xbe,
  0x26, 0xcc, 0xbb, 0xbd, 0x7f, 0xb9, 0x44, 0xbe, 0x9a, 0xdd, 0x5e, 0x3d,
  0x5c, 0x95, 0xdd, 0x3d, 0xc8, 0xb5, 0xf3, 0x3d, 0x33, 0x17, 0xcf, 0xbc,
  0xfa, 0xf4, 0xe7, 0x3d, 0xc2, 0xb3, 0x79, 0xbe, 0x4a, 0x5e, 0x8a, 0xbc,
  0xf9, 0x62, 0x3f, 0x3e, 0x1a, 0x07, 0x39, 0xbd, 0x57, 0x2e, 0x49, 0xbc,
  0x7f, 0x72, 0x88, 0xbb, 0x4c, 0x92, 0x13, 0x3e, 0x5a, 0x6e, 0xaf, 0x3c,
  0xc0, 0x97, 0x75, 0x3d, 0xb8, 0x72, 0xc1, 0xbc, 0x11, 0xd9, 0x2e, 0xbe,
  0xb1, 0x82, 0x8b, 0xbd, 0x63, 0x71, 0x04, 0x3e, 0x14, 0x35, 0x1e, 0x3e,
  0xc8, 0x29, 0x33, 0x3e, 0x11, 0x74, 0xf6, 0xbd, 0xca, 0xae, 0xa0, 0xbd,
  0x93, 0xd2, 0xa9, 0xbd, 0xe8, 0x00, 0x06, 0xbd, 0x59, 0xa9, 0x70, 0x3e,
  0x86, 0xb7, 0x0f, 0xbe, 0xd2, 0x32, 0xa0, 0xbc, 0xff, 0xc2, 0x84, 0xbc,
  0x1a, 0x3e, 0x50, 0x3e, 0x5a, 0x2f, 0x68, 0x3d, 0x25, 0xbb, 0x85, 0x3e,
  0xc8, 0xfc, 0x25, 0x3e, 0x53, 0x98, 0x0e, 0xbd, 0x85, 0xff, 0xe5, 0x3d,
  0x9e, 0x17, 0x46, 0xbe, 0x9a, 0x92, 0x00, 0x3e, 0xf5, 0xca, 0x69, 0x3e,
  0x3c, 0x45, 0x49, 0x3e, 0x12, 0xde, 0x32, 0x3c, 0xd8, 0x93, 0xaa, 0x3d,
  0xb6, 0x51, 0x89, 0xbe, 0xa1, 0x19, 0xd3, 0x3c, 0xe4, 0xd9, 0xb6, 0xbc,
  0xd2, 0xb8, 0x06, 0x3e, 0xc6, 0xfe, 0xff, 0xff, 0x04, 0x00, 0x00, 0x00,
  0x0c, 0x00, 0x00, 0x00, 0xff, 0xff, 0xff, 0xff, 0x0a, 0x00, 0x00, 0x00,
  0x20, 0x00, 0x00, 0x00, 0xde, 0xfe, 0xff, 0xff, 0x04, 0x00, 0x00, 0x00,
  0x80, 0x00, 0x00, 0x00, 0x5a, 0xd9, 0x33, 0x3e, 0x67, 0x13, 0xc0, 0xbd,
  0x5c, 0x93, 0x37, 0x3e, 0x02, 0x3b, 0x27, 0x3e, 0x01, 0x42, 0xce, 0xbd,
  0x16, 0x45, 0xbb, 0x3d, 0x73, 0x81, 0x34, 0x3e, 0x7e, 0x38, 0x31, 0x3d,
  0x67, 0xf6, 0xa0, 0x3d, 0x0d, 0x53, 0x1a, 0xbe, 0x98, 0xb3, 0x18, 0xbe,
  0x26, 0xad, 0xfa, 0xbc, 0x1c, 0xa7, 0x3d, 0xbe, 0x19, 0x03, 0xbb, 0x3d,
  0xe3, 0x1b, 0x39, 0xbd, 0x68, 0x0b, 0xf9, 0x3d, 0x41, 0x99, 0x4d, 0xbe,
  0xd9, 0x38, 0xff, 0xbb, 0x90, 0x43, 0xde, 0xbd, 0x1b, 0xf3, 0xdd, 0x3d,
  0xac, 0xb2, 0x98, 0x3d, 0x9a, 0xde, 0x0a, 0x3e, 0xbd, 0x73, 0x51, 0x3e,
  0xe9, 0x53, 0x6b, 0xbd, 0xa8, 0x40, 0xcb, 0xbd, 0x75, 0xa7, 0xaf, 0xbd,
  0x4c, 0x1f, 0x06, 0x3d, 0x2f, 0x2a, 0x86, 0xbd, 0x5e, 0x5b, 0xdb, 0x3a,
  0xd3, 0x20, 0xfd, 0x3c, 0x05, 0x33, 0x46, 0xbc, 0x77, 0x3d, 0xc6, 0xbc,
  0x1c, 0xf6, 0xff, 0xff, 0x20, 0xf6, 0xff, 0xff, 0x0f, 0x00, 0x00, 0x00,
  0x4d, 0x4c, 0x49, 0x52, 0x20, 0x43, 0x6f, 0x6e, 0x76, 0x65, 0x72, 0x74,
  0x65, 0x64, 0x2e, 0x00, 0x01, 0x00, 0x00, 0x00, 0x14, 0x00, 0x00, 0x00,
  0x00, 0x00, 0x0e, 0x00, 0x18, 0x00, 0x14, 0x00, 0x10, 0x00, 0x0c, 0x00,
  0x08, 0x00, 0x04, 0x00, 0x0e, 0x00, 0x00, 0x00, 0x14, 0x00, 0x00, 0x00,
  0x1c, 0x00, 0x00, 0x00, 0x00, 0x02, 0x00, 0x00, 0x04, 0x02, 0x00, 0x00,
  0x08, 0x02, 0x00, 0x00, 0x04, 0x00, 0x00, 0x00, 0x6d, 0x61, 0x69, 0x6e,
  0x00, 0x00, 0x00, 0x00, 0x08, 0x00, 0x00, 0x00, 0xb8, 0x01, 0x00, 0x00,
  0x58, 0x01, 0x00, 0x00, 0x24, 0x01, 0x00, 0x00, 0xf0, 0x00, 0x00, 0x00,
  0xbc, 0x00, 0x00, 0x00, 0x78, 0x00, 0x00, 0x00, 0x40, 0x00, 0x00, 0x00,
  0x04, 0x00, 0x00, 0x00, 0xd2, 0xfe, 0xff, 0xff, 0x1c, 0x00, 0x00, 0x00,
  0x00, 0x00, 0x00, 0x09, 0x1c, 0x00, 0x00, 0x00, 0x20, 0x00, 0x00, 0x00,
  0x06, 0x00, 0x00, 0x00, 0x00, 0x00, 0x06, 0x00, 0x08, 0x00, 0x04, 0x00,
  0x06, 0x00, 0x00, 0x00, 0x00, 0x00, 0x80, 0x3f, 0x01, 0x00, 0x00, 0x00,
  0x11, 0x00, 0x00, 0x00, 0x01, 0x00, 0x00, 0x00, 0x10, 0x00, 0x00, 0x00,
  0x0a, 0xff, 0xff, 0xff, 0x14, 0x00, 0x00, 0x00, 0x00, 0x00, 0x00, 0x08,
  0x10, 0x00, 0x00, 0x00, 0x14, 0x00, 0x00, 0x00, 0x05, 0x00, 0x00, 0x00,
  0xe8, 0xf6, 0xff, 0xff, 0x01, 0x00, 0x00, 0x00, 0x10, 0x00, 0x00, 0x00,
  0x03, 0x00, 0x00, 0x00, 0x0f, 0x00, 0x00, 0x00, 0x04, 0x00, 0x00, 0x00,
  0x06, 0x00, 0x00, 0x00, 0x3e, 0xff, 0xff, 0xff, 0x1c, 0x00, 0x00, 0x00,
  0x00, 0x00, 0x00, 0x08, 0x1c, 0x00, 0x00, 0x00, 0x20, 0x00, 0x00, 0x00,
  0x05, 0x00, 0x00, 0x00, 0x00, 0x00, 0x06, 0x00, 0x08, 0x00, 0x07, 0x00,
  0x06, 0x00, 0x00, 0x00, 0x00, 0x00, 0x00, 0x01, 0x01, 0x00, 0x00, 0x00,
  0x0f, 0x00, 0x00, 0x00, 0x03, 0x00, 0x00, 0x00, 0x0e, 0x00, 0x00, 0x00,
  0x05, 0x00, 0x00, 0x00, 0x07, 0x00, 0x00, 0x00, 0x7e, 0xff, 0xff, 0xff,
  0x14, 0x00, 0x00, 0x00, 0x00, 0x00, 0x00, 0x1b, 0x10, 0x00, 0x00, 0x00,
  0x14, 0x00, 0x00, 0x00, 0x04, 0x00, 0x00, 0x00, 0x5c, 0xf7, 0xff, 0xff,
  0x01, 0x00, 0x00, 0x00, 0x0e, 0x00, 0x00, 0x00, 0x02, 0x00, 0x00, 0x00,
  0x0d, 0x00, 0x00, 0x00, 0x08, 0x00, 0x00, 0x00, 0xda, 0xff, 0xff, 0xff,
  0x0c, 0x00, 0x00, 0x00, 0x10, 0x00, 0x00, 0x00, 0x03, 0x00, 0x00, 0x00,
  0x01, 0x00, 0x00, 0x00, 0x0d, 0x00, 0x00, 0x00, 0x02, 0x00, 0x00, 0x00,
  0x0c, 0x00, 0x00, 0x00, 0x02, 0x00, 0x00, 0x00, 0x00, 0x00, 0x0a, 0x00,
  0x10, 0x00, 0x0c, 0x00, 0x08, 0x00, 0x04, 0x00, 0x0a, 0x00, 0x00, 0x00,
  0x0c, 0x00, 0x00, 0x00, 0x10, 0x00, 0x00, 0x00, 0x02, 0x00, 0x00, 0x00,
  0x01, 0x00, 0x00, 0x00, 0x0c, 0x00, 0x00, 0x00, 0x01, 0x00, 0x00, 0x00,
  0x0b, 0x00, 0x00, 0x00, 0x00, 0x00, 0x0e, 0x00, 0x1a, 0x00, 0x14, 0x00,
  0x10, 0x00, 0x0c, 0x00, 0x0b, 0x00, 0x04, 0x00, 0x0e, 0x00, 0x00, 0x00,
  0x20, 0x00, 0x00, 0x00, 0x00, 0x00, 0x00, 0x01, 0x28, 0x00, 0x00, 0x00,
  0x2c, 0x00, 0x00, 0x00, 0x01, 0x00, 0x00, 0x00, 0x00, 0x00, 0x0a, 0x00,
  0x10, 0x00, 0x0f, 0x00, 0x08, 0x00, 0x04, 0x00, 0x0a, 0x00, 0x00, 0x00,
  0x01, 0x00, 0x00, 0x00, 0x01, 0x00, 0x00, 0x00, 0x00, 0x00, 0x00, 0x01,
  0x01, 0x00, 0x00, 0x00, 0x0b, 0x00, 0x00, 0x00, 0x03, 0x00, 0x00, 0x00,
  0x0a, 0x00, 0x00, 0x00, 0x03, 0x00, 0x00, 0x00, 0x01, 0x00, 0x00, 0x00,
  0x00, 0x00, 0x0e, 0x00, 0x14, 0x00, 0x00, 0x00, 0x10, 0x00, 0x0c, 0x00,
  0x0b, 0x00, 0x04, 0x00, 0x0e, 0x00, 0x00, 0x00, 0x10, 0x00, 0x00, 0x00,
  0x00, 0x00, 0x00, 0x34, 0x0c, 0x00, 0x00, 0x00, 0x10, 0x00, 0x00, 0x00,
  0x44, 0xf8, 0xff, 0xff, 0x01, 0x00, 0x00, 0x00, 0x0a, 0x00, 0x00, 0x00,
  0x02, 0x00, 0x00, 0x00, 0x00, 0x00, 0x00, 0x00, 0x09, 0x00, 0x00, 0x00,
  0x01, 0x00, 0x00, 0x00, 0x11, 0x00, 0x00, 0x00, 0x01, 0x00, 0x00, 0x00,
  0x00, 0x00, 0x00, 0x00, 0x12, 0x00, 0x00, 0x00, 0x64, 0x07, 0x00, 0x00,
  0x10, 0x07, 0x00, 0x00, 0xb8, 0x06, 0x00, 0x00, 0x58, 0x06, 0x00, 0x00,
  0x18, 0x06, 0x00, 0x00, 0xd8, 0x05, 0x00, 0x00, 0x9c, 0x05, 0x00, 0x00,
  0x60, 0x05, 0x00, 0x00, 0x24, 0x05, 0x00, 0x00, 0xc0, 0x04, 0x00, 0x00,
  0x3c, 0x04, 0x00, 0x00, 0x74, 0x03, 0x00, 0x00, 0xb4, 0x02, 0x00, 0x00,
  0xf8, 0x01, 0x00, 0x00, 0x84, 0x01, 0x00, 0x00, 0xe4, 0x00, 0x00, 0x00,
  0x60, 0x00, 0x00, 0x00, 0x04, 0x00, 0x00, 0x00, 0xfa, 0xf8, 0xff, 0xff,
  0x00, 0x00, 0x00, 0x01, 0x14, 0x00, 0x00, 0x00, 0x1c, 0x00, 0x00, 0x00,
  0x1c, 0x00, 0x00, 0x00, 0x12, 0x00, 0x00, 0x00, 0x34, 0x00, 0x00, 0x00,
  0x02, 0x00, 0x00, 0x00, 0xff, 0xff, 0xff, 0xff, 0x03, 0x00, 0x00, 0x00,
  0xe0, 0xf8, 0xff, 0xff, 0x1b, 0x00, 0x00, 0x00, 0x53, 0x74, 0x61, 0x74,
  0x65, 0x66, 0x75, 0x6c, 0x50, 0x61, 0x72, 0x74, 0x69, 0x74, 0x69, 0x6f,
  0x6e, 0x65, 0x64, 0x43, 0x61, 0x6c, 0x6c, 0x5f, 0x31, 0x3a, 0x30, 0x00,
  0x02, 0x00, 0x00, 0x00, 0x01, 0x00, 0x00, 0x00, 0x03, 0x00, 0x00, 0x00,
  0x52, 0xf9, 0xff, 0xff, 0x00, 0x00, 0x00, 0x01, 0x14, 0x00, 0x00, 0x00,
  0x1c, 0x00, 0x00, 0x00, 0x1c, 0x00, 0x00, 0x00, 0x11, 0x00, 0x00, 0x00,
  0x5c, 0x00, 0x00, 0x00, 0x02, 0x00, 0x00, 0x00, 0xff, 0xff, 0xff, 0xff,
  0x03, 0x00, 0x00, 0x00, 0x38, 0xf9, 0xff, 0xff, 0x40, 0x00, 0x00, 0x00,
  0x73, 0x65, 0x71, 0x75, 0x65, 0x6e, 0x74, 0x69, 0x61, 0x6c, 0x5f, 0x32,
  0x5f, 0x31, 0x2f, 0x64, 0x65, 0x6e, 0x73, 0x65, 0x5f, 0x35, 0x5f, 0x31,
  0x2f, 0x4d, 0x61, 0x74, 0x4d, 0x75, 0x6c, 0x3b, 0x73, 0x65, 0x71, 0x75,
  0x65, 0x6e, 0x74, 0x69, 0x61, 0x6c, 0x5f, 0x32, 0x5f, 0x31, 0x2f, 0x64,
  0x65, 0x6e, 0x73, 0x65, 0x5f, 0x35, 0x5f, 0x31, 0x2f, 0x42, 0x69, 0x61,
  0x73, 0x41, 0x64, 0x64, 0x00, 0x00, 0x00, 0x00, 0x02, 0x00, 0x00, 0x00,
  0x01, 0x00, 0x00, 0x00, 0x03, 0x00, 0x00, 0x00, 0xd2, 0xf9, 0xff, 0xff,
  0x00, 0x00, 0x00, 0x01, 0x14, 0x00, 0x00, 0x00, 0x1c, 0x00, 0x00, 0x00,
  0x1c, 0x00, 0x00, 0x00, 0x10, 0x00, 0x00, 0x00, 0x78, 0x00, 0x00, 0x00,
  0x02, 0x00, 0x00, 0x00, 0xff, 0xff, 0xff, 0xff, 0x10, 0x00, 0x00, 0x00,
  0xb8, 0xf9, 0xff, 0xff, 0x5e, 0x00, 0x00, 0x00, 0x73, 0x65, 0x71, 0x75,
  0x65, 0x6e, 0x74, 0x69, 0x61, 0x6c, 0x5f, 0x32, 0x5f, 0x31, 0x2f, 0x64,
  0x65, 0x6e, 0x73, 0x65, 0x5f, 0x34, 0x5f, 0x31, 0x2f, 0x4d, 0x61, 0x74,
  0x4d, 0x75, 0x6c, 0x3b, 0x73, 0x65, 0x71, 0x75, 0x65, 0x6e, 0x74, 0x69,
  0x61, 0x6c, 0x5f, 0x32, 0x5f, 0x31, 0x2f, 0x64, 0x65, 0x6e, 0x73, 0x65,
  0x5f, 0x34, 0x5f, 0x31, 0x2f, 0x52, 0x65, 0x6c, 0x75, 0x3b, 0x73, 0x65,
  0x71, 0x75, 0x65, 0x6e, 0x74, 0x69, 0x61, 0x6c, 0x5f, 0x32, 0x5f, 0x31,
  0x2f, 0x64, 0x65, 0x6e, 0x73, 0x65, 0x5f, 0x34, 0x5f, 0x31, 0x2f, 0x42,
  0x69, 0x61, 0x73, 0x41, 0x64, 0x64, 0x00, 0x00, 0x02, 0x00, 0x00, 0x00,
  0x01, 0x00, 0x00, 0x00, 0x10, 0x00, 0x00, 0x00, 0x6e, 0xfa, 0xff, 0xff,
  0x00, 0x00, 0x00, 0x01, 0x14, 0x00, 0x00, 0x00, 0x1c, 0x00, 0x00, 0x00,
  0x1c, 0x00, 0x00, 0x00, 0x0f, 0x00, 0x00, 0x00, 0x4c, 0x00, 0x00, 0x00,
  0x02, 0x00, 0x00, 0x00, 0xff, 0xff, 0xff, 0xff, 0x20, 0x00, 0x00, 0x00,
  0x54, 0xfa, 0xff, 0xff, 0x30, 0x00, 0x00, 0x00, 0x73, 0x65, 0x71, 0x75,
  0x65, 0x6e, 0x74, 0x69, 0x61, 0x6c, 0x5f, 0x32, 0x5f, 0x31, 0x2f, 0x67,
  0x6c, 0x6f, 0x62, 0x61, 0x6c, 0x5f, 0x61, 0x76, 0x65, 0x72, 0x61, 0x67,
  0x65, 0x5f, 0x70, 0x6f, 0x6f, 0x6c, 0x69, 0x6e, 0x67, 0x31, 0x64, 0x5f,
  0x32, 0x5f, 0x31, 0x2f, 0x4d, 0x65, 0x61, 0x6e, 0x00, 0x00, 0x00, 0x00,
  0x02, 0x00, 0x00, 0x00, 0x01, 0x00, 0x00, 0x00, 0x20, 0x00, 0x00, 0x00,
  0xde, 0xfa, 0xff, 0xff, 0x00, 0x00, 0x00, 0x01, 0x14, 0x00, 0x00, 0x00,
  0x20, 0x00, 0x00, 0x00, 0x20, 0x00, 0x00, 0x00, 0x0e, 0x00, 0x00, 0x00,
  0x90, 0x00, 0x00, 0x00, 0x03, 0x00, 0x00, 0x00, 0xff, 0xff, 0xff, 0xff,
  0x0a, 0x00, 0x00, 0x00, 0x20, 0x00, 0x00, 0x00, 0xc8, 0xfa, 0xff, 0xff,
  0x70, 0x00, 0x00, 0x00, 0x73, 0x65, 0x71, 0x75, 0x65, 0x6e, 0x74, 0x69,
  0x61, 0x6c, 0x5f, 0x32, 0x5f, 0x31, 0x2f, 0x63, 0x6f, 0x6e, 0x76, 0x31,
  0x64, 0x5f, 0x32, 0x5f, 0x31, 0x2f, 0x54, 0x61, 0x6e, 0x68, 0x3b, 0x73,
  0x65, 0x71, 0x75, 0x65, 0x6e, 0x74, 0x69, 0x61, 0x6c, 0x5f, 0x32, 0x5f,
  0x31, 0x2f, 0x63, 0x6f, 0x6e, 0x76, 0x31, 0x64, 0x5f, 0x32, 0x5f, 0x31,
  0x2f, 0x42, 0x69, 0x61, 0x73, 0x41, 0x64, 0x64, 0x3b, 0x73, 0x65, 0x71,
  0x75, 0x65, 0x6e, 0x74, 0x69, 0x61, 0x6c, 0x5f, 0x32, 0x5f, 0x31, 0x2f,
  0x63, 0x6f, 0x6e, 0x76, 0x31, 0x64, 0x5f, 0x32, 0x5f, 0x31, 0x2f, 0x63,
  0x6f, 0x6e, 0x76, 0x6f, 0x6c, 0x75, 0x74, 0x69, 0x6f, 0x6e, 0x2f, 0x53,
  0x71, 0x75, 0x65, 0x65, 0x7a, 0x65, 0x3b, 0x31, 0x00, 0x00, 0x00, 0x00,
  0x03, 0x00, 0x00, 0x00, 0x01, 0x00, 0x00, 0x00, 0x0a, 0x00, 0x00, 0x00,
  0x20, 0x00, 0x00, 0x00, 0x96, 0xfb, 0xff, 0xff, 0x00, 0x00, 0x00, 0x01,
  0x14, 0x00, 0x00, 0x00, 0x24, 0x00, 0x00, 0x00, 0x24, 0x00, 0x00, 0x00,
  0x0d, 0x00, 0x00, 0x00, 0x90, 0x00, 0x00, 0x00, 0x04, 0x00, 0x00, 0x00,
  0xff, 0xff, 0xff, 0xff, 0x01, 0x00, 0x00, 0x00, 0x0a, 0x00, 0x00, 0x00,
  0x20, 0x00, 0x00, 0x00, 0x84, 0xfb, 0xff, 0xff, 0x6f, 0x00, 0x00, 0x00,
  0x73, 0x65, 0x71, 0x75, 0x65, 0x6e, 0x74, 0x69, 0x61, 0x6c, 0x5f, 0x32,
  0x5f, 0x31, 0x2f, 0x63, 0x6f, 0x6e, 0x76, 0x31, 0x64, 0x5f, 0x32, 0x5f,
  0x31, 0x2f, 0x54, 0x61, 0x6e, 0x68, 0x3b, 0x73, 0x65, 0x71, 0x75, 0x65,
  0x6e, 0x74, 0x69, 0x61, 0x6c, 0x5f, 0x32, 0x5f, 0x31, 0x2f, 0x63, 0x6f,
  0x6e, 0x76, 0x31, 0x64, 0x5f, 0x32, 0x5f, 0x31, 0x2f, 0x42, 0x69, 0x61,
  0x73, 0x41, 0x64, 0x64, 0x3b, 0x73, 0x65, 0x71, 0x75, 0x65, 0x6e, 0x74,
  0x69, 0x61, 0x6c, 0x5f, 0x32, 0x5f, 0x31, 0x2f, 0x63, 0x6f, 0x6e, 0x76,
  0x31, 0x64, 0x5f, 0x32, 0x5f, 0x31, 0x2f, 0x63, 0x6f, 0x6e, 0x76, 0x6f,
  0x6c, 0x75, 0x74, 0x69, 0x6f, 0x6e, 0x2f, 0x53, 0x71, 0x75, 0x65, 0x65,
  0x7a, 0x65, 0x3b, 0x00, 0x04, 0x00, 0x00, 0x00, 0x01, 0x00, 0x00, 0x00,
  0x01, 0x00, 0x00, 0x00, 0x0a, 0x00, 0x00, 0x00, 0x20, 0x00, 0x00, 0x00,
  0x52, 0xfc, 0xff, 0xff, 0x00, 0x00, 0x00, 0x01, 0x14, 0x00, 0x00, 0x00,
  0x24, 0x00, 0x00, 0x00, 0x24, 0x00, 0x00, 0x00, 0x0c, 0x00, 0x00, 0x00,
  0x98, 0x00, 0x00, 0x00, 0x04, 0x00, 0x00, 0x00, 0xff, 0xff, 0xff, 0xff,
  0x01, 0x00, 0x00, 0x00, 0x0a, 0x00, 0x00, 0x00, 0x20, 0x00, 0x00, 0x00,
  0x40, 0xfc, 0xff, 0xff, 0x76, 0x00, 0x00, 0x00, 0x73, 0x65, 0x71, 0x75,
  0x65, 0x6e, 0x74, 0x69, 0x61, 0x6c, 0x5f, 0x32, 0x5f, 0x31, 0x2f, 0x63,
  0x6f, 0x6e, 0x76, 0x31, 0x64, 0x5f, 0x32, 0x5f, 0x31, 0x2f, 0x42, 0x69,
  0x61, 0x73, 0x41, 0x64, 0x64, 0x3b, 0x73, 0x65, 0x71, 0x75, 0x65, 0x6e,
  0x74, 0x69, 0x61, 0x6c, 0x5f, 0x32, 0x5f, 0x31, 0x2f, 0x63, 0x6f, 0x6e,
  0x76, 0x31, 0x64, 0x5f, 0x32, 0x5f, 0x31, 0x2f, 0x63, 0x6f, 0x6e, 0x76,
  0x6f, 0x6c, 0x75, 0x74, 0x69, 0x6f, 0x6e, 0x2f, 0x53, 0x71, 0x75, 0x65,
  0x65, 0x7a, 0x65, 0x3b, 0x3b, 0x73, 0x65, 0x71, 0x75, 0x65, 0x6e, 0x74,
  0x69, 0x61, 0x6c, 0x5f, 0x32, 0x5f, 0x31, 0x2f, 0x63, 0x6f, 0x6e, 0x76,
  0x31, 0x64, 0x5f, 0x32, 0x5f, 0x31, 0x2f, 0x63, 0x6f, 0x6e, 0x76, 0x6f,
  0x6c, 0x75, 0x74, 0x69, 0x6f, 0x6e, 0x00, 0x00, 0x04, 0x00, 0x00, 0x00,
  0x01, 0x00, 0x00, 0x00, 0x01, 0x00, 0x00, 0x00, 0x0a, 0x00, 0x00, 0x00,
  0x20, 0x00, 0x00, 0x00, 0x16, 0xfd, 0xff, 0xff, 0x00, 0x00, 0x00, 0x01,
  0x14, 0x00, 0x00, 0x00, 0x24, 0x00, 0x00, 0x00, 0x24, 0x00, 0x00, 0x00,
  0x0b, 0x00, 0x00, 0x00, 0x54, 0x00, 0x00, 0x00, 0x04, 0x00, 0x00, 0x00,
  0xff, 0xff, 0xff, 0xff, 0x01, 0x00, 0x00, 0x00, 0x0c, 0x00, 0x00, 0x00,
  0x06, 0x00, 0x00, 0x00, 0x04, 0xfd, 0xff, 0xff, 0x30, 0x00, 0x00, 0x00,
  0x73, 0x65, 0x71, 0x75, 0x65, 0x6e, 0x74, 0x69, 0x61, 0x6c, 0x5f, 0x32,
  0x5f, 0x31, 0x2f, 0x63, 0x6f, 0x6e, 0x76, 0x31, 0x64, 0x5f, 0x32, 0x5f,
  0x31, 0x2f, 0x63, 0x6f, 0x6e, 0x76, 0x6f, 0x6c, 0x75, 0x74, 0x69, 0x6f,
  0x6e, 0x2f, 0x45, 0x78, 0x70, 0x61, 0x6e, 0x64, 0x44, 0x69, 0x6d, 0x73,
  0x00, 0x00, 0x00, 0x00, 0x04, 0x00, 0x00, 0x00, 0x01, 0x00, 0x00, 0x00,
  0x01, 0x00, 0x00, 0x00, 0x0c, 0x00, 0x00, 0x00, 0x06, 0x00, 0x00, 0x00,
  0x3a, 0xfe, 0xff, 0xff, 0x00, 0x00, 0x00, 0x01, 0x14, 0x00, 0x00, 0x00,
  0x14, 0x00, 0x00, 0x00, 0x0a, 0x00, 0x00, 0x00, 0x00, 0x00, 0x00, 0x02,
  0x44, 0x00, 0x00, 0x00, 0x70, 0xfd, 0xff, 0xff, 0x34, 0x00, 0x00, 0x00,
  0x73, 0x65, 0x71, 0x75, 0x65, 0x6e, 0x74, 0x69, 0x61, 0x6c, 0x5f, 0x32,
  0x5f, 0x31, 0x2f, 0x63, 0x6f, 0x6e, 0x76, 0x31, 0x64, 0x5f, 0x32, 0x5f,
  0x31, 0x2f, 0x63, 0x6f, 0x6e, 0x76, 0x6f, 0x6c, 0x75, 0x74, 0x69, 0x6f,
  0x6e, 0x2f, 0x45, 0x78, 0x70, 0x61, 0x6e, 0x64, 0x44, 0x69, 0x6d, 0x73,
  0x2f, 0x64, 0x69, 0x6d, 0x00, 0x00, 0x00, 0x00, 0x00, 0x00, 0x00, 0x00,
  0x9a, 0xfe, 0xff, 0xff, 0x00, 0x00, 0x00, 0x01, 0x14, 0x00, 0x00, 0x00,
  0x14, 0x00, 0x00, 0x00, 0x09, 0x00, 0x00, 0x00, 0x00, 0x00, 0x00, 0x02,
  0x1c, 0x00, 0x00, 0x00, 0xd0, 0xfd, 0xff, 0xff, 0x0f, 0x00, 0x00, 0x00,
  0x61, 0x72, 0x69, 0x74, 0x68, 0x2e, 0x63, 0x6f, 0x6e, 0x73, 0x74, 0x61,
  0x6e, 0x74, 0x37, 0x00, 0x00, 0x00, 0x00, 0x00, 0x7e, 0xfe, 0xff, 0xff,
  0x00, 0x00, 0x00, 0x01, 0x10, 0x00, 0x00, 0x00, 0x10, 0x00, 0x00, 0x00,
  0x08, 0x00, 0x00, 0x00, 0x1c, 0x00, 0x00, 0x00, 0x04, 0xfe, 0xff, 0xff,
  0x0f, 0x00, 0x00, 0x00, 0x61, 0x72, 0x69, 0x74, 0x68, 0x2e, 0x63, 0x6f,
  0x6e, 0x73, 0x74, 0x61, 0x6e, 0x74, 0x36, 0x00, 0x01, 0x00, 0x00, 0x00,
  0x10, 0x00, 0x00, 0x00, 0xb6, 0xfe, 0xff, 0xff, 0x00, 0x00, 0x00, 0x01,
  0x10, 0x00, 0x00, 0x00, 0x10, 0x00, 0x00, 0x00, 0x07, 0x00, 0x00, 0x00,
  0x1c, 0x00, 0x00, 0x00, 0x3c, 0xfe, 0xff, 0xff, 0x0f, 0x00, 0x00, 0x00,
  0x61, 0x72, 0x69, 0x74, 0x68, 0x2e, 0x63, 0x6f, 0x6e, 0x73, 0x74, 0x61,
  0x6e, 0x74, 0x35, 0x00, 0x01, 0x00, 0x00, 0x00, 0x03, 0x00, 0x00, 0x00,
  0xee, 0xfe, 0xff, 0xff, 0x00, 0x00, 0x00, 0x01, 0x10, 0x00, 0x00, 0x00,
  0x10, 0x00, 0x00, 0x00, 0x06, 0x00, 0x00, 0x00, 0x1c, 0x00, 0x00, 0x00,
  0x74, 0xfe, 0xff, 0xff, 0x0f, 0x00, 0x00, 0x00, 0x61, 0x72, 0x69, 0x74,
  0x68, 0x2e, 0x63, 0x6f, 0x6e, 0x73, 0x74, 0x61, 0x6e, 0x74, 0x34, 0x00,
  0x02, 0x00, 0x00, 0x00, 0x10, 0x00, 0x00, 0x00, 0x20, 0x00, 0x00, 0x00,
  0x2a, 0xff, 0xff, 0xff, 0x00, 0x00, 0x00, 0x01, 0x10, 0x00, 0x00, 0x00,
  0x10, 0x00, 0x00, 0x00, 0x05, 0x00, 0x00, 0x00, 0x1c, 0x00, 0x00, 0x00,
  0xb0, 0xfe, 0xff, 0xff, 0x0f, 0x00, 0x00, 0x00, 0x61, 0x72, 0x69, 0x74,
  0x68, 0x2e, 0x63, 0x6f, 0x6e, 0x73, 0x74, 0x61, 0x6e, 0x74, 0x33, 0x00,
  0x02, 0x00, 0x00, 0x00, 0x03, 0x00, 0x00, 0x00, 0x10, 0x00, 0x00, 0x00,
  0x66, 0xff, 0xff, 0xff, 0x00, 0x00, 0x00, 0x01, 0x10, 0x00, 0x00, 0x00,
  0x10, 0x00, 0x00, 0x00, 0x04, 0x00, 0x00, 0x00, 0x1c, 0x00, 0x00, 0x00,
  0xec, 0xfe, 0xff, 0xff, 0x0f, 0x00, 0x00, 0x00, 0x61, 0x72, 0x69, 0x74,
  0x68, 0x2e, 0x63, 0x6f, 0x6e, 0x73, 0x74, 0x61, 0x6e, 0x74, 0x32, 0x00,
  0x04, 0x00, 0x00, 0x00, 0x20, 0x00, 0x00, 0x00, 0x01, 0x00, 0x00, 0x00,
  0x03, 0x00, 0x00, 0x00, 0x06, 0x00, 0x00, 0x00, 0x00, 0x00, 0x16, 0x00,
  0x1c, 0x00, 0x18, 0x00, 0x17, 0x00, 0x10, 0x00, 0x0c, 0x00, 0x08, 0x00,
  0x00, 0x00, 0x00, 0x00, 0x00, 0x00, 0x07, 0x00, 0x16, 0x00, 0x00, 0x00,
  0x00, 0x00, 0x00, 0x01, 0x14, 0x00, 0x00, 0x00, 0x14, 0x00, 0x00, 0x00,
  0x03, 0x00, 0x00, 0x00, 0x00, 0x00, 0x00, 0x02, 0x1c, 0x00, 0x00, 0x00,
  0x4c, 0xff, 0xff, 0xff, 0x0f, 0x00, 0x00, 0x00, 0x61, 0x72, 0x69, 0x74,
  0x68, 0x2e, 0x63, 0x6f, 0x6e, 0x73, 0x74, 0x61, 0x6e, 0x74, 0x31, 0x00,
  0x01, 0x00, 0x00, 0x00, 0x03, 0x00, 0x00, 0x00, 0x00, 0x00, 0x16, 0x00,
  0x18, 0x00, 0x14, 0x00, 0x00, 0x00, 0x10, 0x00, 0x0c, 0x00, 0x08, 0x00,
  0x00, 0x00, 0x00, 0x00, 0x00, 0x00, 0x07, 0x00, 0x16, 0x00, 0x00, 0x00,
  0x00, 0x00, 0x00, 0x01, 0x10, 0x00, 0x00, 0x00, 0x10, 0x00, 0x00, 0x00,
  0x02, 0x00, 0x00, 0x00, 0x1c, 0x00, 0x00, 0x00, 0x9c, 0xff, 0xff, 0xff,
  0x0e, 0x00, 0x00, 0x00, 0x61, 0x72, 0x69, 0x74, 0x68, 0x2e, 0x63, 0x6f,
  0x6e, 0x73, 0x74, 0x61, 0x6e, 0x74, 0x00, 0x00, 0x01, 0x00, 0x00, 0x00,
  0x20, 0x00, 0x00, 0x00, 0x00, 0x00, 0x16, 0x00, 0x1c, 0x00, 0x18, 0x00,
  0x00, 0x00, 0x14, 0x00, 0x10, 0x00, 0x0c, 0x00, 0x00, 0x00, 0x00, 0x00,
  0x08, 0x00, 0x07, 0x00, 0x16, 0x00, 0x00, 0x00, 0x00, 0x00, 0x00, 0x01,
  0x14, 0x00, 0x00, 0x00, 0x24, 0x00, 0x00, 0x00, 0x24, 0x00, 0x00, 0x00,
  0x01, 0x00, 0x00, 0x00, 0x44, 0x00, 0x00, 0x00, 0x03, 0x00, 0x00, 0x00,
  0xff, 0xff, 0xff, 0xff, 0x0c, 0x00, 0x00, 0x00, 0x06, 0x00, 0x00, 0x00,
  0x04, 0x00, 0x04, 0x00, 0x04, 0x00, 0x00, 0x00, 0x21, 0x00, 0x00, 0x00,
  0x73, 0x65, 0x72, 0x76, 0x69, 0x6e, 0x67, 0x5f, 0x64, 0x65, 0x66, 0x61,
  0x75, 0x6c, 0x74, 0x5f, 0x6b, 0x65, 0x72, 0x61, 0x73, 0x5f, 0x74, 0x65,
  0x6e, 0x73, 0x6f, 0x72, 0x5f, 0x31, 0x30, 0x3a, 0x30, 0x00, 0x00, 0x00,
  0x03, 0x00, 0x00, 0x00, 0x01, 0x00, 0x00, 0x00, 0x0c, 0x00, 0x00, 0x00,
  0x06, 0x00, 0x00, 0x00, 0x07, 0x00, 0x00, 0x00, 0x70, 0x00, 0x00, 0x00,
  0x54, 0x00, 0x00, 0x00, 0x44, 0x00, 0x00, 0x00, 0x34, 0x00, 0x00, 0x00,
  0x24, 0x00, 0x00, 0x00, 0x14, 0x00, 0x00, 0x00, 0x04, 0x00, 0x00, 0x00,
  0xb8, 0xff, 0xff, 0xff, 0x19, 0x00, 0x00, 0x00, 0x00, 0x00, 0x00, 0x19,
  0xc4, 0xff, 0xff, 0xff, 0x09, 0x00, 0x00, 0x00, 0x00, 0x00, 0x00, 0x09,
  0xd0, 0xff, 0xff, 0xff, 0x28, 0x00, 0x00, 0x00, 0x00, 0x00, 0x00, 0x28,
  0xdc, 0xff, 0xff, 0xff, 0x16, 0x00, 0x00, 0x00, 0x00, 0x00, 0x00, 0x16,
  0xe8, 0xff, 0xff, 0xff, 0x1c, 0x00, 0x00, 0x00, 0x00, 0x00, 0x00, 0x1c,
  0xf4, 0xff, 0xff, 0xff, 0x03, 0x00, 0x00, 0x00, 0x00, 0x00, 0x00, 0x03,
  0x0c, 0x00, 0x0c, 0x00, 0x0b, 0x00, 0x00, 0x00, 0x00, 0x00, 0x04, 0x00,
  0x0c, 0x00, 0x00, 0x00, 0x46, 0x00, 0x00, 0x00, 0x00, 0x00, 0x00, 0x46
};
unsigned int boxing_model_left_10_tflite_len = 8124;
