unsigned char boxing_model_tflite[] = {
  0x1c, 0x00, 0x00, 0x00, 0x54, 0x46, 0x4c, 0x33, 0x14, 0x00, 0x20, 0x00,
  0x1c, 0x00, 0x18, 0x00, 0x14, 0x00, 0x10, 0x00, 0x0c, 0x00, 0x00, 0x00,
  0x08, 0x00, 0x04, 0x00, 0x14, 0x00, 0x00, 0x00, 0x1c, 0x00, 0x00, 0x00,
  0x8c, 0x00, 0x00, 0x00, 0xe4, 0x00, 0x00, 0x00, 0xb4, 0x09, 0x00, 0x00,
  0xc4, 0x09, 0x00, 0x00, 0xdc, 0x13, 0x00, 0x00, 0x03, 0x00, 0x00, 0x00,
  0x01, 0x00, 0x00, 0x00, 0x04, 0x00, 0x00, 0x00, 0xee, 0xf4, 0xff, 0xff,
  0x0c, 0x00, 0x00, 0x00, 0x1c, 0x00, 0x00, 0x00, 0x3c, 0x00, 0x00, 0x00,
  0x0f, 0x00, 0x00, 0x00, 0x73, 0x65, 0x72, 0x76, 0x69, 0x6e, 0x67, 0x5f,
  0x64, 0x65, 0x66, 0x61, 0x75, 0x6c, 0x74, 0x00, 0x01, 0x00, 0x00, 0x00,
  0x04, 0x00, 0x00, 0x00, 0x90, 0xff, 0xff, 0xff, 0x11, 0x00, 0x00, 0x00,
  0x04, 0x00, 0x00, 0x00, 0x08, 0x00, 0x00, 0x00, 0x6f, 0x75, 0x74, 0x70,
  0x75, 0x74, 0x5f, 0x30, 0x00, 0x00, 0x00, 0x00, 0x01, 0x00, 0x00, 0x00,
  0x04, 0x00, 0x00, 0x00, 0x26, 0xf6, 0xff, 0xff, 0x04, 0x00, 0x00, 0x00,
  0x0f, 0x00, 0x00, 0x00, 0x6b, 0x65, 0x72, 0x61, 0x73, 0x5f, 0x74, 0x65,
  0x6e, 0x73, 0x6f, 0x72, 0x5f, 0x38, 0x39, 0x00, 0x02, 0x00, 0x00, 0x00,
  0x34, 0x00, 0x00, 0x00, 0x04, 0x00, 0x00, 0x00, 0xdc, 0xff, 0xff, 0xff,
  0x14, 0x00, 0x00, 0x00, 0x04, 0x00, 0x00, 0x00, 0x13, 0x00, 0x00, 0x00,
  0x43, 0x4f, 0x4e, 0x56, 0x45, 0x52, 0x53, 0x49, 0x4f, 0x4e, 0x5f, 0x4d,
  0x45, 0x54, 0x41, 0x44, 0x41, 0x54, 0x41, 0x00, 0x08, 0x00, 0x0c, 0x00,
  0x08, 0x00, 0x04, 0x00, 0x08, 0x00, 0x00, 0x00, 0x13, 0x00, 0x00, 0x00,
  0x04, 0x00, 0x00, 0x00, 0x13, 0x00, 0x00, 0x00, 0x6d, 0x69, 0x6e, 0x5f,
  0x72, 0x75, 0x6e, 0x74, 0x69, 0x6d, 0x65, 0x5f, 0x76, 0x65, 0x72, 0x73,
  0x69, 0x6f, 0x6e, 0x00, 0x15, 0x00, 0x00, 0x00, 0xcc, 0x08, 0x00, 0x00,
  0xc4, 0x08, 0x00, 0x00, 0x74, 0x08, 0x00, 0x00, 0x58, 0x08, 0x00, 0x00,
  0xc8, 0x03, 0x00, 0x00, 0x58, 0x03, 0x00, 0x00, 0x48, 0x01, 0x00, 0x00,
  0x2c, 0x01, 0x00, 0x00, 0xfc, 0x00, 0x00, 0x00, 0xe8, 0x00, 0x00, 0x00,
  0xd4, 0x00, 0x00, 0x00, 0xcc, 0x00, 0x00, 0x00, 0xc4, 0x00, 0x00, 0x00,
  0xbc, 0x00, 0x00, 0x00, 0xb4, 0x00, 0x00, 0x00, 0xac, 0x00, 0x00, 0x00,
  0xa4, 0x00, 0x00, 0x00, 0x9c, 0x00, 0x00, 0x00, 0x94, 0x00, 0x00, 0x00,
  0x74, 0x00, 0x00, 0x00, 0x04, 0x00, 0x00, 0x00, 0xf6, 0xf6, 0xff, 0xff,
  0x04, 0x00, 0x00, 0x00, 0x60, 0x00, 0x00, 0x00, 0x0c, 0x00, 0x00, 0x00,
  0x08, 0x00, 0x0e, 0x00, 0x08, 0x00, 0x04, 0x00, 0x08, 0x00, 0x00, 0x00,
  0x10, 0x00, 0x00, 0x00, 0x28, 0x00, 0x00, 0x00, 0x00, 0x00, 0x06, 0x00,
  0x08, 0x00, 0x04, 0x00, 0x06, 0x00, 0x00, 0x00, 0x04, 0x00, 0x00, 0x00,
  0x01, 0x00, 0x00, 0x00, 0xea, 0x03, 0x00, 0x00, 0x0c, 0x00, 0x18, 0x00,
  0x14, 0x00, 0x10, 0x00, 0x0c, 0x00, 0x04, 0x00, 0x0c, 0x00, 0x00, 0x00,
  0x86, 0x27, 0x33, 0xe7, 0x78, 0x41, 0x36, 0x63, 0x02, 0x00, 0x00, 0x00,
  0x02, 0x00, 0x00, 0x00, 0x04, 0x00, 0x00, 0x00, 0x06, 0x00, 0x00, 0x00,
  0x32, 0x2e, 0x31, 0x39, 0x2e, 0x30, 0x00, 0x00, 0x62, 0xf7, 0xff, 0xff,
  0x04, 0x00, 0x00, 0x00, 0x10, 0x00, 0x00, 0x00, 0x31, 0x2e, 0x31, 0x34,
  0x2e, 0x30, 0x00, 0x00, 0x00, 0x00, 0x00, 0x00, 0x00, 0x00, 0x00, 0x00,
  0x1c, 0xee, 0xff, 0xff, 0x20, 0xee, 0xff, 0xff, 0x24, 0xee, 0xff, 0xff,
  0x28, 0xee, 0xff, 0xff, 0x2c, 0xee, 0xff, 0xff, 0x30, 0xee, 0xff, 0xff,
  0x34, 0xee, 0xff, 0xff, 0x38, 0xee, 0xff, 0xff, 0x9e, 0xf7, 0xff, 0xff,
  0x04, 0x00, 0x00, 0x00, 0x04, 0x00, 0x00, 0x00, 0xfd, 0xff, 0xff, 0xff,
  0xae, 0xf7, 0xff, 0xff, 0x04, 0x00, 0x00, 0x00, 0x04, 0x00, 0x00, 0x00,
  0x01, 0x00, 0x00, 0x00, 0xbe, 0xf7, 0xff, 0xff, 0x04, 0x00, 0x00, 0x00,
  0x20, 0x00, 0x00, 0x00, 0xbe, 0x52, 0x19, 0xbd, 0xd2, 0xbb, 0x1c, 0x3c,
  0x70, 0xd8, 0x82, 0x3e, 0xe6, 0x75, 0x3a, 0x3e, 0xb9, 0x1f, 0x23, 0xbd,
  0x87, 0x84, 0xef, 0xbd, 0xd8, 0x33, 0x88, 0xbc, 0x1a, 0xee, 0x8a, 0x3e,
  0xea, 0xf7, 0xff, 0xff, 0x04, 0x00, 0x00, 0x00, 0x0c, 0x00, 0x00, 0x00,
  0x22, 0x93, 0x7e, 0xbc, 0x00, 0xc3, 0x1b, 0x3e, 0x0d, 0x68, 0x24, 0xbe,
  0x02, 0xf8, 0xff, 0xff, 0x04, 0x00, 0x00, 0x00, 0x00, 0x02, 0x00, 0x00,
  0xcf, 0xf0, 0x04, 0xbf, 0xdc, 0x03, 0x35, 0xbe, 0xb2, 0x98, 0x3f, 0x3e,
  0x3d, 0x70, 0x4e, 0xbe, 0x21, 0x2a, 0xc8, 0x3e, 0xd4, 0xc4, 0xad, 0xbc,
  0xa6, 0x73, 0xaf, 0xbd, 0x4d, 0xe5, 0xd5, 0xbe, 0x61, 0x48, 0xad, 0xbe,
  0x87, 0xea, 0x01, 0x3f, 0x27, 0x3a, 0xb1, 0xbd, 0xf8, 0x63, 0x34, 0x3e,
  0x6a, 0x46, 0xbd, 0x3d, 0x6e, 0xbc, 0x89, 0xbe, 0xdb, 0x06, 0x06, 0x3d,
  0xa1, 0xe9, 0x02, 0x3f, 0xad, 0x16, 0x61, 0xbc, 0x93, 0x98, 0x30, 0x3e,
  0x1b, 0x8b, 0xbe, 0x3e, 0x79, 0x2f, 0xb9, 0xbd, 0x81, 0x60, 0xda, 0xbd,
  0x0c, 0xed, 0x7e, 0x3e, 0x2e, 0xbb, 0xb8, 0x3e, 0x59, 0xc9, 0xa8, 0xbe,
  0xc7, 0x10, 0x6d, 0xbe, 0x0f, 0x0b, 0xc7, 0x3e, 0x76, 0xf1, 0xed, 0xbe,
  0x40, 0xe4, 0x60, 0x3e, 0xed, 0xb3, 0xbb, 0x3e, 0x2c, 0x9f, 0xf3, 0xbd,
  0x2f, 0x86, 0xae, 0xbe, 0x19, 0x9c, 0xc1, 0x3d, 0x72, 0x2b, 0x1c, 0x3e,
  0x7e, 0xdf, 0x37, 0xbf, 0x24, 0x25, 0x0e, 0xbe, 0x24, 0xa5, 0x95, 0x3e,
  0xfa, 0xca, 0x5d, 0xbd, 0x47, 0xb4, 0xca, 0x3e, 0x59, 0x89, 0x05, 0xbd,
  0xed, 0xbb, 0x3c, 0xbf, 0xdb, 0x46, 0x31, 0x3f, 0x96, 0x9d, 0xbf, 0xbe,
  0x49, 0x82, 0x05, 0x3f, 0x8e, 0xef, 0xc6, 0x3e, 0xff, 0xfd, 0x16, 0xbf,
  0xe0, 0x17, 0xe9, 0xbe, 0x6e, 0x05, 0x00, 0xbf, 0x6e, 0x1b, 0xd0, 0x3e,
  0x87, 0x37, 0xac, 0x3e, 0xfb, 0x08, 0xc5, 0x3d, 0xa6, 0xb1, 0x9c, 0x3e,
  0xad, 0x6a, 0xf8, 0x3c, 0x3f, 0xa5, 0xa5, 0x3e, 0xb0, 0x2d, 0x1e, 0xbf,
  0x4f, 0x99, 0x24, 0xbf, 0x83, 0xd5, 0x0b, 0x3f, 0xaf, 0x53, 0x1a, 0xbf,
  0x04, 0x6f, 0x9e, 0x3e, 0xec, 0x07, 0x1e, 0xbe, 0x03, 0x1a, 0xd3, 0xbe,
  0xf1, 0x52, 0x63, 0x3e, 0x67, 0x08, 0x1a, 0xbe, 0x35, 0xc8, 0x5a, 0xbe,
  0xaf, 0x1a, 0x34, 0x3e, 0xe2, 0x0c, 0x54, 0x3e, 0x14, 0x33, 0x4d, 0x3e,
  0x80, 0x71, 0x19, 0x3d, 0x92, 0x4c, 0x1a, 0x3e, 0xb5, 0xdb, 0x1f, 0x3d,
  0x79, 0xe5, 0xe1, 0x3d, 0x32, 0x2c, 0x95, 0x3e, 0xf7, 0x39, 0x4c, 0x3d,
  0xe5, 0xa3, 0x0c, 0x3f, 0x3e, 0x72, 0x4d, 0xbd, 0x39, 0x28, 0xe8, 0x3d,
  0x24, 0x1d, 0x8a, 0xbd, 0x0e, 0x65, 0x9c, 0xbe, 0x99, 0xdc, 0x6d, 0x3e,
  0x76, 0xbf, 0x7b, 0xbd, 0xb1, 0x0a, 0x65, 0xbe, 0xb8, 0x0e, 0xba, 0x3e,
  0xed, 0x97, 0x46, 0x3d, 0x68, 0x8f, 0xd1, 0x3d, 0x8e, 0x82, 0xd9, 0x3b,
  0x37, 0x6c, 0x30, 0x3e, 0xd3, 0xac, 0x8e, 0x3e, 0xe9, 0x69, 0x3b, 0x3d,
  0x07, 0x31, 0x00, 0x3e, 0x19, 0x2a, 0x1a, 0xbf, 0xf6, 0x23, 0xc7, 0x3e,
  0x8a, 0xc0, 0x0d, 0xbe, 0x8d, 0x56, 0x6b, 0xbc, 0x06, 0x5d, 0x0a, 0x3f,
  0x98, 0xb2, 0x3a, 0xbe, 0x7c, 0x59, 0xb8, 0xbe, 0x77, 0x7a, 0x15, 0x3f,
  0xc0, 0xc1, 0x06, 0xbf, 0xa6, 0x50, 0x16, 0xbe, 0x61, 0xc9, 0x1a, 0x3f,
  0x79, 0x53, 0xc6, 0xbe, 0x16, 0xde, 0xf1, 0x3e, 0x56, 0x7b, 0xc1, 0xbd,
  0x83, 0xc9, 0x83, 0xbe, 0x5f, 0xdf, 0xe8, 0x3c, 0x28, 0xc8, 0xb3, 0xbe,
  0x8e, 0x35, 0xb2, 0xbe, 0x90, 0xdd, 0x13, 0x3c, 0xd0, 0x79, 0x5a, 0x3d,
  0x26, 0xfe, 0xc3, 0x3e, 0xed, 0x95, 0x3d, 0xbe, 0x1a, 0xb2, 0xd1, 0xbe,
  0x3a, 0x9e, 0xc6, 0xbe, 0x2e, 0xa7, 0xa2, 0x3e, 0x3d, 0x32, 0xb8, 0xbe,
  0xa2, 0x5e, 0x5e, 0xbe, 0xb3, 0x1c, 0x81, 0x3e, 0x30, 0x35, 0xd2, 0xbd,
  0xcf, 0xb2, 0x0f, 0xbf, 0x9c, 0x47, 0x6f, 0x3e, 0xf2, 0xe1, 0xec, 0x3d,
  0x69, 0x4c, 0x9a, 0x3e, 0xac, 0xa9, 0x7e, 0x3e, 0x01, 0xa7, 0x03, 0xbe,
  0x0f, 0x64, 0x92, 0xbe, 0xd1, 0x20, 0x5c, 0xbe, 0x6e, 0xd3, 0x0f, 0xbd,
  0x55, 0xbe, 0xbe, 0x3e, 0xad, 0xd0, 0xf0, 0xbe, 0x0e, 0xfa, 0xff, 0xff,
  0x04, 0x00, 0x00, 0x00, 0x60, 0x00, 0x00, 0x00, 0xd0, 0xf1, 0x18, 0x3f,
  0xb9, 0xf3, 0x53, 0xbe, 0x44, 0x44, 0xaf, 0x3e, 0x79, 0x3f, 0x4d, 0x3e,
  0x9d, 0xd8, 0xec, 0x3e, 0x78, 0x79, 0x18, 0xbf, 0xbf, 0x3c, 0xc8, 0xbd,
  0xb0, 0xbe, 0xd4, 0x3d, 0xcc, 0x70, 0x1f, 0xbf, 0x33, 0x99, 0x3e, 0xbf,
  0xe7, 0x78, 0x18, 0x3e, 0x72, 0x05, 0x68, 0x3f, 0x28, 0xfe, 0x93, 0x3c,
  0x9f, 0x6c, 0x09, 0xbf, 0xb1, 0x79, 0x29, 0xbf, 0x1e, 0xd9, 0x64, 0x3f,
  0x7c, 0xff, 0x2a, 0x3f, 0x40, 0x75, 0x20, 0x3e, 0x8d, 0x87, 0x14, 0xbf,
  0xeb, 0x6a, 0x0f, 0x3f, 0xfd, 0xc2, 0x29, 0xbe, 0x66, 0x77, 0x2e, 0x3e,
  0x69, 0x70, 0xd7, 0xbd, 0x92, 0xb7, 0xb1, 0x3e, 0x7a, 0xfa, 0xff, 0xff,
  0x04, 0x00, 0x00, 0x00, 0x80, 0x04, 0x00, 0x00, 0xec, 0xc0, 0x9f, 0xbd,
  0x96, 0x12, 0xcd, 0x3c, 0xad, 0xe0, 0x79, 0xbe, 0xae, 0x26, 0x91, 0xbe,
  0x3b, 0x7a, 0x59, 0x3e, 0x69, 0xe0, 0x87, 0xbd, 0xcb, 0x1a, 0x8f, 0xbe,
  0x1a, 0x9e, 0x9b, 0x3c, 0x64, 0x18, 0x14, 0xbe, 0x87, 0x46, 0x92, 0xbe,
  0x0e, 0xd4, 0x37, 0xbe, 0x72, 0xf0, 0xae, 0xbd, 0x63, 0x56, 0x69, 0x3d,
  0xb2, 0xd3, 0x27, 0xbe, 0xa7, 0x1c, 0x21, 0x3e, 0xe0, 0x8e, 0xe4, 0x3d,
  0x36, 0xc3, 0x96, 0x3e, 0x3b, 0xf8, 0x6a, 0x3e, 0x28, 0x2c, 0x41, 0x3d,
  0xcc, 0xb5, 0xd7, 0xbd, 0xed, 0xd1, 0x21, 0x3e, 0xe6, 0xc1, 0xec, 0x3d,
  0x6e, 0xaf, 0xe3, 0x3c, 0x6a, 0xc9, 0xf1, 0x3d, 0xfe, 0x6e, 0x8f, 0x3c,
  0x47, 0xb0, 0x5d, 0xbe, 0x7f, 0x5d, 0x8e, 0xbe, 0xda, 0x7c, 0x8c, 0x3b,
  0xd7, 0x30, 0x2d, 0xbd, 0x00, 0x51, 0x10, 0x3e, 0x9c, 0x1f, 0xf8, 0x3d,
  0xd4, 0x4c, 0x44, 0x3e, 0x2d, 0xcc, 0x91, 0xbe, 0x07, 0x24, 0xa8, 0x3d,
  0x3f, 0x76, 0xbd, 0x3e, 0xa0, 0xaf, 0x2d, 0x3e, 0xbb, 0x76, 0xa7, 0xbc,
  0x78, 0x8a, 0x2a, 0xbe, 0xf2, 0x61, 0xcb, 0xbd, 0x91, 0xb9, 0x4a, 0x3e,
  0x04, 0x79, 0xee, 0xbd, 0x3f, 0xbb, 0x97, 0xbd, 0xf5, 0x50, 0xc0, 0xbc,
  0x32, 0x6c, 0x86, 0x3b, 0xa9, 0x12, 0x35, 0x3e, 0x23, 0xba, 0xb3, 0xbe,
  0x86, 0xf7, 0x2f, 0xbe, 0x47, 0x6a, 0xc1, 0x3d, 0x1c, 0x0c, 0x4d, 0xbd,
  0xfa, 0x9a, 0xb2, 0x3d, 0x03, 0xf8, 0xaa, 0x3e, 0x0e, 0xbe, 0x3a, 0xbe,
  0x24, 0x32, 0x74, 0xbe, 0xd0, 0x1f, 0x11, 0x3e, 0xc4, 0x20, 0x73, 0x3d,
  0xd6, 0x8e, 0x4d, 0x3d, 0x6b, 0xf7, 0x84, 0x3e, 0x19, 0x5e, 0x5a, 0xbe,
  0x72, 0x36, 0xba, 0xbd, 0x16, 0x72, 0x6b, 0xbe, 0x26, 0xb0, 0xc4, 0xbe,
  0x66, 0x3f, 0x5b, 0xbe, 0xef, 0x10, 0xf6, 0x3d, 0x36, 0xec, 0x4e, 0x3e,
  0x7e, 0xda, 0x32, 0x3d, 0x93, 0x93, 0x46, 0xbe, 0x94, 0x33, 0x5c, 0xbe,
  0x17, 0x5b, 0x07, 0xbe, 0xa6, 0x52, 0x18, 0xbe, 0x3d, 0xfc, 0x88, 0x3e,
  0xcc, 0xd9, 0x05, 0x3e, 0xbc, 0x21, 0x90, 0xbe, 0x01, 0x08, 0x7f, 0xbe,
  0x7c, 0xc0, 0x51, 0xbe, 0x6d, 0xd6, 0x64, 0x3e, 0x5d, 0xbe, 0xba, 0xbe,
  0xfa, 0x55, 0xe1, 0xbd, 0x9b, 0x07, 0x5c, 0x3c, 0x88, 0x0e, 0x4c, 0xbe,
  0xa8, 0x67, 0xe6, 0xbc, 0x15, 0xec, 0x9f, 0x3e, 0x1f, 0x2e, 0x0f, 0xbe,
  0xcb, 0x93, 0x15, 0xbe, 0x45, 0x4b, 0x2d, 0xbe, 0x2a, 0xef, 0x49, 0x3d,
  0xc7, 0x0e, 0x25, 0x3e, 0x9c, 0xb0, 0xca, 0xbd, 0xce, 0x90, 0x5d, 0xbe,
  0x37, 0x19, 0xa8, 0x3d, 0x88, 0x82, 0x24, 0xbe, 0x66, 0x88, 0x5f, 0x3e,
  0x41, 0x9d, 0x88, 0x3d, 0x5a, 0xc8, 0x1c, 0x3d, 0x19, 0x7d, 0x40, 0x3e,
  0xc3, 0xf7, 0xc8, 0x3e, 0x3c, 0x3a, 0xa8, 0x3c, 0xfd, 0x00, 0x1e, 0x3e,
  0xb2, 0x03, 0x93, 0x3d, 0xa9, 0x73, 0x11, 0x3e, 0x54, 0x89, 0xf8, 0xbd,
  0x75, 0x08, 0x30, 0x3e, 0x34, 0x40, 0x31, 0x3e, 0x76, 0x23, 0x5e, 0x3e,
  0xea, 0x23, 0x37, 0x3e, 0x29, 0xfd, 0x88, 0x3e, 0x4f, 0x00, 0x42, 0xbe,
  0x36, 0xa7, 0x74, 0xbe, 0x7e, 0x81, 0xaa, 0xbe, 0x2e, 0x3c, 0xea, 0xbc,
  0xf1, 0x9b, 0x04, 0x3e, 0xf7, 0x6a, 0x90, 0xbe, 0x77, 0xef, 0x82, 0xbd,
  0x6e, 0xbb, 0xbe, 0xbd, 0x87, 0x53, 0x1f, 0xbe, 0x00, 0x0f, 0x7b, 0x3e,
  0x7c, 0xa5, 0x80, 0x3e, 0x23, 0x39, 0x07, 0x3d, 0x0d, 0x2b, 0xa5, 0xbe,
  0xa8, 0xf9, 0xb1, 0xbd, 0x53, 0xa5, 0xa5, 0xbe, 0xfa, 0x6f, 0x6c, 0x3c,
  0x69, 0x74, 0x34, 0xbe, 0xb0, 0x25, 0x2d, 0xbe, 0xe4, 0x1a, 0x93, 0xbe,
  0x86, 0xd2, 0x93, 0xbd, 0xf8, 0x65, 0x29, 0xbe, 0x55, 0xc1, 0x3c, 0xbe,
  0xa0, 0x2a, 0x26, 0xbe, 0x62, 0x71, 0x91, 0xbe, 0xb9, 0xed, 0x0d, 0x3e,
  0x2d, 0xc7, 0x72, 0x3e, 0x91, 0x5f, 0xb9, 0x3d, 0x21, 0xd8, 0x90, 0xbd,
  0xd4, 0x56, 0x4d, 0xbd, 0x42, 0x92, 0x60, 0xbe, 0xd6, 0x1a, 0xf7, 0x3b,
  0xc9, 0x97, 0x9c, 0x3e, 0xbb, 0x05, 0xc3, 0x3c, 0x56, 0xcb, 0x0e, 0xbe,
  0xda, 0xc9, 0x83, 0x3e, 0xca, 0x1b, 0x02, 0x3e, 0xbb, 0x9a, 0x6b, 0x3c,
  0xc6, 0x83, 0x9d, 0x3e, 0xab, 0x11, 0x3a, 0x3e, 0xe5, 0x21, 0x66, 0x3e,
  0x9a, 0x8b, 0x15, 0x3e, 0x57, 0xa8, 0x64, 0xbc, 0xc0, 0x8c, 0x54, 0xbe,
  0xeb, 0x83, 0x9e, 0xbe, 0xa2, 0xd6, 0x1f, 0xbe, 0xc6, 0x99, 0xbd, 0x3d,
  0x0d, 0xbb, 0xc2, 0xbd, 0x16, 0x74, 0xe5, 0x3d, 0x1e, 0xff, 0xd8, 0xbc,
  0x13, 0x76, 0xb8, 0xbd, 0x2c, 0x5c, 0x04, 0xbb, 0x3a, 0x53, 0xbb, 0xbe,
  0x3c, 0xeb, 0xa1, 0x3e, 0x29, 0x3f, 0x90, 0x3e, 0xc9, 0x1a, 0x2b, 0xbe,
  0xe2, 0x4e, 0x65, 0x3e, 0xd4, 0x73, 0x31, 0xbe, 0x80, 0x7b, 0x9b, 0xbe,
  0x0b, 0xcd, 0x8e, 0xbe, 0xc3, 0x4b, 0x21, 0x3d, 0x6f, 0x65, 0x9b, 0xbe,
  0x23, 0x03, 0xe4, 0xbd, 0xcd, 0x74, 0x92, 0xbe, 0xfa, 0xcb, 0x6e, 0xbe,
  0x57, 0x72, 0xe7, 0xbc, 0x30, 0xe5, 0x20, 0x3d, 0x33, 0xde, 0x22, 0x3e,
  0x63, 0x40, 0x43, 0x3e, 0xd6, 0x41, 0xa1, 0xbe, 0x95, 0x1d, 0x0c, 0xbe,
  0xbf, 0x7b, 0x26, 0x3e, 0x43, 0x8d, 0x00, 0x3e, 0x9a, 0x2b, 0x85, 0xbe,
  0x47, 0xe4, 0x89, 0x3e, 0x9f, 0xc9, 0x35, 0x3e, 0x52, 0xfb, 0xa6, 0xbe,
  0x72, 0xda, 0x3c, 0x3e, 0x00, 0x6a, 0xb4, 0x3e, 0x1c, 0xf4, 0xf3, 0x3d,
  0x05, 0xef, 0xee, 0xbc, 0x14, 0x2b, 0x74, 0x3e, 0x92, 0xa8, 0x15, 0x3c,
  0x40, 0x3d, 0xcf, 0xbd, 0xa5, 0xf3, 0x08, 0xbd, 0xcb, 0x32, 0xe3, 0x3d,
  0xd6, 0x2b, 0xbf, 0xbc, 0xd2, 0x06, 0x05, 0xbe, 0xc2, 0x60, 0x8f, 0x3e,
  0x16, 0x30, 0x8a, 0x3e, 0x3e, 0xf7, 0x05, 0x3e, 0xe7, 0xad, 0x35, 0x3e,
  0x2f, 0xc2, 0xe1, 0xbd, 0xae, 0xd1, 0xb1, 0x3e, 0xbc, 0x03, 0x8d, 0x3d,
  0x88, 0xbe, 0x29, 0x3e, 0x61, 0x14, 0xd9, 0xbd, 0x23, 0xf5, 0x3e, 0x3e,
  0xfa, 0xc6, 0xc6, 0xbd, 0x7f, 0xfa, 0x05, 0x3e, 0x60, 0x0a, 0x8d, 0xbb,
  0xcb, 0xd1, 0x1e, 0x3e, 0x67, 0xf9, 0x7e, 0x3e, 0x00, 0x08, 0x6d, 0x3e,
  0xdd, 0x70, 0x1b, 0xbe, 0xae, 0x18, 0xeb, 0xba, 0xeb, 0xc9, 0x95, 0x3e,
  0xbe, 0x9c, 0x11, 0x3d, 0xfe, 0x37, 0x8c, 0x3e, 0x6d, 0x05, 0x17, 0xbe,
  0x18, 0x2a, 0x81, 0xbe, 0xdc, 0x46, 0x16, 0xbd, 0xd7, 0xb4, 0x36, 0x3d,
  0x99, 0xcd, 0xc3, 0xbe, 0xc1, 0x69, 0x0f, 0x3e, 0x4b, 0xe6, 0xf4, 0x3c,
  0x56, 0x4c, 0x04, 0x3e, 0xdd, 0x27, 0x59, 0xbd, 0x5d, 0x59, 0x5c, 0x3c,
  0xe7, 0x0c, 0x66, 0x3e, 0x07, 0x39, 0x79, 0xbe, 0x6a, 0x3d, 0xb4, 0xbe,
  0x06, 0x33, 0x59, 0xbe, 0x43, 0x88, 0x98, 0xbd, 0x33, 0x93, 0x5a, 0x3e,
  0xf1, 0x18, 0x83, 0xbd, 0xf6, 0x7f, 0x37, 0xbe, 0xfc, 0xba, 0x39, 0x3e,
  0x81, 0x5d, 0x21, 0x3e, 0x1b, 0xbe, 0x28, 0x3d, 0x54, 0x0a, 0x81, 0xbd,
  0x6c, 0xa6, 0xfa, 0x3d, 0x31, 0x14, 0x4a, 0x3e, 0x57, 0x56, 0x33, 0xbe,
  0x55, 0x2a, 0x20, 0x3e, 0x16, 0x85, 0x0f, 0x3e, 0xf7, 0xc6, 0x4b, 0x3e,
  0x63, 0xc7, 0x57, 0x3e, 0x49, 0x4e, 0x5f, 0xbe, 0xb6, 0xf4, 0xce, 0x3d,
  0x9a, 0xd1, 0x16, 0xbe, 0xe3, 0xc3, 0x84, 0xbd, 0xfe, 0x7e, 0xba, 0x3c,
  0x62, 0xb0, 0x45, 0x3e, 0x63, 0xfb, 0xe1, 0xbd, 0x37, 0x44, 0x20, 0xbe,
  0x38, 0x2b, 0x26, 0xbe, 0x14, 0x70, 0x13, 0x3e, 0x7e, 0x54, 0x2e, 0xbe,
  0xd0, 0x2e, 0x11, 0xbe, 0xdf, 0x73, 0xa7, 0xbe, 0xad, 0xd6, 0x91, 0x3e,
  0x16, 0x02, 0xd9, 0xbd, 0xd7, 0xa1, 0x81, 0xbd, 0xfd, 0xc7, 0x52, 0x3e,
  0xe2, 0xca, 0x91, 0x3e, 0x61, 0x0d, 0x2b, 0xbe, 0x42, 0x61, 0x23, 0x3e,
  0x6b, 0x00, 0x76, 0x3e, 0x59, 0x48, 0x9c, 0xbd, 0xb7, 0xb8, 0x87, 0xbe,
  0x28, 0x16, 0x07, 0xbe, 0x5f, 0x08, 0xd7, 0xbd, 0x0d, 0x9b, 0x81, 0xbe,
  0x4c, 0xf8, 0x97, 0x3d, 0x7c, 0xe7, 0x93, 0x3d, 0x11, 0xb9, 0x3a, 0x3e,
  0x44, 0xd6, 0x3a, 0xbc, 0xed, 0x02, 0xe9, 0xbd, 0x0c, 0x81, 0xb4, 0xbc,
  0x0d, 0x6c, 0xa8, 0xbe, 0xce, 0x21, 0xf6, 0x3d, 0xb7, 0x39, 0x91, 0x3e,
  0xba, 0x10, 0xb2, 0xba, 0x59, 0x24, 0xab, 0xbb, 0x79, 0xe1, 0x9c, 0xbe,
  0x01, 0x58, 0x63, 0x3e, 0x0f, 0x53, 0x7c, 0xbe, 0xff, 0x18, 0x1b, 0xbe,
  0x43, 0x23, 0xde, 0xbd, 0x22, 0x63, 0xbc, 0x3d, 0xbd, 0x2b, 0x8c, 0xbe,
  0xdf, 0xc0, 0x30, 0x3e, 0xc2, 0x91, 0x02, 0xbe, 0x06, 0xff, 0xff, 0xff,
  0x04, 0x00, 0x00, 0x00, 0x0c, 0x00, 0x00, 0x00, 0xff, 0xff, 0xff, 0xff,
  0x0a, 0x00, 0x00, 0x00, 0x10, 0x00, 0x00, 0x00, 0x1e, 0xff, 0xff, 0xff,
  0x04, 0x00, 0x00, 0x00, 0x40, 0x00, 0x00, 0x00, 0x39, 0x0e, 0xe4, 0x3d,
  0xd9, 0x86, 0xb0, 0xbd, 0x5d, 0xd3, 0x5e, 0xbd, 0x71, 0x90, 0xff, 0x3d,
  0x1d, 0xec, 0x62, 0xbd, 0xc5, 0x56, 0xf1, 0xbd, 0x81, 0x01, 0xee, 0xbd,
  0xe9, 0x8e, 0x83, 0x3d, 0xe1, 0xe4, 0xd3, 0xbc, 0x5c, 0x95, 0x2b, 0xbd,
  0x10, 0x55, 0x25, 0x3d, 0x48, 0x20, 0x38, 0xbd, 0xc3, 0xb9, 0xea, 0x3c,
  0x67, 0xa5, 0xd6, 0x3b, 0xca, 0x08, 0x5b, 0xbd, 0x48, 0x90, 0x19, 0x3d,
  0x08, 0xf6, 0xff, 0xff, 0x0c, 0xf6, 0xff, 0xff, 0x0f, 0x00, 0x00, 0x00,
  0x4d, 0x4c, 0x49, 0x52, 0x20, 0x43, 0x6f, 0x6e, 0x76, 0x65, 0x72, 0x74,
  0x65, 0x64, 0x2e, 0x00, 0x01, 0x00, 0x00, 0x00, 0x14, 0x00, 0x00, 0x00,
  0x00, 0x00, 0x0e, 0x00, 0x18, 0x00, 0x14, 0x00, 0x10, 0x00, 0x0c, 0x00,
  0x08, 0x00, 0x04, 0x00, 0x0e, 0x00, 0x00, 0x00, 0x14, 0x00, 0x00, 0x00,
  0x1c, 0x00, 0x00, 0x00, 0x00, 0x02, 0x00, 0x00, 0x04, 0x02, 0x00, 0x00,
  0x08, 0x02, 0x00, 0x00, 0x04, 0x00, 0x00, 0x00, 0x6d, 0x61, 0x69, 0x6e,
  0x00, 0x00, 0x00, 0x00, 0x08, 0x00, 0x00, 0x00, 0xb8, 0x01, 0x00, 0x00,
  0x58, 0x01, 0x00, 0x00, 0x24, 0x01, 0x00, 0x00, 0xf0, 0x00, 0x00, 0x00,
  0xbc, 0x00, 0x00, 0x00, 0x78, 0x00, 0x00, 0x00, 0x40, 0x00, 0x00, 0x00,
  0x04, 0x00, 0x00, 0x00, 0xd2, 0xfe, 0xff, 0xff, 0x1c, 0x00, 0x00, 0x00,
  0x00, 0x00, 0x00, 0x09, 0x1c, 0x00, 0x00, 0x00, 0x20, 0x00, 0x00, 0x00,
  0x06, 0x00, 0x00, 0x00, 0x00, 0x00, 0x06, 0x00, 0x08, 0x00, 0x04, 0x00,
  0x06, 0x00, 0x00, 0x00, 0x00, 0x00, 0x80, 0x3f, 0x01, 0x00, 0x00, 0x00,
  0x11, 0x00, 0x00, 0x00, 0x01, 0x00, 0x00, 0x00, 0x10, 0x00, 0x00, 0x00,
  0x0a, 0xff, 0xff, 0xff, 0x14, 0x00, 0x00, 0x00, 0x00, 0x00, 0x00, 0x08,
  0x10, 0x00, 0x00, 0x00, 0x14, 0x00, 0x00, 0x00, 0x05, 0x00, 0x00, 0x00,
  0xd4, 0xf6, 0xff, 0xff, 0x01, 0x00, 0x00, 0x00, 0x10, 0x00, 0x00, 0x00,
  0x03, 0x00, 0x00, 0x00, 0x0f, 0x00, 0x00, 0x00, 0x04, 0x00, 0x00, 0x00,
  0x06, 0x00, 0x00, 0x00, 0x3e, 0xff, 0xff, 0xff, 0x1c, 0x00, 0x00, 0x00,
  0x00, 0x00, 0x00, 0x08, 0x1c, 0x00, 0x00, 0x00, 0x20, 0x00, 0x00, 0x00,
  0x05, 0x00, 0x00, 0x00, 0x00, 0x00, 0x06, 0x00, 0x08, 0x00, 0x07, 0x00,
  0x06, 0x00, 0x00, 0x00, 0x00, 0x00, 0x00, 0x01, 0x01, 0x00, 0x00, 0x00,
  0x0f, 0x00, 0x00, 0x00, 0x03, 0x00, 0x00, 0x00, 0x0e, 0x00, 0x00, 0x00,
  0x05, 0x00, 0x00, 0x00, 0x07, 0x00, 0x00, 0x00, 0x7e, 0xff, 0xff, 0xff,
  0x14, 0x00, 0x00, 0x00, 0x00, 0x00, 0x00, 0x1b, 0x10, 0x00, 0x00, 0x00,
  0x14, 0x00, 0x00, 0x00, 0x04, 0x00, 0x00, 0x00, 0x48, 0xf7, 0xff, 0xff,
  0x01, 0x00, 0x00, 0x00, 0x0e, 0x00, 0x00, 0x00, 0x02, 0x00, 0x00, 0x00,
  0x0d, 0x00, 0x00, 0x00, 0x08, 0x00, 0x00, 0x00, 0xda, 0xff, 0xff, 0xff,
  0x0c, 0x00, 0x00, 0x00, 0x10, 0x00, 0x00, 0x00, 0x03, 0x00, 0x00, 0x00,
  0x01, 0x00, 0x00, 0x00, 0x0d, 0x00, 0x00, 0x00, 0x02, 0x00, 0x00, 0x00,
  0x0c, 0x00, 0x00, 0x00, 0x02, 0x00, 0x00, 0x00, 0x00, 0x00, 0x0a, 0x00,
  0x10, 0x00, 0x0c, 0x00, 0x08, 0x00, 0x04, 0x00, 0x0a, 0x00, 0x00, 0x00,
  0x0c, 0x00, 0x00, 0x00, 0x10, 0x00, 0x00, 0x00, 0x02, 0x00, 0x00, 0x00,
  0x01, 0x00, 0x00, 0x00, 0x0c, 0x00, 0x00, 0x00, 0x01, 0x00, 0x00, 0x00,
  0x0b, 0x00, 0x00, 0x00, 0x00, 0x00, 0x0e, 0x00, 0x1a, 0x00, 0x14, 0x00,
  0x10, 0x00, 0x0c, 0x00, 0x0b, 0x00, 0x04, 0x00, 0x0e, 0x00, 0x00, 0x00,
  0x20, 0x00, 0x00, 0x00, 0x00, 0x00, 0x00, 0x01, 0x28, 0x00, 0x00, 0x00,
  0x2c, 0x00, 0x00, 0x00, 0x01, 0x00, 0x00, 0x00, 0x00, 0x00, 0x0a, 0x00,
  0x10, 0x00, 0x0f, 0x00, 0x08, 0x00, 0x04, 0x00, 0x0a, 0x00, 0x00, 0x00,
  0x01, 0x00, 0x00, 0x00, 0x01, 0x00, 0x00, 0x00, 0x00, 0x00, 0x00, 0x01,
  0x01, 0x00, 0x00, 0x00, 0x0b, 0x00, 0x00, 0x00, 0x03, 0x00, 0x00, 0x00,
  0x0a, 0x00, 0x00, 0x00, 0x03, 0x00, 0x00, 0x00, 0x01, 0x00, 0x00, 0x00,
  0x00, 0x00, 0x0e, 0x00, 0x14, 0x00, 0x00, 0x00, 0x10, 0x00, 0x0c, 0x00,
  0x0b, 0x00, 0x04, 0x00, 0x0e, 0x00, 0x00, 0x00, 0x10, 0x00, 0x00, 0x00,
  0x00, 0x00, 0x00, 0x34, 0x0c, 0x00, 0x00, 0x00, 0x10, 0x00, 0x00, 0x00,
  0x30, 0xf8, 0xff, 0xff, 0x01, 0x00, 0x00, 0x00, 0x0a, 0x00, 0x00, 0x00,
  0x02, 0x00, 0x00, 0x00, 0x00, 0x00, 0x00, 0x00, 0x09, 0x00, 0x00, 0x00,
  0x01, 0x00, 0x00, 0x00, 0x11, 0x00, 0x00, 0x00, 0x01, 0x00, 0x00, 0x00,
  0x00, 0x00, 0x00, 0x00, 0x12, 0x00, 0x00, 0x00, 0x78, 0x07, 0x00, 0x00,
  0x24, 0x07, 0x00, 0x00, 0xcc, 0x06, 0x00, 0x00, 0x6c, 0x06, 0x00, 0x00,
  0x2c, 0x06, 0x00, 0x00, 0xec, 0x05, 0x00, 0x00, 0xb0, 0x05, 0x00, 0x00,
  0x74, 0x05, 0x00, 0x00, 0x38, 0x05, 0x00, 0x00, 0xd4, 0x04, 0x00, 0x00,
  0x50, 0x04, 0x00, 0x00, 0x84, 0x03, 0x00, 0x00, 0xc0, 0x02, 0x00, 0x00,
  0x04, 0x02, 0x00, 0x00, 0x90, 0x01, 0x00, 0x00, 0xe8, 0x00, 0x00, 0x00,
  0x60, 0x00, 0x00, 0x00, 0x04, 0x00, 0x00, 0x00, 0xe6, 0xf8, 0xff, 0xff,
  0x00, 0x00, 0x00, 0x01, 0x14, 0x00, 0x00, 0x00, 0x1c, 0x00, 0x00, 0x00,
  0x1c, 0x00, 0x00, 0x00, 0x12, 0x00, 0x00, 0x00, 0x34, 0x00, 0x00, 0x00,
  0x02, 0x00, 0x00, 0x00, 0xff, 0xff, 0xff, 0xff, 0x03, 0x00, 0x00, 0x00,
  0xcc, 0xf8, 0xff, 0xff, 0x1b, 0x00, 0x00, 0x00, 0x53, 0x74, 0x61, 0x74,
  0x65, 0x66, 0x75, 0x6c, 0x50, 0x61, 0x72, 0x74, 0x69, 0x74, 0x69, 0x6f,
  0x6e, 0x65, 0x64, 0x43, 0x61, 0x6c, 0x6c, 0x5f, 0x31, 0x3a, 0x30, 0x00,
  0x02, 0x00, 0x00, 0x00, 0x01, 0x00, 0x00, 0x00, 0x03, 0x00, 0x00, 0x00,
  0x3e, 0xf9, 0xff, 0xff, 0x00, 0x00, 0x00, 0x01, 0x14, 0x00, 0x00, 0x00,
  0x1c, 0x00, 0x00, 0x00, 0x1c, 0x00, 0x00, 0x00, 0x11, 0x00, 0x00, 0x00,
  0x60, 0x00, 0x00, 0x00, 0x02, 0x00, 0x00, 0x00, 0xff, 0xff, 0xff, 0xff,
  0x03, 0x00, 0x00, 0x00, 0x24, 0xf9, 0xff, 0xff, 0x44, 0x00, 0x00, 0x00,
  0x73, 0x65, 0x71, 0x75, 0x65, 0x6e, 0x74, 0x69, 0x61, 0x6c, 0x5f, 0x31,
  0x34, 0x5f, 0x31, 0x2f, 0x64, 0x65, 0x6e, 0x73, 0x65, 0x5f, 0x32, 0x36,
  0x5f, 0x31, 0x2f, 0x4d, 0x61, 0x74, 0x4d, 0x75, 0x6c, 0x3b, 0x73, 0x65,
  0x71, 0x75, 0x65, 0x6e, 0x74, 0x69, 0x61, 0x6c, 0x5f, 0x31, 0x34, 0x5f,
  0x31, 0x2f, 0x64, 0x65, 0x6e, 0x73, 0x65, 0x5f, 0x32, 0x36, 0x5f, 0x31,
  0x2f, 0x42, 0x69, 0x61, 0x73, 0x41, 0x64, 0x64, 0x00, 0x00, 0x00, 0x00,
  0x02, 0x00, 0x00, 0x00, 0x01, 0x00, 0x00, 0x00, 0x03, 0x00, 0x00, 0x00,
  0xc2, 0xf9, 0xff, 0xff, 0x00, 0x00, 0x00, 0x01, 0x14, 0x00, 0x00, 0x00,
  0x1c, 0x00, 0x00, 0x00, 0x1c, 0x00, 0x00, 0x00, 0x10, 0x00, 0x00, 0x00,
  0x80, 0x00, 0x00, 0x00, 0x02, 0x00, 0x00, 0x00, 0xff, 0xff, 0xff, 0xff,
  0x08, 0x00, 0x00, 0x00, 0xa8, 0xf9, 0xff, 0xff, 0x64, 0x00, 0x00, 0x00,
  0x73, 0x65, 0x71, 0x75, 0x65, 0x6e, 0x74, 0x69, 0x61, 0x6c, 0x5f, 0x31,
  0x34, 0x5f, 0x31, 0x2f, 0x64, 0x65, 0x6e, 0x73, 0x65, 0x5f, 0x32, 0x35,
  0x5f, 0x31, 0x2f, 0x4d, 0x61, 0x74, 0x4d, 0x75, 0x6c, 0x3b, 0x73, 0x65,
  0x71, 0x75, 0x65, 0x6e, 0x74, 0x69, 0x61, 0x6c, 0x5f, 0x31, 0x34, 0x5f,
  0x31, 0x2f, 0x64, 0x65, 0x6e, 0x73, 0x65, 0x5f, 0x32, 0x35, 0x5f, 0x31,
  0x2f, 0x52, 0x65, 0x6c, 0x75, 0x3b, 0x73, 0x65, 0x71, 0x75, 0x65, 0x6e,
  0x74, 0x69, 0x61, 0x6c, 0x5f, 0x31, 0x34, 0x5f, 0x31, 0x2f, 0x64, 0x65,
  0x6e, 0x73, 0x65, 0x5f, 0x32, 0x35, 0x5f, 0x31, 0x2f, 0x42, 0x69, 0x61,
  0x73, 0x41, 0x64, 0x64, 0x00, 0x00, 0x00, 0x00, 0x02, 0x00, 0x00, 0x00,
  0x01, 0x00, 0x00, 0x00, 0x08, 0x00, 0x00, 0x00, 0x66, 0xfa, 0xff, 0xff,
  0x00, 0x00, 0x00, 0x01, 0x14, 0x00, 0x00, 0x00, 0x1c, 0x00, 0x00, 0x00,
  0x1c, 0x00, 0x00, 0x00, 0x0f, 0x00, 0x00, 0x00, 0x4c, 0x00, 0x00, 0x00,
  0x02, 0x00, 0x00, 0x00, 0xff, 0xff, 0xff, 0xff, 0x10, 0x00, 0x00, 0x00,
  0x4c, 0xfa, 0xff, 0xff, 0x31, 0x00, 0x00, 0x00, 0x73, 0x65, 0x71, 0x75,
  0x65, 0x6e, 0x74, 0x69, 0x61, 0x6c, 0x5f, 0x31, 0x34, 0x5f, 0x31, 0x2f,
  0x67, 0x6c, 0x6f, 0x62, 0x61, 0x6c, 0x5f, 0x61, 0x76, 0x65, 0x72, 0x61,
  0x67, 0x65, 0x5f, 0x70, 0x6f, 0x6f, 0x6c, 0x69, 0x6e, 0x67, 0x31, 0x64,
  0x5f, 0x33, 0x5f, 0x31, 0x2f, 0x4d, 0x65, 0x61, 0x6e, 0x00, 0x00, 0x00,
  0x02, 0x00, 0x00, 0x00, 0x01, 0x00, 0x00, 0x00, 0x10, 0x00, 0x00, 0x00,
  0xd6, 0xfa, 0xff, 0xff, 0x00, 0x00, 0x00, 0x01, 0x14, 0x00, 0x00, 0x00,
  0x20, 0x00, 0x00, 0x00, 0x20, 0x00, 0x00, 0x00, 0x0e, 0x00, 0x00, 0x00,
  0x90, 0x00, 0x00, 0x00, 0x03, 0x00, 0x00, 0x00, 0xff, 0xff, 0xff, 0xff,
  0x0a, 0x00, 0x00, 0x00, 0x10, 0x00, 0x00, 0x00, 0xc0, 0xfa, 0xff, 0xff,
  0x73, 0x00, 0x00, 0x00, 0x73, 0x65, 0x71, 0x75, 0x65, 0x6e, 0x74, 0x69,
  0x61, 0x6c, 0x5f, 0x31, 0x34, 0x5f, 0x31, 0x2f, 0x63, 0x6f, 0x6e, 0x76,
  0x31, 0x64, 0x5f, 0x37, 0x5f, 0x31, 0x2f, 0x54, 0x61, 0x6e, 0x68, 0x3b,
  0x73, 0x65, 0x71, 0x75, 0x65, 0x6e, 0x74, 0x69, 0x61, 0x6c, 0x5f, 0x31,
  0x34, 0x5f, 0x31, 0x2f, 0x63, 0x6f, 0x6e, 0x76, 0x31, 0x64, 0x5f, 0x37,
  0x5f, 0x31, 0x2f, 0x42, 0x69, 0x61, 0x73, 0x41, 0x64, 0x64, 0x3b, 0x73,
  0x65, 0x71, 0x75, 0x65, 0x6e, 0x74, 0x69, 0x61, 0x6c, 0x5f, 0x31, 0x34,
  0x5f, 0x31, 0x2f, 0x63, 0x6f, 0x6e, 0x76, 0x31, 0x64, 0x5f, 0x37, 0x5f,
  0x31, 0x2f, 0x63, 0x6f, 0x6e, 0x76, 0x6f, 0x6c, 0x75, 0x74, 0x69, 0x6f,
  0x6e, 0x2f, 0x53, 0x71, 0x75, 0x65, 0x65, 0x7a, 0x65, 0x3b, 0x31, 0x00,
  0x03, 0x00, 0x00, 0x00, 0x01, 0x00, 0x00, 0x00, 0x0a, 0x00, 0x00, 0x00,
  0x10, 0x00, 0x00, 0x00, 0x8e, 0xfb, 0xff, 0xff, 0x00, 0x00, 0x00, 0x01,
  0x14, 0x00, 0x00, 0x00, 0x24, 0x00, 0x00, 0x00, 0x24, 0x00, 0x00, 0x00,
  0x0d, 0x00, 0x00, 0x00, 0x94, 0x00, 0x00, 0x00, 0x04, 0x00, 0x00, 0x00,
  0xff, 0xff, 0xff, 0xff, 0x01, 0x00, 0x00, 0x00, 0x0a, 0x00, 0x00, 0x00,
  0x10, 0x00, 0x00, 0x00, 0x7c, 0xfb, 0xff, 0xff, 0x72, 0x00, 0x00, 0x00,
  0x73, 0x65, 0x71, 0x75, 0x65, 0x6e, 0x74, 0x69, 0x61, 0x6c, 0x5f, 0x31,
  0x34, 0x5f, 0x31, 0x2f, 0x63, 0x6f, 0x6e, 0x76, 0x31, 0x64, 0x5f, 0x37,
  0x5f, 0x31, 0x2f, 0x54, 0x61, 0x6e, 0x68, 0x3b, 0x73, 0x65, 0x71, 0x75,
  0x65, 0x6e, 0x74, 0x69, 0x61, 0x6c, 0x5f, 0x31, 0x34, 0x5f, 0x31, 0x2f,
  0x63, 0x6f, 0x6e, 0x76, 0x31, 0x64, 0x5f, 0x37, 0x5f, 0x31, 0x2f, 0x42,
  0x69, 0x61, 0x73, 0x41, 0x64, 0x64, 0x3b, 0x73, 0x65, 0x71, 0x75, 0x65,
  0x6e, 0x74, 0x69, 0x61, 0x6c, 0x5f, 0x31, 0x34, 0x5f, 0x31, 0x2f, 0x63,
  0x6f, 0x6e, 0x76, 0x31, 0x64, 0x5f, 0x37, 0x5f, 0x31, 0x2f, 0x63, 0x6f,
  0x6e, 0x76, 0x6f, 0x6c, 0x75, 0x74, 0x69, 0x6f, 0x6e, 0x2f, 0x53, 0x71,
  0x75, 0x65, 0x65, 0x7a, 0x65, 0x3b, 0x00, 0x00, 0x04, 0x00, 0x00, 0x00,
  0x01, 0x00, 0x00, 0x00, 0x01, 0x00, 0x00, 0x00, 0x0a, 0x00, 0x00, 0x00,
  0x10, 0x00, 0x00, 0x00, 0x4e, 0xfc, 0xff, 0xff, 0x00, 0x00, 0x00, 0x01,
  0x14, 0x00, 0x00, 0x00, 0x24, 0x00, 0x00, 0x00, 0x24, 0x00, 0x00, 0x00,
  0x0c, 0x00, 0x00, 0x00, 0x9c, 0x00, 0x00, 0x00, 0x04, 0x00, 0x00, 0x00,
  0xff, 0xff, 0xff, 0xff, 0x01, 0x00, 0x00, 0x00, 0x0a, 0x00, 0x00, 0x00,
  0x10, 0x00, 0x00, 0x00, 0x3c, 0xfc, 0xff, 0xff, 0x79, 0x00, 0x00, 0x00,
  0x73, 0x65, 0x71, 0x75, 0x65, 0x6e, 0x74, 0x69, 0x61, 0x6c, 0x5f, 0x31,
  0x34, 0x5f, 0x31, 0x2f, 0x63, 0x6f, 0x6e, 0x76, 0x31, 0x64, 0x5f, 0x37,
  0x5f, 0x31, 0x2f, 0x42, 0x69, 0x61, 0x73, 0x41, 0x64, 0x64, 0x3b, 0x73,
  0x65, 0x71, 0x75, 0x65, 0x6e, 0x74, 0x69, 0x61, 0x6c, 0x5f, 0x31, 0x34,
  0x5f, 0x31, 0x2f, 0x63, 0x6f, 0x6e, 0x76, 0x31, 0x64, 0x5f, 0x37, 0x5f,
  0x31, 0x2f, 0x63, 0x6f, 0x6e, 0x76, 0x6f, 0x6c, 0x75, 0x74, 0x69, 0x6f,
  0x6e, 0x2f, 0x53, 0x71, 0x75, 0x65, 0x65, 0x7a, 0x65, 0x3b, 0x3b, 0x73,
  0x65, 0x71, 0x75, 0x65, 0x6e, 0x74, 0x69, 0x61, 0x6c, 0x5f, 0x31, 0x34,
  0x5f, 0x31, 0x2f, 0x63, 0x6f, 0x6e, 0x76, 0x31, 0x64, 0x5f, 0x37, 0x5f,
  0x31, 0x2f, 0x63, 0x6f, 0x6e, 0x76, 0x6f, 0x6c, 0x75, 0x74, 0x69, 0x6f,
  0x6e, 0x00, 0x00, 0x00, 0x04, 0x00, 0x00, 0x00, 0x01, 0x00, 0x00, 0x00,
  0x01, 0x00, 0x00, 0x00, 0x0a, 0x00, 0x00, 0x00, 0x10, 0x00, 0x00, 0x00,
  0x16, 0xfd, 0xff, 0xff, 0x00, 0x00, 0x00, 0x01, 0x14, 0x00, 0x00, 0x00,
  0x24, 0x00, 0x00, 0x00, 0x24, 0x00, 0x00, 0x00, 0x0b, 0x00, 0x00, 0x00,
  0x54, 0x00, 0x00, 0x00, 0x04, 0x00, 0x00, 0x00, 0xff, 0xff, 0xff, 0xff,
  0x01, 0x00, 0x00, 0x00, 0x0c, 0x00, 0x00, 0x00, 0x06, 0x00, 0x00, 0x00,
  0x04, 0xfd, 0xff, 0xff, 0x31, 0x00, 0x00, 0x00, 0x73, 0x65, 0x71, 0x75,
  0x65, 0x6e, 0x74, 0x69, 0x61, 0x6c, 0x5f, 0x31, 0x34, 0x5f, 0x31, 0x2f,
  0x63, 0x6f, 0x6e, 0x76, 0x31, 0x64, 0x5f, 0x37, 0x5f, 0x31, 0x2f, 0x63,
  0x6f, 0x6e, 0x76, 0x6f, 0x6c, 0x75, 0x74, 0x69, 0x6f, 0x6e, 0x2f, 0x45,
  0x78, 0x70, 0x61, 0x6e, 0x64, 0x44, 0x69, 0x6d, 0x73, 0x00, 0x00, 0x00,
  0x04, 0x00, 0x00, 0x00, 0x01, 0x00, 0x00, 0x00, 0x01, 0x00, 0x00, 0x00,
  0x0c, 0x00, 0x00, 0x00, 0x06, 0x00, 0x00, 0x00, 0x3a, 0xfe, 0xff, 0xff,
  0x00, 0x00, 0x00, 0x01, 0x14, 0x00, 0x00, 0x00, 0x14, 0x00, 0x00, 0x00,
  0x0a, 0x00, 0x00, 0x00, 0x00, 0x00, 0x00, 0x02, 0x44, 0x00, 0x00, 0x00,
  0x70, 0xfd, 0xff, 0xff, 0x35, 0x00, 0x00, 0x00, 0x73, 0x65, 0x71, 0x75,
  0x65, 0x6e, 0x74, 0x69, 0x61, 0x6c, 0x5f, 0x31, 0x34, 0x5f, 0x31, 0x2f,
  0x63, 0x6f, 0x6e, 0x76, 0x31, 0x64, 0x5f, 0x37, 0x5f, 0x31, 0x2f, 0x63,
  0x6f, 0x6e, 0x76, 0x6f, 0x6c, 0x75, 0x74, 0x69, 0x6f, 0x6e, 0x2f, 0x45,
  0x78, 0x70, 0x61, 0x6e, 0x64, 0x44, 0x69, 0x6d, 0x73, 0x2f, 0x64, 0x69,
  0x6d, 0x00, 0x00, 0x00, 0x00, 0x00, 0x00, 0x00, 0x9a, 0xfe, 0xff, 0xff,
  0x00, 0x00, 0x00, 0x01, 0x14, 0x00, 0x00, 0x00, 0x14, 0x00, 0x00, 0x00,
  0x09, 0x00, 0x00, 0x00, 0x00, 0x00, 0x00, 0x02, 0x1c, 0x00, 0x00, 0x00,
  0xd0, 0xfd, 0xff, 0xff, 0x0f, 0x00, 0x00, 0x00, 0x61, 0x72, 0x69, 0x74,
  0x68, 0x2e, 0x63, 0x6f, 0x6e, 0x73, 0x74, 0x61, 0x6e, 0x74, 0x37, 0x00,
  0x00, 0x00, 0x00, 0x00, 0x7e, 0xfe, 0xff, 0xff, 0x00, 0x00, 0x00, 0x01,
  0x10, 0x00, 0x00, 0x00, 0x10, 0x00, 0x00, 0x00, 0x08, 0x00, 0x00, 0x00,
  0x1c, 0x00, 0x00, 0x00, 0x04, 0xfe, 0xff, 0xff, 0x0f, 0x00, 0x00, 0x00,
  0x61, 0x72, 0x69, 0x74, 0x68, 0x2e, 0x63, 0x6f, 0x6e, 0x73, 0x74, 0x61,
  0x6e, 0x74, 0x36, 0x00, 0x01, 0x00, 0x00, 0x00, 0x08, 0x00, 0x00, 0x00,
  0xb6, 0xfe, 0xff, 0xff, 0x00, 0x00, 0x00, 0x01, 0x10, 0x00, 0x00, 0x00,
  0x10, 0x00, 0x00, 0x00, 0x07, 0x00, 0x00, 0x00, 0x1c, 0x00, 0x00, 0x00,
  0x3c, 0xfe, 0xff, 0xff, 0x0f, 0x00, 0x00, 0x00, 0x61, 0x72, 0x69, 0x74,
  0x68, 0x2e, 0x63, 0x6f, 0x6e, 0x73, 0x74, 0x61, 0x6e, 0x74, 0x35, 0x00,
  0x01, 0x00, 0x00, 0x00, 0x03, 0x00, 0x00, 0x00, 0xee, 0xfe, 0xff, 0xff,
  0x00, 0x00, 0x00, 0x01, 0x10, 0x00, 0x00, 0x00, 0x10, 0x00, 0x00, 0x00,
  0x06, 0x00, 0x00, 0x00, 0x1c, 0x00, 0x00, 0x00, 0x74, 0xfe, 0xff, 0xff,
  0x0f, 0x00, 0x00, 0x00, 0x61, 0x72, 0x69, 0x74, 0x68, 0x2e, 0x63, 0x6f,
  0x6e, 0x73, 0x74, 0x61, 0x6e, 0x74, 0x34, 0x00, 0x02, 0x00, 0x00, 0x00,
  0x08, 0x00, 0x00, 0x00, 0x10, 0x00, 0x00, 0x00, 0x2a, 0xff, 0xff, 0xff,
  0x00, 0x00, 0x00, 0x01, 0x10, 0x00, 0x00, 0x00, 0x10, 0x00, 0x00, 0x00,
  0x05, 0x00, 0x00, 0x00, 0x1c, 0x00, 0x00, 0x00, 0xb0, 0xfe, 0xff, 0xff,
  0x0f, 0x00, 0x00, 0x00, 0x61, 0x72, 0x69, 0x74, 0x68, 0x2e, 0x63, 0x6f,
  0x6e, 0x73, 0x74, 0x61, 0x6e, 0x74, 0x33, 0x00, 0x02, 0x00, 0x00, 0x00,
  0x03, 0x00, 0x00, 0x00, 0x08, 0x00, 0x00, 0x00, 0x66, 0xff, 0xff, 0xff,
  0x00, 0x00, 0x00, 0x01, 0x10, 0x00, 0x00, 0x00, 0x10, 0x00, 0x00, 0x00,
  0x04, 0x00, 0x00, 0x00, 0x1c, 0x00, 0x00, 0x00, 0xec, 0xfe, 0xff, 0xff,
  0x0f, 0x00, 0x00, 0x00, 0x61, 0x72, 0x69, 0x74, 0x68, 0x2e, 0x63, 0x6f,
  0x6e, 0x73, 0x74, 0x61, 0x6e, 0x74, 0x32, 0x00, 0x04, 0x00, 0x00, 0x00,
  0x10, 0x00, 0x00, 0x00, 0x01, 0x00, 0x00, 0x00, 0x03, 0x00, 0x00, 0x00,
  0x06, 0x00, 0x00, 0x00, 0x00, 0x00, 0x16, 0x00, 0x1c, 0x00, 0x18, 0x00,
  0x17, 0x00, 0x10, 0x00, 0x0c, 0x00, 0x08, 0x00, 0x00, 0x00, 0x00, 0x00,
  0x00, 0x00, 0x07, 0x00, 0x16, 0x00, 0x00, 0x00, 0x00, 0x00, 0x00, 0x01,
  0x14, 0x00, 0x00, 0x00, 0x14, 0x00, 0x00, 0x00, 0x03, 0x00, 0x00, 0x00,
  0x00, 0x00, 0x00, 0x02, 0x1c, 0x00, 0x00, 0x00, 0x4c, 0xff, 0xff, 0xff,
  0x0f, 0x00, 0x00, 0x00, 0x61, 0x72, 0x69, 0x74, 0x68, 0x2e, 0x63, 0x6f,
  0x6e, 0x73, 0x74, 0x61, 0x6e, 0x74, 0x31, 0x00, 0x01, 0x00, 0x00, 0x00,
  0x03, 0x00, 0x00, 0x00, 0x00, 0x00, 0x16, 0x00, 0x18, 0x00, 0x14, 0x00,
  0x00, 0x00, 0x10, 0x00, 0x0c, 0x00, 0x08, 0x00, 0x00, 0x00, 0x00, 0x00,
  0x00, 0x00, 0x07, 0x00, 0x16, 0x00, 0x00, 0x00, 0x00, 0x00, 0x00, 0x01,
  0x10, 0x00, 0x00, 0x00, 0x10, 0x00, 0x00, 0x00, 0x02, 0x00, 0x00, 0x00,
  0x1c, 0x00, 0x00, 0x00, 0x9c, 0xff, 0xff, 0xff, 0x0e, 0x00, 0x00, 0x00,
  0x61, 0x72, 0x69, 0x74, 0x68, 0x2e, 0x63, 0x6f, 0x6e, 0x73, 0x74, 0x61,
  0x6e, 0x74, 0x00, 0x00, 0x01, 0x00, 0x00, 0x00, 0x10, 0x00, 0x00, 0x00,
  0x00, 0x00, 0x16, 0x00, 0x1c, 0x00, 0x18, 0x00, 0x00, 0x00, 0x14, 0x00,
  0x10, 0x00, 0x0c, 0x00, 0x00, 0x00, 0x00, 0x00, 0x08, 0x00, 0x07, 0x00,
  0x16, 0x00, 0x00, 0x00, 0x00, 0x00, 0x00, 0x01, 0x14, 0x00, 0x00, 0x00,
  0x24, 0x00, 0x00, 0x00, 0x24, 0x00, 0x00, 0x00, 0x01, 0x00, 0x00, 0x00,
  0x44, 0x00, 0x00, 0x00, 0x03, 0x00, 0x00, 0x00, 0xff, 0xff, 0xff, 0xff,
  0x0c, 0x00, 0x00, 0x00, 0x06, 0x00, 0x00, 0x00, 0x04, 0x00, 0x04, 0x00,
  0x04, 0x00, 0x00, 0x00, 0x21, 0x00, 0x00, 0x00, 0x73, 0x65, 0x72, 0x76,
  0x69, 0x6e, 0x67, 0x5f, 0x64, 0x65, 0x66, 0x61, 0x75, 0x6c, 0x74, 0x5f,
  0x6b, 0x65, 0x72, 0x61, 0x73, 0x5f, 0x74, 0x65, 0x6e, 0x73, 0x6f, 0x72,
  0x5f, 0x38, 0x39, 0x3a, 0x30, 0x00, 0x00, 0x00, 0x03, 0x00, 0x00, 0x00,
  0x01, 0x00, 0x00, 0x00, 0x0c, 0x00, 0x00, 0x00, 0x06, 0x00, 0x00, 0x00,
  0x07, 0x00, 0x00, 0x00, 0x70, 0x00, 0x00, 0x00, 0x54, 0x00, 0x00, 0x00,
  0x44, 0x00, 0x00, 0x00, 0x34, 0x00, 0x00, 0x00, 0x24, 0x00, 0x00, 0x00,
  0x14, 0x00, 0x00, 0x00, 0x04, 0x00, 0x00, 0x00, 0xb8, 0xff, 0xff, 0xff,
  0x19, 0x00, 0x00, 0x00, 0x00, 0x00, 0x00, 0x19, 0xc4, 0xff, 0xff, 0xff,
  0x09, 0x00, 0x00, 0x00, 0x00, 0x00, 0x00, 0x09, 0xd0, 0xff, 0xff, 0xff,
  0x28, 0x00, 0x00, 0x00, 0x00, 0x00, 0x00, 0x28, 0xdc, 0xff, 0xff, 0xff,
  0x16, 0x00, 0x00, 0x00, 0x00, 0x00, 0x00, 0x16, 0xe8, 0xff, 0xff, 0xff,
  0x1c, 0x00, 0x00, 0x00, 0x00, 0x00, 0x00, 0x1c, 0xf4, 0xff, 0xff, 0xff,
  0x03, 0x00, 0x00, 0x00, 0x00, 0x00, 0x00, 0x03, 0x0c, 0x00, 0x0c, 0x00,
  0x0b, 0x00, 0x00, 0x00, 0x00, 0x00, 0x04, 0x00, 0x0c, 0x00, 0x00, 0x00,
  0x46, 0x00, 0x00, 0x00, 0x00, 0x00, 0x00, 0x46
};
unsigned int boxing_model_tflite_len = 5264;
