unsigned char boxing_model_left_15_tflite[] = {
  0x1c, 0x00, 0x00, 0x00, 0x54, 0x46, 0x4c, 0x33, 0x14, 0x00, 0x20, 0x00,
  0x1c, 0x00, 0x18, 0x00, 0x14, 0x00, 0x10, 0x00, 0x0c, 0x00, 0x00, 0x00,
  0x08, 0x00, 0x04, 0x00, 0x14, 0x00, 0x00, 0x00, 0x1c, 0x00, 0x00, 0x00,
  0x8c, 0x00, 0x00, 0x00, 0xe4, 0x00, 0x00, 0x00, 0xf4, 0x14, 0x00, 0x00,
  0x04, 0x15, 0x00, 0x00, 0x08, 0x1f, 0x00, 0x00, 0x03, 0x00, 0x00, 0x00,
  0x01, 0x00, 0x00, 0x00, 0x04, 0x00, 0x00, 0x00, 0xae, 0xe9, 0xff, 0xff,
  0x0c, 0x00, 0x00, 0x00, 0x1c, 0x00, 0x00, 0x00, 0x3c, 0x00, 0x00, 0x00,
  0x0f, 0x00, 0x00, 0x00, 0x73, 0x65, 0x72, 0x76, 0x69, 0x6e, 0x67, 0x5f,
  0x64, 0x65, 0x66, 0x61, 0x75, 0x6c, 0x74, 0x00, 0x01, 0x00, 0x00, 0x00,
  0x04, 0x00, 0x00, 0x00, 0x90, 0xff, 0xff, 0xff, 0x11, 0x00, 0x00, 0x00,
  0x04, 0x00, 0x00, 0x00, 0x08, 0x00, 0x00, 0x00, 0x6f, 0x75, 0x74, 0x70,
  0x75, 0x74, 0x5f, 0x30, 0x00, 0x00, 0x00, 0x00, 0x01, 0x00, 0x00, 0x00,
  0x04, 0x00, 0x00, 0x00, 0xe6, 0xea, 0xff, 0xff, 0x04, 0x00, 0x00, 0x00,
  0x0e, 0x00, 0x00, 0x00, 0x6b, 0x65, 0x72, 0x61, 0x73, 0x5f, 0x74, 0x65,
  0x6e, 0x73, 0x6f, 0x72, 0x5f, 0x35, 0x00, 0x00, 0x02, 0x00, 0x00, 0x00,
  0x34, 0x00, 0x00, 0x00, 0x04, 0x00, 0x00, 0x00, 0xdc, 0xff, 0xff, 0xff,
  0x14, 0x00, 0x00, 0x00, 0x04, 0x00, 0x00, 0x00, 0x13, 0x00, 0x00, 0x00,
  0x43, 0x4f, 0x4e, 0x56, 0x45, 0x52, 0x53, 0x49, 0x4f, 0x4e, 0x5f, 0x4d,
  0x45, 0x54, 0x41, 0x44, 0x41, 0x54, 0x41, 0x00, 0x08, 0x00, 0x0c, 0x00,
  0x08, 0x00, 0x04, 0x00, 0x08, 0x00, 0x00, 0x00, 0x13, 0x00, 0x00, 0x00,
  0x04, 0x00, 0x00, 0x00, 0x13, 0x00, 0x00, 0x00, 0x6d, 0x69, 0x6e, 0x5f,
  0x72, 0x75, 0x6e, 0x74, 0x69, 0x6d, 0x65, 0x5f, 0x76, 0x65, 0x72, 0x73,
  0x69, 0x6f, 0x6e, 0x00, 0x15, 0x00, 0x00, 0x00, 0x0c, 0x14, 0x00, 0x00,
  0x04, 0x14, 0x00, 0x00, 0x74, 0x13, 0x00, 0x00, 0x58, 0x13, 0x00, 0x00,
  0x48, 0x0a, 0x00, 0x00, 0x78, 0x09, 0x00, 0x00, 0x68, 0x01, 0x00, 0x00,
  0x4c, 0x01, 0x00, 0x00, 0xfc, 0x00, 0x00, 0x00, 0xe8, 0x00, 0x00, 0x00,
  0xd4, 0x00, 0x00, 0x00, 0xcc, 0x00, 0x00, 0x00, 0xc4, 0x00, 0x00, 0x00,
  0xbc, 0x00, 0x00, 0x00, 0xb4, 0x00, 0x00, 0x00, 0xac, 0x00, 0x00, 0x00,
  0xa4, 0x00, 0x00, 0x00, 0x9c, 0x00, 0x00, 0x00, 0x94, 0x00, 0x00, 0x00,
  0x74, 0x00, 0x00, 0x00, 0x04, 0x00, 0x00, 0x00, 0xb6, 0xeb, 0xff, 0xff,
  0x04, 0x00, 0x00, 0x00, 0x60, 0x00, 0x00, 0x00, 0x0c, 0x00, 0x00, 0x00,
  0x08, 0x00, 0x0e, 0x00, 0x08, 0x00, 0x04, 0x00, 0x08, 0x00, 0x00, 0x00,
  0x10, 0x00, 0x00, 0x00, 0x28, 0x00, 0x00, 0x00, 0x00, 0x00, 0x06, 0x00,
  0x08, 0x00, 0x04, 0x00, 0x06, 0x00, 0x00, 0x00, 0x04, 0x00, 0x00, 0x00,
  0x01, 0x00, 0x00, 0x00, 0xea, 0x03, 0x00, 0x00, 0x0c, 0x00, 0x18, 0x00,
  0x14, 0x00, 0x10, 0x00, 0x0c, 0x00, 0x04, 0x00, 0x0c, 0x00, 0x00, 0x00,
  0x69, 0xdd, 0x26, 0x2c, 0xb3, 0xf5, 0xfd, 0xf3, 0x02, 0x00, 0x00, 0x00,
  0x02, 0x00, 0x00, 0x00, 0x04, 0x00, 0x00, 0x00, 0x06, 0x00, 0x00, 0x00,
  0x32, 0x2e, 0x31, 0x38, 0x2e, 0x30, 0x00, 0x00, 0x22, 0xec, 0xff, 0xff,
  0x04, 0x00, 0x00, 0x00, 0x10, 0x00, 0x00, 0x00, 0x31, 0x2e, 0x31, 0x34,
  0x2e, 0x30, 0x00, 0x00, 0x00, 0x00, 0x00, 0x00, 0x00, 0x00, 0x00, 0x00,
  0xf0, 0xe2, 0xff, 0xff, 0xf4, 0xe2, 0xff, 0xff, 0xf8, 0xe2, 0xff, 0xff,
  0xfc, 0xe2, 0xff, 0xff, 0x00, 0xe3, 0xff, 0xff, 0x04, 0xe3, 0xff, 0xff,
  0x08, 0xe3, 0xff, 0xff, 0x0c, 0xe3, 0xff, 0xff, 0x5e, 0xec, 0xff, 0xff,
  0x04, 0x00, 0x00, 0x00, 0x04, 0x00, 0x00, 0x00, 0xfd, 0xff, 0xff, 0xff,
  0x6e, 0xec, 0xff, 0xff, 0x04, 0x00, 0x00, 0x00, 0x04, 0x00, 0x00, 0x00,
  0x01, 0x00, 0x00, 0x00, 0x7e, 0xec, 0xff, 0xff, 0x04, 0x00, 0x00, 0x00,
  0x40, 0x00, 0x00, 0x00, 0x08, 0x2c, 0x40, 0x3d, 0x86, 0x97, 0xa6, 0xbc,
  0xeb, 0x62, 0x9a, 0x3e, 0x39, 0x6d, 0x98, 0xbd, 0x98, 0xad, 0x32, 0xbe,
  0x66, 0x80, 0x94, 0xbd, 0x20, 0x5b, 0x46, 0xbe, 0xbd, 0x02, 0xd3, 0x3e,
  0xf4, 0xf4, 0x23, 0x3d, 0x8a, 0x2e, 0xc2, 0x3d, 0xc3, 0xa5, 0xc9, 0x3d,
  0x60, 0x80, 0x91, 0x3e, 0x58, 0xb9, 0xb5, 0xbd, 0x36, 0xc2, 0x7e, 0x3c,
  0x07, 0x8d, 0x99, 0x3e, 0x7c, 0x01, 0x8e, 0x3e, 0xca, 0xec, 0xff, 0xff,
  0x04, 0x00, 0x00, 0x00, 0x0c, 0x00, 0x00, 0x00, 0x3e, 0x4a, 0x37, 0xbe,
  0x61, 0x2b, 0x6b, 0x3e, 0x30, 0xd2, 0x1b, 0xbe, 0xe2, 0xec, 0xff, 0xff,
  0x04, 0x00, 0x00, 0x00, 0x00, 0x08, 0x00, 0x00, 0x6d, 0xc7, 0x07, 0xbe,
  0xe8, 0x6c, 0x61, 0x3e, 0xf3, 0xc0, 0x85, 0x3e, 0x04, 0xd3, 0xb0, 0x3e,
  0x79, 0x8e, 0x78, 0x3e, 0x17, 0x1e, 0x0d, 0x3e, 0x16, 0xf2, 0x9b, 0xbe,
  0x4e, 0x1d, 0x98, 0x3c, 0x49, 0xaf, 0x8e, 0xbe, 0x83, 0xca, 0x55, 0xbe,
  0x8f, 0xc9, 0x16, 0x3d, 0x09, 0x42, 0x72, 0x3e, 0x55, 0xc6, 0x63, 0xbe,
  0x4f, 0x16, 0xaf, 0x3d, 0xa5, 0x72, 0x9d, 0xbe, 0xa9, 0x41, 0xd2, 0xbe,
  0xf6, 0x7e, 0x7d, 0xbe, 0x95, 0x85, 0x98, 0xbe, 0x7e, 0x3c, 0xf7, 0xbc,
  0x1d, 0x2c, 0x37, 0x3e, 0xe7, 0x47, 0xa8, 0x3e, 0xfb, 0xf7, 0xe6, 0xbc,
  0x45, 0xa2, 0x39, 0x3c, 0x7e, 0xa3, 0x16, 0xbe, 0x51, 0x56, 0x00, 0xbd,
  0x3c, 0xa8, 0xa9, 0xbe, 0x70, 0xd7, 0xb1, 0xbe, 0xd0, 0xe6, 0x99, 0xbd,
  0x0e, 0x71, 0x7e, 0x3e, 0x4f, 0xfc, 0x09, 0xbb, 0xe1, 0xc7, 0xc6, 0xbe,
  0xae, 0xc6, 0x71, 0xbe, 0xdd, 0x60, 0x4a, 0xbe, 0x19, 0x9d, 0xcc, 0xbd,
  0x3e, 0xc1, 0xe5, 0xbe, 0x31, 0x43, 0x79, 0x3e, 0x35, 0x13, 0xc2, 0xbd,
  0x4c, 0x64, 0x9a, 0xbe, 0x3a, 0xa4, 0x43, 0x3e, 0x4f, 0x61, 0x9e, 0xbe,
  0x81, 0xb1, 0xf3, 0x3d, 0xa4, 0xf4, 0x28, 0xbe, 0x70, 0xd3, 0x2f, 0xbe,
  0x9d, 0x5b, 0x3d, 0xbe, 0x67, 0x55, 0x50, 0xbe, 0x91, 0xc4, 0x0e, 0xbe,
  0x6d, 0x3b, 0x0a, 0xbe, 0x52, 0xc6, 0x13, 0xbe, 0x2f, 0xa1, 0x38, 0x3e,
  0x38, 0x22, 0xa4, 0x3e, 0x20, 0xb7, 0x0c, 0x3e, 0x44, 0x59, 0xa1, 0xbe,
  0x1f, 0x8b, 0xb0, 0x3e, 0xfd, 0x79, 0xd2, 0xbe, 0x0b, 0x0c, 0x82, 0xbc,
  0xf4, 0x1e, 0x94, 0xbe, 0xa6, 0x7d, 0xdd, 0x3e, 0xe4, 0x29, 0x09, 0xbf,
  0xf9, 0x97, 0xa3, 0xbe, 0x68, 0x18, 0x94, 0x3e, 0x13, 0x51, 0x9b, 0x3e,
  0x82, 0xe6, 0xc2, 0x3d, 0xfb, 0xcd, 0x24, 0xbd, 0xb5, 0x31, 0xe6, 0x3d,
  0x98, 0xc6, 0xbb, 0xbe, 0x99, 0x38, 0xb8, 0xbe, 0x5b, 0x01, 0x04, 0xbe,
  0xb8, 0x09, 0x8a, 0xbd, 0xe2, 0xa1, 0xd5, 0x39, 0x80, 0x76, 0x69, 0x3e,
  0x21, 0x6c, 0x3f, 0xbe, 0x8f, 0xf9, 0xad, 0x3e, 0x87, 0xc3, 0xda, 0xbd,
  0x8a, 0xe8, 0xab, 0xbe, 0x15, 0x05, 0x71, 0xbd, 0x58, 0x9b, 0x5d, 0xbd,
  0x9c, 0x91, 0xb7, 0x3e, 0x21, 0x8c, 0xad, 0x3e, 0x6b, 0x30, 0x66, 0xbe,
  0x66, 0xdc, 0x19, 0x3e, 0xd7, 0xc8, 0x64, 0xbe, 0x22, 0x9e, 0x7d, 0x3d,
  0x96, 0x51, 0x8e, 0xbd, 0x34, 0x96, 0xb1, 0x3e, 0x71, 0xc5, 0xf3, 0x3d,
  0x1f, 0xcb, 0x80, 0x3e, 0x53, 0xcf, 0xa0, 0x3d, 0x45, 0xc4, 0x6d, 0x3e,
  0x60, 0xd9, 0xc6, 0xbe, 0x8f, 0x21, 0xa5, 0xbe, 0x6c, 0x06, 0x75, 0x3e,
  0x54, 0x24, 0x38, 0x3e, 0x5f, 0x3b, 0x09, 0x3f, 0xf6, 0xa3, 0x6b, 0xbe,
  0xe1, 0x2e, 0xb8, 0x3e, 0x32, 0x3f, 0x95, 0x3e, 0x1d, 0x87, 0xb7, 0xbd,
  0x7f, 0x6d, 0x2e, 0xbe, 0xa2, 0x7b, 0x37, 0x3d, 0x3d, 0x33, 0x8d, 0xbd,
  0x18, 0x27, 0x9a, 0x3e, 0x7a, 0x5a, 0x96, 0x3e, 0x96, 0xa3, 0xab, 0x3e,
  0xbc, 0xe5, 0xe1, 0x3e, 0x2b, 0x99, 0xe3, 0xbe, 0x9e, 0xef, 0x83, 0xbe,
  0x64, 0x10, 0x9c, 0xbe, 0xa7, 0x80, 0x23, 0x3d, 0x6a, 0x84, 0xbc, 0x3d,
  0x0d, 0x25, 0xb6, 0xbe, 0x1e, 0xc6, 0x42, 0x3e, 0x7c, 0xba, 0x48, 0x3e,
  0xf5, 0x3a, 0x39, 0x3e, 0xd6, 0x5b, 0x99, 0xbe, 0x94, 0x33, 0x1c, 0x3e,
  0x8d, 0xfb, 0x4c, 0xbd, 0x7e, 0xb7, 0xb7, 0x3b, 0x86, 0x17, 0xe0, 0xbd,
  0xd2, 0x09, 0x7d, 0xbc, 0x8f, 0x3a, 0xc5, 0xbe, 0xf8, 0x87, 0x47, 0x3e,
  0x60, 0x0d, 0x4b, 0x3e, 0x6d, 0x46, 0x6d, 0x3d, 0xaa, 0xea, 0x26, 0xbd,
  0xd7, 0x3f, 0x98, 0x3e, 0x7a, 0xc7, 0x8e, 0x3d, 0x4c, 0xfc, 0x05, 0x3e,
  0x77, 0x6b, 0x8d, 0xbe, 0xe3, 0xbf, 0xd0, 0x3d, 0x72, 0xb7, 0xcf, 0x3e,
  0x44, 0x5f, 0xd8, 0x3d, 0x72, 0x8e, 0x6e, 0x3e, 0x8b, 0x1e, 0x34, 0x3e,
  0x6c, 0xdb, 0xa1, 0x3e, 0x43, 0xa2, 0x70, 0x3e, 0xf2, 0xe0, 0x91, 0xbe,
  0xfa, 0x04, 0x1d, 0xbe, 0x39, 0x86, 0x92, 0x3e, 0x50, 0x91, 0x1f, 0xbd,
  0xf3, 0x71, 0x9b, 0xbe, 0xad, 0x93, 0x31, 0x3d, 0x2f, 0xd0, 0x3b, 0xbe,
  0x1e, 0x32, 0x6d, 0xbe, 0x3b, 0xf1, 0xad, 0xbe, 0xc0, 0x8a, 0x9c, 0x3e,
  0x5e, 0xe0, 0xa4, 0x3e, 0xf6, 0x72, 0x74, 0xbe, 0x5f, 0x4d, 0xea, 0x3d,
  0xa7, 0x73, 0xdc, 0xbd, 0x82, 0xde, 0xf0, 0x3e, 0x85, 0x7d, 0x5e, 0x3e,
  0xd9, 0xb7, 0x22, 0xbf, 0xd8, 0x19, 0x0b, 0xbe, 0x1e, 0xe0, 0x91, 0xbc,
  0xba, 0x57, 0x74, 0xbe, 0xfe, 0x1f, 0x90, 0x3e, 0xf4, 0xa0, 0x18, 0xbe,
  0x08, 0xc2, 0xa0, 0x3e, 0xd5, 0x43, 0x83, 0xbd, 0xb0, 0xda, 0x8a, 0xbe,
  0x51, 0x69, 0x1d, 0x3e, 0xf7, 0xd5, 0x90, 0x3e, 0xb9, 0x91, 0x8f, 0x3e,
  0xa4, 0x8e, 0xc3, 0x3d, 0x82, 0x4f, 0xf5, 0x3e, 0xcb, 0xd8, 0xdc, 0x3e,
  0x89, 0x3f, 0x87, 0xbe, 0xef, 0xec, 0xe3, 0xbe, 0x46, 0x91, 0xcc, 0xbe,
  0x02, 0x33, 0x55, 0x3e, 0x77, 0x53, 0x18, 0xbe, 0x8e, 0xe0, 0x84, 0x3e,
  0xb3, 0xe1, 0xed, 0x3e, 0x7a, 0x38, 0xc8, 0x3e, 0xbf, 0x25, 0xed, 0x3e,
  0x84, 0x20, 0x54, 0x3b, 0xd9, 0xcb, 0xf4, 0x3d, 0x0f, 0x5a, 0x31, 0x3d,
  0x94, 0xbd, 0x27, 0xbc, 0xde, 0x81, 0x48, 0x3d, 0xca, 0xb6, 0xc2, 0xbd,
  0x81, 0xab, 0x0f, 0x3f, 0x7c, 0x8f, 0x36, 0xbd, 0x02, 0x00, 0xc9, 0xbe,
  0x4d, 0xfb, 0xe1, 0xbc, 0x08, 0xd6, 0x10, 0x3f, 0xd4, 0xec, 0x0d, 0x3e,
  0xba, 0x68, 0xdd, 0x3e, 0x44, 0xa7, 0xce, 0xbb, 0x2a, 0xf6, 0xb7, 0x3e,
  0x8f, 0x25, 0xdb, 0x3e, 0x9f, 0xe8, 0xaf, 0xbe, 0x03, 0xb6, 0x8b, 0x3e,
  0xf6, 0x4a, 0xb1, 0x3e, 0xf3, 0xfe, 0x8f, 0xbd, 0x43, 0xc4, 0xd2, 0x3e,
  0x71, 0x9f, 0x95, 0xbe, 0x92, 0xcb, 0xc3, 0x3d, 0x11, 0x8d, 0x94, 0x3d,
  0xe4, 0x1d, 0xf4, 0xbd, 0x54, 0xc3, 0xcb, 0xbe, 0xdc, 0x1a, 0x29, 0x3e,
  0xd4, 0x48, 0x8f, 0x3e, 0x4a, 0x95, 0xfb, 0xbd, 0x22, 0x91, 0x0c, 0xbe,
  0x6a, 0x5d, 0x11, 0x3f, 0xff, 0x40, 0x6f, 0x3d, 0x05, 0x31, 0x9b, 0xbe,
  0xb1, 0xd4, 0x43, 0x3e, 0x41, 0xe2, 0xea, 0x3d, 0x03, 0xf8, 0xd2, 0xbe,
  0xe0, 0x6c, 0x84, 0x3e, 0x03, 0x9d, 0xa3, 0xbe, 0x75, 0x9a, 0x96, 0xbd,
  0x09, 0x31, 0x0d, 0x3d, 0xcb, 0xb9, 0xb1, 0xbb, 0xf1, 0xeb, 0xe5, 0x3d,
  0x80, 0xbf, 0x17, 0x3f, 0x1d, 0x93, 0xdb, 0x3d, 0xdc, 0x74, 0xd6, 0x3e,
  0xd6, 0xa7, 0x81, 0x3d, 0x9c, 0x8f, 0xdb, 0x3d, 0x6b, 0x12, 0xab, 0x3d,
  0xf4, 0x6e, 0x9a, 0xbd, 0xa1, 0x9c, 0x13, 0xbe, 0x12, 0xc7, 0xb9, 0xbd,
  0xe4, 0x87, 0x05, 0xbe, 0x71, 0xab, 0xc6, 0xbd, 0x5d, 0xbe, 0x9a, 0xbe,
  0x18, 0xce, 0x07, 0x3e, 0x54, 0x16, 0x79, 0xbe, 0x3e, 0xb1, 0xeb, 0xbc,
  0x4f, 0x3d, 0x1d, 0x3f, 0x04, 0xe2, 0x05, 0x3e, 0x60, 0x80, 0x81, 0x3e,
  0x67, 0x15, 0x81, 0xbc, 0xc8, 0x39, 0x8f, 0xbd, 0x76, 0x93, 0x7c, 0xbe,
  0xe5, 0x6d, 0xc7, 0xbd, 0x4d, 0xae, 0x11, 0x3f, 0x36, 0xa1, 0x25, 0xbf,
  0xae, 0xfb, 0x60, 0x3e, 0x8f, 0xbb, 0x57, 0xbc, 0x81, 0x85, 0x74, 0x3e,
  0x53, 0x7d, 0x08, 0xbf, 0x3e, 0xa5, 0x05, 0x3e, 0xe8, 0xa5, 0x14, 0xbe,
  0x85, 0x8c, 0xb2, 0x3e, 0x89, 0xe1, 0xda, 0xbe, 0xb1, 0x54, 0x81, 0xbe,
  0x8d, 0x46, 0xbd, 0xbe, 0xac, 0x41, 0x35, 0x3e, 0x8b, 0x5f, 0xbe, 0x3e,
  0x34, 0xe9, 0xbb, 0xbe, 0x09, 0x72, 0xc0, 0x3e, 0x4e, 0x8d, 0xe4, 0x3d,
  0xec, 0x72, 0x62, 0x3d, 0x90, 0x07, 0xcc, 0xbe, 0x39, 0x66, 0xc8, 0xbd,
  0xb0, 0xfe, 0xe3, 0xbc, 0x63, 0xa4, 0xdc, 0xbe, 0x75, 0x61, 0x7d, 0xbe,
  0x42, 0xf4, 0x95, 0x3e, 0x60, 0x2a, 0x8a, 0xbe, 0x65, 0xd2, 0x3a, 0x3e,
  0xe1, 0x29, 0x45, 0xbe, 0x87, 0x61, 0x18, 0x3e, 0xcc, 0x23, 0xf1, 0xbc,
  0xa7, 0xe2, 0xa0, 0xbd, 0x0b, 0x59, 0x76, 0xbe, 0x7a, 0xe0, 0xaf, 0xbe,
  0x15, 0x29, 0xee, 0x3d, 0x04, 0xc7, 0xfc, 0xbc, 0x15, 0x68, 0xcc, 0x3d,
  0xd9, 0x21, 0xbe, 0x3e, 0xa4, 0xef, 0xba, 0xbd, 0xf1, 0x98, 0xdd, 0xbd,
  0x6b, 0xa2, 0x40, 0xbe, 0x97, 0x5e, 0xbf, 0x3d, 0x25, 0x39, 0xf4, 0x3d,
  0x9d, 0x86, 0x0b, 0x3f, 0x66, 0x05, 0x82, 0xbe, 0x33, 0xea, 0x3e, 0x3e,
  0xff, 0x48, 0x94, 0xbd, 0xd6, 0x7b, 0xc2, 0x3d, 0x6d, 0x30, 0x33, 0xbe,
  0x57, 0x39, 0x8e, 0xbd, 0xcb, 0xf2, 0xc6, 0xbd, 0x6c, 0x56, 0xdc, 0x3e,
  0xab, 0x34, 0x08, 0xbf, 0x59, 0x86, 0x8c, 0xbd, 0xf9, 0x60, 0xf0, 0xbd,
  0xf3, 0x6a, 0x40, 0xbd, 0x3e, 0xee, 0x92, 0x3e, 0x9d, 0x3e, 0x0a, 0x3e,
  0xde, 0x57, 0xc7, 0x3d, 0x84, 0x09, 0x6e, 0xbd, 0xcb, 0xf2, 0xf1, 0x3d,
  0xfd, 0xa0, 0x91, 0xbd, 0x39, 0x5f, 0xfc, 0x3e, 0x78, 0x2e, 0xb8, 0xbe,
  0xda, 0x32, 0xbd, 0xbe, 0xb2, 0x25, 0xe0, 0xbd, 0xc1, 0x7f, 0xa9, 0xbe,
  0x5f, 0x15, 0xec, 0x3e, 0x48, 0x45, 0x89, 0x3e, 0x29, 0x19, 0xae, 0xbd,
  0xd3, 0x86, 0x91, 0x3e, 0x95, 0xcc, 0x48, 0x3c, 0x96, 0x51, 0x37, 0xbe,
  0x35, 0x15, 0x80, 0x3e, 0x9b, 0x07, 0xa4, 0xbd, 0xf3, 0x56, 0x33, 0xbe,
  0xe9, 0xd7, 0x21, 0xbe, 0x8e, 0xda, 0xf4, 0x3b, 0xea, 0x3b, 0x67, 0xbe,
  0x5e, 0x0c, 0x84, 0x3e, 0x21, 0x80, 0x45, 0xbe, 0x0a, 0xb2, 0x8c, 0xbe,
  0x92, 0x38, 0xf4, 0xbd, 0xd6, 0xd2, 0xb1, 0xbe, 0x66, 0x14, 0x3f, 0xbd,
  0x6b, 0x6a, 0xc9, 0xbe, 0xc2, 0xc7, 0xa9, 0xbd, 0xd6, 0xfb, 0x68, 0xbd,
  0xb6, 0x9c, 0xf3, 0xbd, 0x86, 0x7e, 0xbe, 0xbd, 0xd5, 0xf0, 0xa0, 0xbe,
  0x38, 0x41, 0xe1, 0x3e, 0x56, 0xa5, 0x0c, 0x3d, 0x54, 0x8f, 0x75, 0xbd,
  0x2c, 0x0f, 0x2c, 0xbe, 0xb8, 0x6d, 0xa3, 0xbe, 0xee, 0xdf, 0x8b, 0xbd,
  0xbf, 0xce, 0x97, 0xbe, 0x85, 0x45, 0xd3, 0x3d, 0x6b, 0x8f, 0xd5, 0x3e,
  0xe4, 0xc1, 0x33, 0x3e, 0x25, 0x0c, 0xd1, 0x3e, 0x78, 0xf3, 0x4e, 0xbe,
  0xbc, 0x8d, 0x53, 0xbd, 0xac, 0xeb, 0xac, 0xbe, 0xbb, 0x0a, 0x65, 0x3e,
  0xfe, 0x09, 0xbb, 0x3e, 0xcd, 0x7d, 0x60, 0x3e, 0x92, 0x8f, 0x7a, 0xbb,
  0x92, 0x7b, 0x3d, 0xbc, 0xe7, 0x09, 0xbf, 0x3e, 0x6b, 0x3d, 0x73, 0xbc,
  0x74, 0xfa, 0x35, 0x3c, 0x01, 0x89, 0x9f, 0x3a, 0x19, 0x13, 0x20, 0x3e,
  0x88, 0xa1, 0xe2, 0xbe, 0xe4, 0x02, 0xa6, 0xbe, 0xfb, 0x69, 0x45, 0x3d,
  0xbc, 0xdd, 0xb7, 0xbe, 0xab, 0xd5, 0x50, 0xbe, 0x9c, 0x25, 0x91, 0xbe,
  0x20, 0xfa, 0x86, 0xbe, 0xf7, 0xbc, 0x54, 0x3e, 0x7f, 0xac, 0xf0, 0x3e,
  0xda, 0x37, 0x88, 0xbe, 0x9b, 0xc9, 0x3d, 0xbe, 0xd7, 0x22, 0xd7, 0xbe,
  0x36, 0x51, 0x8a, 0x3e, 0x75, 0x9e, 0x0e, 0xbe, 0xa2, 0x28, 0xd6, 0xbe,
  0x9a, 0x6c, 0x80, 0x3e, 0x42, 0x1d, 0xa2, 0xbe, 0xb9, 0x3f, 0x25, 0x3c,
  0xcf, 0x43, 0x8d, 0xbe, 0x54, 0x85, 0xf8, 0x3d, 0x35, 0x16, 0xb6, 0xbe,
  0xbf, 0x32, 0x34, 0x3e, 0xbd, 0x7f, 0x1e, 0xbd, 0xd2, 0x19, 0xbd, 0x3e,
  0xf9, 0x21, 0x83, 0xbe, 0xe1, 0xe2, 0x23, 0x3e, 0x6d, 0x4e, 0x23, 0x3e,
  0x1f, 0x81, 0x61, 0xbe, 0x3f, 0x95, 0x76, 0x3e, 0x43, 0x4b, 0xba, 0xbe,
  0x50, 0x34, 0x43, 0x3e, 0x6b, 0x10, 0x9b, 0x3d, 0xb7, 0x6f, 0x2e, 0xbe,
  0x8d, 0x04, 0xb3, 0x3e, 0x50, 0x98, 0xb5, 0x3e, 0x80, 0x1a, 0x42, 0x3e,
  0x2f, 0xe7, 0x0a, 0x3f, 0x7a, 0x96, 0x7d, 0xbe, 0xc7, 0x28, 0x2a, 0xbd,
  0xaf, 0x6b, 0x2e, 0x3e, 0x3f, 0xe9, 0x21, 0xbf, 0xf8, 0x29, 0x02, 0x3d,
  0x14, 0xd7, 0x85, 0xbe, 0xe1, 0xc6, 0x4e, 0x3e, 0x64, 0xea, 0xb1, 0xbd,
  0x61, 0xd3, 0xf9, 0xbe, 0x3b, 0x0a, 0xe8, 0x3d, 0x09, 0xf4, 0xf2, 0x3c,
  0xc3, 0xce, 0x49, 0xbd, 0x32, 0x0c, 0x97, 0xbe, 0x5a, 0x23, 0x75, 0x3e,
  0x0b, 0x4b, 0x0c, 0xbe, 0x8b, 0xb8, 0x6b, 0x3e, 0x38, 0x0e, 0x9a, 0xbe,
  0xe4, 0xf8, 0xc2, 0xbd, 0x87, 0xe7, 0x2c, 0x3e, 0x63, 0xcf, 0x5a, 0x3e,
  0xdc, 0x4e, 0xc8, 0xbe, 0x8c, 0xfc, 0x67, 0x3e, 0x72, 0x27, 0x25, 0xbe,
  0x8e, 0xe5, 0xc1, 0xbe, 0x32, 0x68, 0x1b, 0xbd, 0x49, 0x7b, 0xa9, 0x3e,
  0xc6, 0x42, 0x82, 0xbe, 0x58, 0x73, 0xba, 0x3e, 0x41, 0xc2, 0xc3, 0xbc,
  0x9c, 0x07, 0x96, 0xbe, 0x97, 0xb7, 0xc0, 0xbe, 0x45, 0x32, 0x81, 0x3e,
  0xb3, 0x00, 0xba, 0x3d, 0xe2, 0xf3, 0xaa, 0x3e, 0xd6, 0x7e, 0xe7, 0xbd,
  0x3b, 0x60, 0x62, 0x3e, 0x28, 0x45, 0xbe, 0xbe, 0x7d, 0x27, 0x25, 0xbd,
  0xd5, 0x76, 0x8a, 0x3e, 0x97, 0x45, 0x70, 0xbc, 0xe4, 0xba, 0xd1, 0x3c,
  0xd5, 0x93, 0xbc, 0x3d, 0x32, 0xee, 0xce, 0xbe, 0x55, 0x17, 0x34, 0x3c,
  0xee, 0xb9, 0x86, 0xbe, 0xb6, 0xc1, 0x6f, 0xbe, 0x42, 0x8d, 0x96, 0x3e,
  0xab, 0xc9, 0xa1, 0x3e, 0x0d, 0xac, 0xf7, 0xbd, 0xae, 0xc1, 0xd6, 0xbd,
  0xf5, 0x2a, 0x55, 0x3e, 0x08, 0xd6, 0x8c, 0x3e, 0x30, 0x96, 0x20, 0xbe,
  0xe3, 0xdd, 0xb4, 0xbe, 0x86, 0x2e, 0x93, 0x3c, 0xff, 0x4d, 0x5a, 0xbe,
  0xa8, 0x6a, 0x94, 0xbe, 0xb3, 0xa8, 0x6a, 0x3e, 0xd8, 0x1e, 0xec, 0x3b,
  0x0b, 0x18, 0x5e, 0xbe, 0x27, 0x4e, 0x8b, 0xbc, 0xf1, 0x84, 0x07, 0x3f,
  0xa6, 0xc4, 0xd6, 0xbe, 0xae, 0x5f, 0x8f, 0xbd, 0xaa, 0xee, 0x6d, 0x3e,
  0x35, 0xb2, 0xbc, 0x3e, 0x92, 0x31, 0x22, 0xbe, 0xc3, 0x3d, 0xbb, 0xbd,
  0xb2, 0x7a, 0x41, 0x3b, 0x7c, 0x8a, 0x49, 0x3d, 0x9c, 0xa9, 0x90, 0xbe,
  0xf3, 0x2c, 0x54, 0xbe, 0x82, 0x32, 0x04, 0x3e, 0xa8, 0x21, 0x06, 0x3f,
  0xb0, 0x61, 0x6a, 0x3e, 0x78, 0x84, 0x67, 0xbe, 0xde, 0xbb, 0x52, 0xbd,
  0x76, 0xbe, 0xc9, 0xbe, 0xe6, 0xdd, 0xd0, 0xbe, 0xa3, 0x45, 0x03, 0xbf,
  0xea, 0xab, 0xc3, 0x3e, 0xc4, 0x43, 0xd9, 0xbe, 0xc7, 0x05, 0x6d, 0x3d,
  0x4f, 0x0f, 0xfc, 0xbe, 0xe4, 0x03, 0xbd, 0xbc, 0xfd, 0xba, 0x81, 0xbd,
  0x71, 0xfe, 0x68, 0xbe, 0x15, 0x2a, 0x06, 0x3e, 0x1c, 0x89, 0x84, 0xbe,
  0x19, 0x1b, 0x35, 0x3e, 0x09, 0x8e, 0x99, 0xbe, 0x52, 0x0a, 0xdf, 0xbe,
  0x3a, 0x49, 0xaa, 0xbe, 0x62, 0x00, 0x98, 0x3e, 0xc6, 0xc1, 0x87, 0xbe,
  0x1e, 0xb6, 0xa7, 0xbe, 0xa4, 0xb1, 0xa5, 0xbe, 0x53, 0x64, 0x62, 0xbd,
  0xb6, 0x4b, 0x9b, 0x3d, 0x12, 0xc4, 0xa3, 0x3d, 0x7f, 0x70, 0x01, 0x3e,
  0xc4, 0x3d, 0x57, 0xbe, 0x6d, 0x1b, 0xc0, 0x3d, 0xf3, 0x47, 0x98, 0xbe,
  0xc9, 0x2a, 0x48, 0x3d, 0xc1, 0xdb, 0xb5, 0xbe, 0xa9, 0x4b, 0x83, 0x3e,
  0xad, 0x62, 0xbc, 0xbe, 0xfc, 0x99, 0xe8, 0x3e, 0xb0, 0x97, 0x88, 0xbe,
  0xbd, 0x0c, 0x93, 0xbe, 0xbd, 0x83, 0x09, 0xbe, 0xac, 0x17, 0x5b, 0xbe,
  0xf2, 0xd2, 0x82, 0x3e, 0xa8, 0xb9, 0x6c, 0x3d, 0x54, 0x58, 0x54, 0xbe,
  0x80, 0x0d, 0xa0, 0xbd, 0xe1, 0xdc, 0xb2, 0xbe, 0x67, 0x3b, 0xd6, 0x3d,
  0x61, 0x58, 0x45, 0x3e, 0xf6, 0x9b, 0xab, 0x3d, 0xbc, 0xb9, 0x7e, 0x3e,
  0x92, 0x0e, 0x7f, 0x3e, 0xee, 0xf4, 0xff, 0xff, 0x04, 0x00, 0x00, 0x00,
  0xc0, 0x00, 0x00, 0x00, 0x0e, 0x81, 0xd0, 0x3e, 0x1a, 0xe5, 0x0a, 0x3f,
  0xf0, 0x69, 0x72, 0xbe, 0xbd, 0x89, 0x81, 0xbe, 0x4d, 0x9a, 0xa2, 0x3e,
  0x0d, 0x83, 0xeb, 0xbe, 0x20, 0xaa, 0xa3, 0x3d, 0x41, 0x83, 0xf4, 0xbe,
  0xbf, 0x7b, 0x8f, 0x3e, 0xe7, 0xa5, 0x59, 0x3f, 0xca, 0xf1, 0xf4, 0x3e,
  0x1d, 0x8d, 0x9b, 0xbe, 0x68, 0x65, 0x07, 0xbf, 0x40, 0xe8, 0x75, 0xbe,
  0xbe, 0xb7, 0xd3, 0xbe, 0x06, 0xcd, 0x7f, 0xbe, 0xe1, 0x10, 0xf9, 0x3e,
  0xfe, 0x4e, 0x2a, 0xbf, 0x98, 0x28, 0x5e, 0x3f, 0xb8, 0x6c, 0x01, 0xbf,
  0x6e, 0x4c, 0x2b, 0xbf, 0x30, 0x42, 0x68, 0xbe, 0xaf, 0x2a, 0xe0, 0xbe,
  0x09, 0xd0, 0x5a, 0x3e, 0x56, 0x25, 0x25, 0xbf, 0xc4, 0x97, 0xad, 0xbe,
  0x3b, 0x32, 0x04, 0xbe, 0xee, 0xa6, 0x5d, 0x3f, 0x46, 0xe8, 0x05, 0xbf,
  0x3a, 0x80, 0xae, 0xbd, 0x2b, 0xef, 0xc1, 0x3e, 0x44, 0x6c, 0x86, 0x3e,
  0x45, 0x5d, 0x8f, 0xbe, 0xcf, 0x2b, 0xf6, 0xbe, 0xe4, 0xb5, 0x28, 0xbe,
  0x4f, 0xc2, 0x33, 0x3f, 0x30, 0x24, 0x30, 0x3f, 0x3d, 0x1f, 0x0f, 0x3f,
  0x69, 0xe6, 0x50, 0x3f, 0x7b, 0xeb, 0x1a, 0xbf, 0xb5, 0x40, 0xdc, 0xbe,
  0x21, 0x8e, 0x97, 0x3d, 0xcf, 0x74, 0xe7, 0xbe, 0x53, 0xad, 0x26, 0xbf,
  0x3c, 0xdf, 0x25, 0x3f, 0x54, 0x23, 0x23, 0xbf, 0x03, 0x68, 0x75, 0x3e,
  0xc2, 0xdf, 0x36, 0xbf, 0xba, 0xf5, 0xff, 0xff, 0x04, 0x00, 0x00, 0x00,
  0x00, 0x09, 0x00, 0x00, 0x6b, 0x80, 0xa1, 0xbd, 0xfc, 0x81, 0x6a, 0xbb,
  0x71, 0x6f, 0x77, 0x3d, 0x73, 0xa0, 0xc0, 0x3e, 0x9a, 0x45, 0x6a, 0x3e,
  0xb3, 0x63, 0x97, 0x3c, 0x2c, 0xed, 0x3d, 0xbe, 0x12, 0xce, 0x5a, 0xbd,
  0x2b, 0x74, 0xf3, 0x3d, 0xd2, 0x56, 0xc3, 0x3d, 0x65, 0x58, 0x73, 0x3d,
  0x36, 0x92, 0xb8, 0x3c, 0x9c, 0x2d, 0xd7, 0xbd, 0xfd, 0xb5, 0x63, 0x3d,
  0x95, 0xcc, 0xe3, 0x3c, 0xc4, 0x30, 0x9d, 0x3e, 0xc4, 0xcc, 0xc9, 0xbd,
  0x57, 0xf1, 0x55, 0xbe, 0x0d, 0xde, 0x08, 0x3d, 0x11, 0x4e, 0x4c, 0x3e,
  0x09, 0xa3, 0x26, 0xbd, 0x29, 0xdf, 0x05, 0x3d, 0x33, 0x79, 0x84, 0x3e,
  0x8b, 0x0f, 0xb9, 0x3d, 0xd1, 0x95, 0x85, 0x3c, 0xb6, 0xd0, 0x00, 0xbe,
  0x7e, 0x90, 0xd8, 0x3c, 0xf5, 0xd7, 0xf1, 0xbc, 0x91, 0x47, 0xc9, 0x3e,
  0x15, 0xf5, 0x83, 0xbd, 0x19, 0xac, 0x0b, 0x3e, 0x42, 0xf8, 0x21, 0xbe,
  0x5d, 0xb5, 0x80, 0xbe, 0x82, 0x0c, 0x1f, 0xbe, 0xc3, 0xaf, 0x8d, 0x3e,
  0x4d, 0x1f, 0xc6, 0x3d, 0xf6, 0xf5, 0x3e, 0x3c, 0x44, 0x20, 0x09, 0x3e,
  0xd6, 0x82, 0xe2, 0xbd, 0xe1, 0x79, 0xf8, 0x3d, 0x88, 0xd3, 0x52, 0x3e,
  0xb2, 0x76, 0x38, 0xbe, 0x4f, 0xe3, 0x31, 0xbc, 0x0f, 0x52, 0x74, 0x3d,
  0x29, 0x83, 0x46, 0xbe, 0x11, 0xd1, 0xef, 0x3d, 0x1f, 0x30, 0xd1, 0x3e,
  0x91, 0x4d, 0xb3, 0x3e, 0x14, 0x3e, 0x2e, 0x3e, 0xec, 0x90, 0xd1, 0x3c,
  0x8d, 0x80, 0x14, 0xbc, 0x4a, 0x7b, 0x2b, 0x3e, 0xcb, 0xb2, 0x1e, 0x3e,
  0xb7, 0x6f, 0x4e, 0x3e, 0x3c, 0xb8, 0x03, 0x3d, 0xe0, 0x6e, 0x07, 0xbe,
  0xf9, 0xa5, 0x90, 0xbe, 0xe8, 0x57, 0x42, 0x3e, 0x39, 0xa5, 0x51, 0x3e,
  0xa1, 0xe1, 0x84, 0x3d, 0x1f, 0xb1, 0x23, 0x3d, 0x2c, 0x47, 0x54, 0xbe,
  0x38, 0x7f, 0x02, 0x3e, 0x69, 0x75, 0x8c, 0x3e, 0xeb, 0xbc, 0x16, 0x3e,
  0xcc, 0x8d, 0x1c, 0xbe, 0x5c, 0x8a, 0x57, 0xbe, 0x24, 0xdc, 0x32, 0xbe,
  0xb3, 0x9c, 0x1d, 0x3e, 0x58, 0x8e, 0x1f, 0x3e, 0xae, 0x44, 0x8b, 0x3e,
  0x3e, 0xad, 0xec, 0xb9, 0x84, 0xaa, 0xb7, 0x3d, 0xeb, 0x08, 0x56, 0xbe,
  0x99, 0x22, 0x51, 0xbe, 0x8f, 0xc7, 0xe2, 0x3d, 0xbd, 0x53, 0xd4, 0xbe,
  0x79, 0x2e, 0xc4, 0xbd, 0xad, 0x92, 0x34, 0x3b, 0xc9, 0x04, 0xa7, 0x3d,
  0x46, 0x20, 0xae, 0xbd, 0x4d, 0xb7, 0xbb, 0x3e, 0x37, 0xaa, 0x56, 0xbe,
  0x4d, 0x09, 0x01, 0x3d, 0xf1, 0xe0, 0x35, 0x3d, 0x66, 0x99, 0x5d, 0x3e,
  0xb3, 0xb1, 0xc3, 0x3d, 0x5b, 0xb7, 0x3e, 0x3e, 0xec, 0x9d, 0xb7, 0xbd,
  0x8f, 0x42, 0x6e, 0xbe, 0x0c, 0x04, 0xdd, 0x3b, 0xd6, 0xc2, 0x96, 0xbe,
  0xad, 0x72, 0xad, 0xbd, 0x8a, 0x0b, 0x2e, 0x3d, 0x74, 0xaa, 0x31, 0x3e,
  0x2e, 0xd1, 0x83, 0xbc, 0x50, 0x38, 0xed, 0x3c, 0xd2, 0x64, 0x85, 0x3c,
  0xba, 0xaa, 0xbd, 0xbd, 0x83, 0xcb, 0x08, 0xbe, 0x4b, 0x27, 0xc1, 0x3d,
  0xce, 0x0b, 0x0e, 0xbd, 0xd9, 0xb2, 0x7f, 0xbe, 0x2c, 0x71, 0xd4, 0xbd,
  0xc1, 0x63, 0x09, 0x3d, 0xab, 0x05, 0x22, 0xbd, 0x18, 0x51, 0x1d, 0x3e,
  0x3f, 0x56, 0x7a, 0x3e, 0xdb, 0x62, 0x2f, 0xbe, 0x1f, 0xcc, 0xc7, 0x3d,
  0xd9, 0x1e, 0x91, 0xbc, 0x3c, 0xce, 0x4a, 0xbd, 0xbe, 0xdc, 0x46, 0x3e,
  0x89, 0x16, 0xa0, 0xbe, 0xf9, 0x3d, 0x27, 0x3d, 0xbb, 0xde, 0x3e, 0x3e,
  0x00, 0xa6, 0xf3, 0xbc, 0x9a, 0x11, 0x88, 0xbe, 0x1e, 0x2b, 0x2b, 0x3e,
  0xda, 0xe7, 0xb5, 0x3d, 0x1b, 0x2e, 0x9c, 0x3e, 0x93, 0x51, 0x2a, 0x3d,
  0x30, 0x70, 0xca, 0xbc, 0xdd, 0x09, 0x1f, 0xbe, 0x6a, 0xe5, 0x6e, 0x3e,
  0xbc, 0x13, 0x9a, 0xbc, 0x2d, 0x41, 0x43, 0xbe, 0x25, 0xb3, 0x5f, 0x3d,
  0x7c, 0x6a, 0xa3, 0x3d, 0xd6, 0x00, 0x0e, 0x3d, 0x48, 0x8c, 0x62, 0xbe,
  0x4a, 0x9a, 0xb3, 0x3d, 0xb7, 0x5f, 0x10, 0xbe, 0x6d, 0x02, 0xf5, 0x3d,
  0x09, 0x65, 0x1e, 0xbe, 0xa4, 0xfe, 0x45, 0x3e, 0xf9, 0xc3, 0x93, 0x3d,
  0xe3, 0x6c, 0x3d, 0x3e, 0xd7, 0x7b, 0x08, 0x3d, 0x29, 0x25, 0x40, 0x3d,
  0x72, 0xed, 0x53, 0xbe, 0x7b, 0x2e, 0x44, 0x3d, 0xd3, 0xc1, 0x56, 0x3e,
  0x29, 0x9f, 0xe4, 0x3d, 0x24, 0x75, 0x20, 0xbe, 0x1b, 0x74, 0x13, 0x3d,
  0x67, 0xf6, 0xe6, 0x3d, 0x28, 0x4f, 0x4a, 0xbe, 0xfd, 0x93, 0x53, 0x3e,
  0xc9, 0xdd, 0x8c, 0x3e, 0x65, 0x36, 0x2d, 0xbe, 0x58, 0x39, 0x96, 0x3c,
  0x47, 0x22, 0x42, 0x3e, 0x1c, 0x9e, 0x5d, 0xbc, 0x5b, 0x35, 0x0a, 0x3d,
  0x9f, 0x3c, 0x38, 0x3e, 0xc2, 0x96, 0xab, 0x3d, 0x91, 0x72, 0xbf, 0xbc,
  0x79, 0xfa, 0x8d, 0xbd, 0x5d, 0xdb, 0x8c, 0xbe, 0x4f, 0xcc, 0xe8, 0x3e,
  0x58, 0x14, 0x88, 0x3e, 0xfa, 0x68, 0x1d, 0x3e, 0x56, 0x59, 0x16, 0xbe,
  0x75, 0x2e, 0x15, 0xbe, 0xab, 0xf3, 0x9b, 0x3e, 0xad, 0xcf, 0xea, 0x3b,
  0x28, 0x59, 0x90, 0x3c, 0x3b, 0x1e, 0x10, 0xbe, 0x7d, 0x28, 0x10, 0xbe,
  0x0d, 0x81, 0x19, 0xbd, 0x7b, 0x2e, 0x24, 0x3e, 0x17, 0x74, 0x73, 0x3e,
  0x0e, 0xc6, 0x36, 0x3d, 0x3d, 0x48, 0x4d, 0x3d, 0x11, 0x4f, 0xb9, 0xbd,
  0x92, 0x8e, 0x44, 0xbd, 0x3a, 0x95, 0x53, 0x3d, 0xc8, 0xc6, 0x53, 0x3d,
  0x68, 0xb0, 0x0c, 0x3d, 0x08, 0xc8, 0xa2, 0xbd, 0x95, 0xe5, 0x22, 0xbe,
  0xa9, 0x4a, 0xf8, 0xbd, 0xf1, 0xb1, 0x9f, 0x3e, 0xa9, 0x4a, 0x71, 0xbe,
  0x5e, 0xb4, 0x85, 0x3c, 0x6e, 0xe9, 0x71, 0xbd, 0xfa, 0xac, 0x66, 0xbe,
  0x29, 0xb1, 0x1d, 0x3e, 0x68, 0x24, 0x19, 0xbe, 0x38, 0x4d, 0x66, 0xbe,
  0xfb, 0x13, 0x91, 0xbe, 0x73, 0x1f, 0x93, 0x3d, 0x39, 0xd4, 0x45, 0xbe,
  0xcd, 0x10, 0xe2, 0xbd, 0xe7, 0x7d, 0xfd, 0x3d, 0x1c, 0x25, 0xa7, 0xbe,
  0x61, 0x9b, 0xc9, 0xbe, 0x69, 0xd6, 0x67, 0xbe, 0x0a, 0x2b, 0xa1, 0x3d,
  0x5e, 0x0f, 0xe9, 0xbd, 0x84, 0xbb, 0x00, 0x3e, 0x8f, 0xfc, 0x37, 0x3e,
  0x30, 0x45, 0x31, 0x3d, 0x19, 0xa9, 0x01, 0xbe, 0x86, 0x60, 0x07, 0x3e,
  0x65, 0x1d, 0xfa, 0x3d, 0x26, 0x02, 0x5c, 0xbe, 0x05, 0xd5, 0xb6, 0xbc,
  0xde, 0x31, 0xca, 0xbc, 0xac, 0xa2, 0x39, 0xbe, 0x6e, 0xb3, 0x4a, 0xbe,
  0x29, 0x67, 0x1b, 0x3d, 0x4a, 0xd1, 0xb7, 0xbc, 0x6d, 0x7f, 0x66, 0x3d,
  0x6c, 0xfa, 0xe5, 0xbd, 0x53, 0x78, 0x40, 0x3e, 0x22, 0x19, 0xfc, 0xbd,
  0x96, 0x16, 0x92, 0xbe, 0xe0, 0x54, 0xab, 0xbd, 0x17, 0x64, 0x0f, 0x3d,
  0x36, 0xef, 0x58, 0xbc, 0x69, 0xd4, 0x66, 0x3e, 0x90, 0x00, 0xa4, 0x3d,
  0xa2, 0x83, 0x99, 0xbc, 0xe0, 0x4c, 0xc3, 0x3d, 0x47, 0xb6, 0xb4, 0xbd,
  0x4e, 0xcb, 0x24, 0xbe, 0xb3, 0x57, 0x13, 0xbe, 0x27, 0x5a, 0x71, 0xbe,
  0x90, 0xf3, 0xf9, 0x3d, 0x9e, 0x25, 0x0a, 0x3e, 0x5b, 0xf3, 0x08, 0xbd,
  0x73, 0xcb, 0x79, 0xbe, 0x57, 0x4a, 0x7d, 0xbd, 0x46, 0x73, 0x0c, 0x3e,
  0x09, 0xc5, 0xf7, 0xbd, 0x30, 0xd3, 0x29, 0xbe, 0x96, 0x46, 0x1d, 0xbe,
  0x37, 0x59, 0x67, 0x3e, 0x44, 0x4c, 0x71, 0x3e, 0x11, 0x61, 0x65, 0xbe,
  0xff, 0xe8, 0x25, 0xbe, 0x1a, 0xff, 0x8d, 0x3e, 0x32, 0x64, 0xe5, 0x3d,
  0x8b, 0xd7, 0x62, 0xbe, 0xf4, 0x43, 0xca, 0xbd, 0x04, 0x13, 0xce, 0xbd,
  0xae, 0x46, 0x29, 0x3e, 0x30, 0x28, 0xc6, 0x3d, 0xa1, 0x98, 0x03, 0x3e,
  0x1c, 0x0a, 0x39, 0xbe, 0x16, 0x8d, 0x2e, 0x3e, 0xb5, 0x1f, 0x8e, 0xbe,
  0x45, 0x01, 0xa0, 0xbc, 0xba, 0xc8, 0xc1, 0x3c, 0xdf, 0xae, 0xa1, 0xbe,
  0xef, 0x95, 0x72, 0xbd, 0x36, 0x1b, 0x5d, 0xbe, 0x43, 0xd5, 0xb5, 0x3d,
  0x14, 0xb6, 0x52, 0xbe, 0xf8, 0x65, 0xcb, 0x3e, 0xdb, 0x7d, 0x37, 0xbe,
  0xe0, 0x06, 0x2f, 0xbe, 0x3d, 0x7c, 0x28, 0x3e, 0xb7, 0x75, 0x7b, 0x3e,
  0x70, 0x02, 0x96, 0xbc, 0xef, 0x37, 0x70, 0x3e, 0x24, 0x1d, 0x0e, 0xbe,
  0xb7, 0xaa, 0xa2, 0xbe, 0x09, 0xab, 0x47, 0x3e, 0x5a, 0x42, 0xbb, 0x3d,
  0x68, 0xfd, 0xb1, 0x3d, 0x87, 0xb8, 0x8d, 0xbe, 0x99, 0xfe, 0xca, 0xbd,
  0xe5, 0x68, 0x16, 0xbe, 0xee, 0xf6, 0xd4, 0xbd, 0x5a, 0xbc, 0xe8, 0xbd,
  0x58, 0x8b, 0x4b, 0xbe, 0x85, 0x52, 0x1a, 0x3d, 0x7f, 0x08, 0x6f, 0xbe,
  0x0b, 0x35, 0xfd, 0x3d, 0x72, 0xb3, 0x06, 0x3e, 0xf4, 0x07, 0x5d, 0x3d,
  0x76, 0xe1, 0x21, 0xbe, 0x84, 0x6b, 0x5f, 0xbe, 0xfa, 0x9e, 0xf1, 0x3d,
  0x06, 0xe0, 0x3b, 0x3e, 0xfc, 0x49, 0x1d, 0xbe, 0xbf, 0x6c, 0xac, 0x3d,
  0x89, 0xeb, 0x59, 0xbd, 0x23, 0xcd, 0x22, 0x3e, 0xdd, 0x09, 0xd4, 0x3e,
  0x49, 0xf1, 0x10, 0x3e, 0x2f, 0x6a, 0x12, 0x3e, 0xae, 0x5f, 0x4f, 0x3d,
  0x7f, 0xf3, 0xd5, 0x3d, 0xaf, 0x25, 0xcc, 0x3c, 0xb3, 0xde, 0x87, 0xbd,
  0xc3, 0xa5, 0x15, 0x3d, 0xb9, 0x24, 0xfd, 0xbb, 0x7e, 0xe6, 0x04, 0x3c,
  0xde, 0x31, 0xf3, 0x3d, 0xdf, 0xf9, 0x49, 0xbe, 0x2e, 0xc1, 0xa2, 0xbe,
  0x32, 0x58, 0x6b, 0xbe, 0xfc, 0xfd, 0xe0, 0x3d, 0x59, 0xf5, 0x13, 0xbd,
  0x3c, 0x89, 0x8a, 0x3e, 0xe3, 0x7f, 0x7e, 0xbe, 0xc5, 0x93, 0xb9, 0x3d,
  0x14, 0xad, 0x76, 0x3e, 0x74, 0x53, 0x48, 0x3e, 0x00, 0x0e, 0xa4, 0xbd,
  0x75, 0x94, 0x19, 0xbe, 0x33, 0x78, 0xac, 0x3d, 0xc0, 0x0b, 0xb4, 0x3c,
  0x7d, 0x94, 0x22, 0x3e, 0xea, 0xa2, 0xc6, 0x3b, 0x4a, 0x1a, 0x43, 0xbe,
  0x8a, 0xfa, 0x8b, 0x3c, 0xc9, 0x24, 0xda, 0xbc, 0xea, 0x84, 0x78, 0x3e,
  0x65, 0x7f, 0x62, 0x3e, 0x7b, 0x83, 0x86, 0xbc, 0xd7, 0x49, 0xd7, 0xbd,
  0x77, 0x66, 0x65, 0x3d, 0xf7, 0x09, 0xd0, 0x3e, 0xfc, 0xba, 0x91, 0xbe,
  0xb5, 0x7a, 0x67, 0xbd, 0x3b, 0x3b, 0x23, 0x3d, 0x4e, 0x9d, 0x62, 0x3e,
  0x5d, 0x5b, 0x82, 0x3d, 0x56, 0xf4, 0xab, 0x3e, 0x4c, 0x22, 0x42, 0xbe,
  0x87, 0x51, 0x30, 0xbe, 0xa9, 0x77, 0x1c, 0x3e, 0x2f, 0x10, 0x77, 0x3e,
  0x1f, 0xa3, 0xe8, 0x3d, 0x81, 0x4d, 0x9f, 0x3e, 0x17, 0xa0, 0x16, 0xbe,
  0xf8, 0x29, 0x63, 0xbe, 0xc8, 0xd7, 0x29, 0x3d, 0x9f, 0x36, 0x5c, 0xbd,
  0x15, 0x09, 0x34, 0x3d, 0xf4, 0xea, 0x3d, 0x3e, 0x24, 0x10, 0xd4, 0x3b,
  0x02, 0x13, 0x5a, 0x3e, 0x71, 0xac, 0x0c, 0xbe, 0x2b, 0x0f, 0xdb, 0x3d,
  0xde, 0x5b, 0x11, 0x3e, 0x7f, 0x3a, 0x5f, 0x3e, 0x35, 0x40, 0x16, 0x3d,
  0x6f, 0xf2, 0x59, 0x3e, 0xa7, 0x49, 0x8f, 0xbd, 0x41, 0x1e, 0x4f, 0xbe,
  0x26, 0x05, 0x78, 0xbd, 0x42, 0x22, 0x56, 0xbd, 0x1f, 0xb0, 0x67, 0x3e,
  0x2d, 0xe4, 0x18, 0x3e, 0x86, 0xa8, 0x85, 0xbe, 0x0a, 0x6f, 0x90, 0xba,
  0x70, 0xe5, 0x2f, 0x3e, 0x95, 0xc0, 0x05, 0xbc, 0x34, 0xd8, 0x7d, 0xbc,
  0x7b, 0x01, 0xea, 0x3d, 0x35, 0x6a, 0x93, 0x3d, 0x66, 0x74, 0x20, 0xbe,
  0xc2, 0xf8, 0x59, 0x3e, 0x66, 0xbe, 0x41, 0x3e, 0x17, 0x90, 0xa6, 0x3d,
  0xcd, 0x3a, 0x14, 0xbd, 0x93, 0xcb, 0x18, 0xbe, 0x34, 0x0e, 0x04, 0xbd,
  0xb5, 0xd6, 0x51, 0x3e, 0x22, 0x62, 0x48, 0x3e, 0x8b, 0xcd, 0xb3, 0x3d,
  0xb8, 0x5c, 0xac, 0xbd, 0xab, 0xdf, 0xa4, 0x3d, 0xf3, 0x14, 0xb3, 0xbd,
  0x88, 0x20, 0x8e, 0xbc, 0x8d, 0xd1, 0xc4, 0x3d, 0xe1, 0x7a, 0xa4, 0x3d,
  0x43, 0x19, 0x60, 0xbe, 0x54, 0xd4, 0x29, 0x3d, 0xf7, 0x20, 0x49, 0xbe,
  0x3a, 0x72, 0x53, 0xbe, 0x41, 0x79, 0xd5, 0x3d, 0x11, 0xb8, 0x26, 0xbe,
  0x94, 0x1f, 0xec, 0xbe, 0xf9, 0x52, 0x04, 0x3e, 0xd2, 0x4b, 0x0d, 0x3d,
  0xe5, 0xc2, 0xc4, 0x3d, 0xd5, 0xb2, 0x9d, 0xbc, 0xb5, 0xf9, 0xb8, 0x3d,
  0x2e, 0x24, 0x3b, 0xbe, 0xe3, 0x4f, 0x05, 0xbd, 0x67, 0xca, 0x1e, 0xbe,
  0x4b, 0x8f, 0xcf, 0x3d, 0x9e, 0x0b, 0x58, 0xbe, 0x5c, 0xf6, 0x9d, 0x3d,
  0x6e, 0xc2, 0x2b, 0x3e, 0x4d, 0xdb, 0x2e, 0x3d, 0xd5, 0x0e, 0xed, 0xbb,
  0xef, 0x59, 0xc9, 0x3d, 0xaf, 0x99, 0x97, 0xbe, 0xa6, 0x86, 0xfe, 0x3d,
  0x59, 0x7c, 0x80, 0x3c, 0xfc, 0x65, 0x4a, 0xbe, 0x69, 0x63, 0xfa, 0x3d,
  0xcf, 0x29, 0xf2, 0xbd, 0x61, 0xd5, 0x0a, 0xbe, 0x3d, 0xa0, 0xd6, 0xbc,
  0x7d, 0x75, 0x84, 0x3d, 0x3f, 0xa0, 0x2c, 0x3e, 0x87, 0xd5, 0x00, 0xbe,
  0xee, 0x66, 0x64, 0x3c, 0x1d, 0x27, 0x29, 0xbd, 0x84, 0x5d, 0xb1, 0xbe,
  0x1d, 0x49, 0x80, 0xbc, 0x92, 0xc8, 0x01, 0xbe, 0xcd, 0x1b, 0x59, 0x3e,
  0x04, 0x5a, 0x9e, 0xbc, 0x25, 0xbe, 0x3a, 0x3d, 0xf0, 0x6b, 0xd1, 0xbe,
  0x25, 0x35, 0x77, 0x3c, 0xc1, 0xbd, 0x87, 0xbe, 0xf8, 0xf9, 0x49, 0x3d,
  0x32, 0xf1, 0x19, 0x3e, 0xe7, 0x5e, 0x52, 0x3e, 0x46, 0x48, 0x0b, 0xbe,
  0xa9, 0x37, 0x12, 0x3e, 0xf5, 0x11, 0xe6, 0xbd, 0x19, 0xeb, 0x0a, 0x3e,
  0xfd, 0xcc, 0x4b, 0x3e, 0xef, 0x82, 0xcb, 0xbd, 0x36, 0x4e, 0xc2, 0x3e,
  0x30, 0x6b, 0xa4, 0x3d, 0x23, 0xe0, 0xe3, 0x3d, 0xba, 0xc9, 0x0c, 0xbe,
  0x38, 0x43, 0xae, 0xbc, 0x5f, 0x7a, 0xe8, 0x3c, 0x9d, 0x81, 0x03, 0xbd,
  0xaa, 0x30, 0xec, 0xbd, 0xe2, 0x75, 0xd2, 0x3c, 0x32, 0x02, 0x10, 0x3d,
  0x2a, 0x42, 0x68, 0x3d, 0x2a, 0xe0, 0xbf, 0x3d, 0x7f, 0x7f, 0xd6, 0xbc,
  0x3c, 0x11, 0x9f, 0xbe, 0x41, 0x87, 0x62, 0x3d, 0xed, 0xe7, 0x66, 0xbe,
  0x0e, 0xf9, 0x24, 0x3e, 0xa6, 0xc4, 0x3b, 0x3e, 0xc6, 0x5a, 0x1e, 0x3e,
  0x27, 0xb7, 0xd2, 0x3d, 0xa1, 0xf1, 0x79, 0xbb, 0x60, 0x09, 0x22, 0xbd,
  0x8e, 0x63, 0x94, 0xbd, 0x26, 0x68, 0x0d, 0x3e, 0xa4, 0xf0, 0x76, 0x3e,
  0xb6, 0x29, 0x24, 0x3d, 0xf9, 0x4d, 0x00, 0xbd, 0x81, 0x34, 0xb3, 0x3b,
  0xd0, 0x02, 0x8a, 0xbe, 0x6a, 0x74, 0x5b, 0xbd, 0x65, 0x07, 0x8f, 0x3d,
  0x43, 0xef, 0x0e, 0xbd, 0xd8, 0x58, 0x6b, 0xbe, 0xef, 0xae, 0x5a, 0xbe,
  0xfc, 0x70, 0xa5, 0x3d, 0x22, 0xfb, 0xa2, 0x3c, 0xee, 0xbb, 0x0e, 0x3c,
  0xce, 0x5f, 0x61, 0x3d, 0x4b, 0x6f, 0x3b, 0x3d, 0x1e, 0x5c, 0x31, 0xbe,
  0x3b, 0x8b, 0x8f, 0xbd, 0x46, 0xad, 0xcb, 0xbb, 0x90, 0xd3, 0x45, 0x3e,
  0xf9, 0x23, 0x0d, 0x3e, 0x8c, 0xb0, 0x08, 0xbe, 0xab, 0x38, 0xc9, 0xbc,
  0x9f, 0x70, 0x36, 0xbd, 0x4f, 0x20, 0x95, 0xbc, 0xc3, 0x8f, 0xb1, 0x3d,
  0x25, 0x46, 0x02, 0x3e, 0x4c, 0x42, 0x8b, 0x3c, 0xab, 0x3a, 0xbc, 0x3c,
  0xa4, 0x99, 0xf8, 0x3d, 0x21, 0x46, 0x33, 0xbc, 0x7f, 0x68, 0x80, 0x3e,
  0xf8, 0xc5, 0xd1, 0xba, 0xac, 0x54, 0x43, 0x3e, 0xb4, 0xd7, 0x6e, 0xbe,
  0x5e, 0xdf, 0x6c, 0x3d, 0xdd, 0x5c, 0xa8, 0x3d, 0xd0, 0x72, 0x37, 0x3e,
  0xf9, 0x50, 0x82, 0x3e, 0xe0, 0x3e, 0x5c, 0x3d, 0x54, 0x93, 0x3d, 0x3d,
  0xa4, 0x62, 0x1b, 0xbe, 0x0f, 0xd8, 0x03, 0x3e, 0x66, 0x5f, 0x74, 0x3e,
  0x0a, 0xcd, 0x03, 0xbe, 0x8e, 0xb0, 0x02, 0x3e, 0x50, 0xf2, 0x9d, 0xbd,
  0xca, 0xcd, 0x62, 0x3d, 0x67, 0x90, 0xff, 0xbe, 0x46, 0x11, 0x6e, 0xbd,
  0x93, 0xce, 0xc9, 0x3d, 0xd5, 0x14, 0x4a, 0xbe, 0x4a, 0x1d, 0x27, 0xbe,
  0x51, 0x05, 0x0c, 0x3e, 0xe2, 0x2a, 0x12, 0xbe, 0xcd, 0x11, 0x4d, 0x3e,
  0x5a, 0xa5, 0x23, 0x3e, 0x19, 0x80, 0x78, 0x3d, 0x28, 0x59, 0x62, 0xbd,
  0x9d, 0xa9, 0xeb, 0x3d, 0xe6, 0x94, 0x60, 0xbd, 0x06, 0xaa, 0x85, 0x3e,
  0x4c, 0xb4, 0x2d, 0xbe, 0xac, 0x50, 0xf8, 0x3d, 0x14, 0x69, 0x12, 0xbe,
  0x73, 0x16, 0x73, 0x3d, 0xb2, 0x99, 0xb6, 0xbd, 0xc0, 0x16, 0xb8, 0x3e,
  0x6d, 0x7b, 0x54, 0x3d, 0x1b, 0x0f, 0x10, 0x3c, 0x61, 0xa7, 0xef, 0x3c,
  0x66, 0x9a, 0xcb, 0xbd, 0xa3, 0xd9, 0x99, 0x3d, 0x53, 0x7c, 0x07, 0xbe,
  0xbf, 0x81, 0x92, 0xbe, 0x7f, 0x27, 0x1f, 0x3e, 0xeb, 0xb6, 0x4c, 0xbd,
  0x58, 0x35, 0xc1, 0xbd, 0xc0, 0xb0, 0x2d, 0x3d, 0x08, 0x1a, 0xd0, 0xbe,
  0x25, 0x10, 0x65, 0xbe, 0xcf, 0xdd, 0x27, 0x3e, 0x6d, 0xa3, 0x83, 0xbc,
  0x78, 0x44, 0xc5, 0xbc, 0x24, 0x34, 0x70, 0xbe, 0xdf, 0xab, 0x81, 0xbe,
  0xb8, 0xa2, 0xa5, 0xbe, 0x18, 0xae, 0xe8, 0x3d, 0xbd, 0x0f, 0x26, 0xbe,
  0x8f, 0xcd, 0x97, 0xbe, 0x19, 0x31, 0x05, 0xbd, 0x7c, 0x0d, 0x2e, 0x3e,
  0x86, 0x76, 0x65, 0xbc, 0x8e, 0x66, 0xc0, 0x3d, 0x89, 0x50, 0x8b, 0xbd,
  0x4c, 0x82, 0xdf, 0x3d, 0x53, 0xfe, 0x71, 0x3e, 0x31, 0x82, 0x06, 0x3e,
  0x8f, 0xe3, 0x38, 0xbd, 0x47, 0x96, 0x44, 0xbe, 0x5c, 0x5b, 0x08, 0x3e,
  0x12, 0xaa, 0xf6, 0x3d, 0xfd, 0x57, 0xad, 0xbe, 0x26, 0x5f, 0x55, 0x3e,
  0x97, 0x3a, 0x24, 0x3e, 0x2f, 0x94, 0xb5, 0x3c, 0x8d, 0x02, 0x2d, 0x3e,
  0x7b, 0x0f, 0x94, 0x3d, 0x64, 0xbe, 0x9b, 0xbe, 0x5c, 0x55, 0x97, 0x3e,
  0x38, 0x7b, 0x50, 0x3e, 0x9a, 0xea, 0xde, 0xbd, 0xf9, 0x9e, 0x81, 0xbe,
  0x63, 0x47, 0x58, 0x3d, 0x3d, 0xc9, 0x44, 0x3e, 0x46, 0xcf, 0xa1, 0x3e,
  0x59, 0x0b, 0xa2, 0x3e, 0xc6, 0xfe, 0xff, 0xff, 0x04, 0x00, 0x00, 0x00,
  0x0c, 0x00, 0x00, 0x00, 0xff, 0xff, 0xff, 0xff, 0x0d, 0x00, 0x00, 0x00,
  0x20, 0x00, 0x00, 0x00, 0xde, 0xfe, 0xff, 0xff, 0x04, 0x00, 0x00, 0x00,
  0x80, 0x00, 0x00, 0x00, 0x89, 0xb3, 0xd9, 0xbe, 0x38, 0x39, 0x18, 0x3e,
  0x28, 0xe1, 0x4b, 0x3e, 0xe3, 0x00, 0xc3, 0xbd, 0xb5, 0x87, 0x15, 0x3e,
  0xb8, 0x4a, 0xa5, 0xbb, 0x6e, 0x59, 0x1d, 0x3d, 0x61, 0xaf, 0x55, 0x3e,
  0xaa, 0x16, 0x1d, 0xbe, 0x4b, 0xf3, 0x04, 0x3d, 0x49, 0xf3, 0x04, 0xbe,
  0xdd, 0x34, 0x6a, 0xbd, 0x9d, 0x39, 0x46, 0x3e, 0x91, 0xe9, 0xc9, 0x3b,
  0xdc, 0x40, 0x12, 0x3e, 0x5e, 0x20, 0xce, 0x3e, 0x61, 0xe4, 0x8f, 0xbe,
  0x83, 0xaf, 0x7e, 0xbd, 0xea, 0x80, 0x13, 0xbd, 0xcb, 0x10, 0xeb, 0x3c,
  0xa5, 0x8b, 0xb0, 0xbe, 0x5f, 0xce, 0xb2, 0x3d, 0xcf, 0x59, 0x5c, 0xbe,
  0x63, 0x39, 0xb7, 0xbd, 0x19, 0xdb, 0xa6, 0xbe, 0xbe, 0xf8, 0xf4, 0x3d,
  0xb3, 0x36, 0x19, 0x3e, 0x49, 0x15, 0xdb, 0xbd, 0x01, 0x3d, 0x8c, 0x3e,
  0xe2, 0x26, 0x3f, 0xbc, 0x48, 0xf8, 0xdd, 0x3e, 0xc6, 0xcc, 0x92, 0xbe,
  0x1c, 0xf6, 0xff, 0xff, 0x20, 0xf6, 0xff, 0xff, 0x0f, 0x00, 0x00, 0x00,
  0x4d, 0x4c, 0x49, 0x52, 0x20, 0x43, 0x6f, 0x6e, 0x76, 0x65, 0x72, 0x74,
  0x65, 0x64, 0x2e, 0x00, 0x01, 0x00, 0x00, 0x00, 0x14, 0x00, 0x00, 0x00,
  0x00, 0x00, 0x0e, 0x00, 0x18, 0x00, 0x14, 0x00, 0x10, 0x00, 0x0c, 0x00,
  0x08, 0x00, 0x04, 0x00, 0x0e, 0x00, 0x00, 0x00, 0x14, 0x00, 0x00, 0x00,
  0x1c, 0x00, 0x00, 0x00, 0x00, 0x02, 0x00, 0x00, 0x04, 0x02, 0x00, 0x00,
  0x08, 0x02, 0x00, 0x00, 0x04, 0x00, 0x00, 0x00, 0x6d, 0x61, 0x69, 0x6e,
  0x00, 0x00, 0x00, 0x00, 0x08, 0x00, 0x00, 0x00, 0xb8, 0x01, 0x00, 0x00,
  0x58, 0x01, 0x00, 0x00, 0x24, 0x01, 0x00, 0x00, 0xf0, 0x00, 0x00, 0x00,
  0xbc, 0x00, 0x00, 0x00, 0x78, 0x00, 0x00, 0x00, 0x40, 0x00, 0x00, 0x00,
  0x04, 0x00, 0x00, 0x00, 0xd2, 0xfe, 0xff, 0xff, 0x1c, 0x00, 0x00, 0x00,
  0x00, 0x00, 0x00, 0x09, 0x1c, 0x00, 0x00, 0x00, 0x20, 0x00, 0x00, 0x00,
  0x06, 0x00, 0x00, 0x00, 0x00, 0x00, 0x06, 0x00, 0x08, 0x00, 0x04, 0x00,
  0x06, 0x00, 0x00, 0x00, 0x00, 0x00, 0x80, 0x3f, 0x01, 0x00, 0x00, 0x00,
  0x11, 0x00, 0x00, 0x00, 0x01, 0x00, 0x00, 0x00, 0x10, 0x00, 0x00, 0x00,
  0x0a, 0xff, 0xff, 0xff, 0x14, 0x00, 0x00, 0x00, 0x00, 0x00, 0x00, 0x08,
  0x10, 0x00, 0x00, 0x00, 0x14, 0x00, 0x00, 0x00, 0x05, 0x00, 0x00, 0x00,
  0xe8, 0xf6, 0xff, 0xff, 0x01, 0x00, 0x00, 0x00, 0x10, 0x00, 0x00, 0x00,
  0x03, 0x00, 0x00, 0x00, 0x0f, 0x00, 0x00, 0x00, 0x04, 0x00, 0x00, 0x00,
  0x06, 0x00, 0x00, 0x00, 0x3e, 0xff, 0xff, 0xff, 0x1c, 0x00, 0x00, 0x00,
  0x00, 0x00, 0x00, 0x08, 0x1c, 0x00, 0x00, 0x00, 0x20, 0x00, 0x00, 0x00,
  0x05, 0x00, 0x00, 0x00, 0x00, 0x00, 0x06, 0x00, 0x08, 0x00, 0x07, 0x00,
  0x06, 0x00, 0x00, 0x00, 0x00, 0x00, 0x00, 0x01, 0x01, 0x00, 0x00, 0x00,
  0x0f, 0x00, 0x00, 0x00, 0x03, 0x00, 0x00, 0x00, 0x0e, 0x00, 0x00, 0x00,
  0x05, 0x00, 0x00, 0x00, 0x07, 0x00, 0x00, 0x00, 0x7e, 0xff, 0xff, 0xff,
  0x14, 0x00, 0x00, 0x00, 0x00, 0x00, 0x00, 0x1b, 0x10, 0x00, 0x00, 0x00,
  0x14, 0x00, 0x00, 0x00, 0x04, 0x00, 0x00, 0x00, 0x5c, 0xf7, 0xff, 0xff,
  0x01, 0x00, 0x00, 0x00, 0x0e, 0x00, 0x00, 0x00, 0x02, 0x00, 0x00, 0x00,
  0x0d, 0x00, 0x00, 0x00, 0x08, 0x00, 0x00, 0x00, 0xda, 0xff, 0xff, 0xff,
  0x0c, 0x00, 0x00, 0x00, 0x10, 0x00, 0x00, 0x00, 0x03, 0x00, 0x00, 0x00,
  0x01, 0x00, 0x00, 0x00, 0x0d, 0x00, 0x00, 0x00, 0x02, 0x00, 0x00, 0x00,
  0x0c, 0x00, 0x00, 0x00, 0x02, 0x00, 0x00, 0x00, 0x00, 0x00, 0x0a, 0x00,
  0x10, 0x00, 0x0c, 0x00, 0x08, 0x00, 0x04, 0x00, 0x0a, 0x00, 0x00, 0x00,
  0x0c, 0x00, 0x00, 0x00, 0x10, 0x00, 0x00, 0x00, 0x02, 0x00, 0x00, 0x00,
  0x01, 0x00, 0x00, 0x00, 0x0c, 0x00, 0x00, 0x00, 0x01, 0x00, 0x00, 0x00,
  0x0b, 0x00, 0x00, 0x00, 0x00, 0x00, 0x0e, 0x00, 0x1a, 0x00, 0x14, 0x00,
  0x10, 0x00, 0x0c, 0x00, 0x0b, 0x00, 0x04, 0x00, 0x0e, 0x00, 0x00, 0x00,
  0x20, 0x00, 0x00, 0x00, 0x00, 0x00, 0x00, 0x01, 0x28, 0x00, 0x00, 0x00,
  0x2c, 0x00, 0x00, 0x00, 0x01, 0x00, 0x00, 0x00, 0x00, 0x00, 0x0a, 0x00,
  0x10, 0x00, 0x0f, 0x00, 0x08, 0x00, 0x04, 0x00, 0x0a, 0x00, 0x00, 0x00,
  0x01, 0x00, 0x00, 0x00, 0x01, 0x00, 0x00, 0x00, 0x00, 0x00, 0x00, 0x01,
  0x01, 0x00, 0x00, 0x00, 0x0b, 0x00, 0x00, 0x00, 0x03, 0x00, 0x00, 0x00,
  0x0a, 0x00, 0x00, 0x00, 0x03, 0x00, 0x00, 0x00, 0x01, 0x00, 0x00, 0x00,
  0x00, 0x00, 0x0e, 0x00, 0x14, 0x00, 0x00, 0x00, 0x10, 0x00, 0x0c, 0x00,
  0x0b, 0x00, 0x04, 0x00, 0x0e, 0x00, 0x00, 0x00, 0x10, 0x00, 0x00, 0x00,
  0x00, 0x00, 0x00, 0x34, 0x0c, 0x00, 0x00, 0x00, 0x10, 0x00, 0x00, 0x00,
  0x44, 0xf8, 0xff, 0xff, 0x01, 0x00, 0x00, 0x00, 0x0a, 0x00, 0x00, 0x00,
  0x02, 0x00, 0x00, 0x00, 0x00, 0x00, 0x00, 0x00, 0x09, 0x00, 0x00, 0x00,
  0x01, 0x00, 0x00, 0x00, 0x11, 0x00, 0x00, 0x00, 0x01, 0x00, 0x00, 0x00,
  0x00, 0x00, 0x00, 0x00, 0x12, 0x00, 0x00, 0x00, 0x64, 0x07, 0x00, 0x00,
  0x10, 0x07, 0x00, 0x00, 0xb8, 0x06, 0x00, 0x00, 0x58, 0x06, 0x00, 0x00,
  0x18, 0x06, 0x00, 0x00, 0xd8, 0x05, 0x00, 0x00, 0x9c, 0x05, 0x00, 0x00,
  0x60, 0x05, 0x00, 0x00, 0x24, 0x05, 0x00, 0x00, 0xc0, 0x04, 0x00, 0x00,
  0x3c, 0x04, 0x00, 0x00, 0x74, 0x03, 0x00, 0x00, 0xb4, 0x02, 0x00, 0x00,
  0xf8, 0x01, 0x00, 0x00, 0x84, 0x01, 0x00, 0x00, 0xe4, 0x00, 0x00, 0x00,
  0x60, 0x00, 0x00, 0x00, 0x04, 0x00, 0x00, 0x00, 0xfa, 0xf8, 0xff, 0xff,
  0x00, 0x00, 0x00, 0x01, 0x14, 0x00, 0x00, 0x00, 0x1c, 0x00, 0x00, 0x00,
  0x1c, 0x00, 0x00, 0x00, 0x12, 0x00, 0x00, 0x00, 0x34, 0x00, 0x00, 0x00,
  0x02, 0x00, 0x00, 0x00, 0xff, 0xff, 0xff, 0xff, 0x03, 0x00, 0x00, 0x00,
  0xe0, 0xf8, 0xff, 0xff, 0x1b, 0x00, 0x00, 0x00, 0x53, 0x74, 0x61, 0x74,
  0x65, 0x66, 0x75, 0x6c, 0x50, 0x61, 0x72, 0x74, 0x69, 0x74, 0x69, 0x6f,
  0x6e, 0x65, 0x64, 0x43, 0x61, 0x6c, 0x6c, 0x5f, 0x31, 0x3a, 0x30, 0x00,
  0x02, 0x00, 0x00, 0x00, 0x01, 0x00, 0x00, 0x00, 0x03, 0x00, 0x00, 0x00,
  0x52, 0xf9, 0xff, 0xff, 0x00, 0x00, 0x00, 0x01, 0x14, 0x00, 0x00, 0x00,
  0x1c, 0x00, 0x00, 0x00, 0x1c, 0x00, 0x00, 0x00, 0x11, 0x00, 0x00, 0x00,
  0x5c, 0x00, 0x00, 0x00, 0x02, 0x00, 0x00, 0x00, 0xff, 0xff, 0xff, 0xff,
  0x03, 0x00, 0x00, 0x00, 0x38, 0xf9, 0xff, 0xff, 0x40, 0x00, 0x00, 0x00,
  0x73, 0x65, 0x71, 0x75, 0x65, 0x6e, 0x74, 0x69, 0x61, 0x6c, 0x5f, 0x31,
  0x5f, 0x31, 0x2f, 0x64, 0x65, 0x6e, 0x73, 0x65, 0x5f, 0x33, 0x5f, 0x31,
  0x2f, 0x4d, 0x61, 0x74, 0x4d, 0x75, 0x6c, 0x3b, 0x73, 0x65, 0x71, 0x75,
  0x65, 0x6e, 0x74, 0x69, 0x61, 0x6c, 0x5f, 0x31, 0x5f, 0x31, 0x2f, 0x64,
  0x65, 0x6e, 0x73, 0x65, 0x5f, 0x33, 0x5f, 0x31, 0x2f, 0x42, 0x69, 0x61,
  0x73, 0x41, 0x64, 0x64, 0x00, 0x00, 0x00, 0x00, 0x02, 0x00, 0x00, 0x00,
  0x01, 0x00, 0x00, 0x00, 0x03, 0x00, 0x00, 0x00, 0xd2, 0xf9, 0xff, 0xff,
  0x00, 0x00, 0x00, 0x01, 0x14, 0x00, 0x00, 0x00, 0x1c, 0x00, 0x00, 0x00,
  0x1c, 0x00, 0x00, 0x00, 0x10, 0x00, 0x00, 0x00, 0x78, 0x00, 0x00, 0x00,
  0x02, 0x00, 0x00, 0x00, 0xff, 0xff, 0xff, 0xff, 0x10, 0x00, 0x00, 0x00,
  0xb8, 0xf9, 0xff, 0xff, 0x5e, 0x00, 0x00, 0x00, 0x73, 0x65, 0x71, 0x75,
  0x65, 0x6e, 0x74, 0x69, 0x61, 0x6c, 0x5f, 0x31, 0x5f, 0x31, 0x2f, 0x64,
  0x65, 0x6e, 0x73, 0x65, 0x5f, 0x32, 0x5f, 0x31, 0x2f, 0x4d, 0x61, 0x74,
  0x4d, 0x75, 0x6c, 0x3b, 0x73, 0x65, 0x71, 0x75, 0x65, 0x6e, 0x74, 0x69,
  0x61, 0x6c, 0x5f, 0x31, 0x5f, 0x31, 0x2f, 0x64, 0x65, 0x6e, 0x73, 0x65,
  0x5f, 0x32, 0x5f, 0x31, 0x2f, 0x52, 0x65, 0x6c, 0x75, 0x3b, 0x73, 0x65,
  0x71, 0x75, 0x65, 0x6e, 0x74, 0x69, 0x61, 0x6c, 0x5f, 0x31, 0x5f, 0x31,
  0x2f, 0x64, 0x65, 0x6e, 0x73, 0x65, 0x5f, 0x32, 0x5f, 0x31, 0x2f, 0x42,
  0x69, 0x61, 0x73, 0x41, 0x64, 0x64, 0x00, 0x00, 0x02, 0x00, 0x00, 0x00,
  0x01, 0x00, 0x00, 0x00, 0x10, 0x00, 0x00, 0x00, 0x6e, 0xfa, 0xff, 0xff,
  0x00, 0x00, 0x00, 0x01, 0x14, 0x00, 0x00, 0x00, 0x1c, 0x00, 0x00, 0x00,
  0x1c, 0x00, 0x00, 0x00, 0x0f, 0x00, 0x00, 0x00, 0x4c, 0x00, 0x00, 0x00,
  0x02, 0x00, 0x00, 0x00, 0xff, 0xff, 0xff, 0xff, 0x20, 0x00, 0x00, 0x00,
  0x54, 0xfa, 0xff, 0xff, 0x30, 0x00, 0x00, 0x00, 0x73, 0x65, 0x71, 0x75,
  0x65, 0x6e, 0x74, 0x69, 0x61, 0x6c, 0x5f, 0x31, 0x5f, 0x31, 0x2f, 0x67,
  0x6c, 0x6f, 0x62, 0x61, 0x6c, 0x5f, 0x61, 0x76, 0x65, 0x72, 0x61, 0x67,
  0x65, 0x5f, 0x70, 0x6f, 0x6f, 0x6c, 0x69, 0x6e, 0x67, 0x31, 0x64, 0x5f,
  0x31, 0x5f, 0x31, 0x2f, 0x4d, 0x65, 0x61, 0x6e, 0x00, 0x00, 0x00, 0x00,
  0x02, 0x00, 0x00, 0x00, 0x01, 0x00, 0x00, 0x00, 0x20, 0x00, 0x00, 0x00,
  0xde, 0xfa, 0xff, 0xff, 0x00, 0x00, 0x00, 0x01, 0x14, 0x00, 0x00, 0x00,
  0x20, 0x00, 0x00, 0x00, 0x20, 0x00, 0x00, 0x00, 0x0e, 0x00, 0x00, 0x00,
  0x90, 0x00, 0x00, 0x00, 0x03, 0x00, 0x00, 0x00, 0xff, 0xff, 0xff, 0xff,
  0x0d, 0x00, 0x00, 0x00, 0x20, 0x00, 0x00, 0x00, 0xc8, 0xfa, 0xff, 0xff,
  0x70, 0x00, 0x00, 0x00, 0x73, 0x65, 0x71, 0x75, 0x65, 0x6e, 0x74, 0x69,
  0x61, 0x6c, 0x5f, 0x31, 0x5f, 0x31, 0x2f, 0x63, 0x6f, 0x6e, 0x76, 0x31,
  0x64, 0x5f, 0x31, 0x5f, 0x31, 0x2f, 0x54, 0x61, 0x6e, 0x68, 0x3b, 0x73,
  0x65, 0x71, 0x75, 0x65, 0x6e, 0x74, 0x69, 0x61, 0x6c, 0x5f, 0x31, 0x5f,
  0x31, 0x2f, 0x63, 0x6f, 0x6e, 0x76, 0x31, 0x64, 0x5f, 0x31, 0x5f, 0x31,
  0x2f, 0x42, 0x69, 0x61, 0x73, 0x41, 0x64, 0x64, 0x3b, 0x73, 0x65, 0x71,
  0x75, 0x65, 0x6e, 0x74, 0x69, 0x61, 0x6c, 0x5f, 0x31, 0x5f, 0x31, 0x2f,
  0x63, 0x6f, 0x6e, 0x76, 0x31, 0x64, 0x5f, 0x31, 0x5f, 0x31, 0x2f, 0x63,
  0x6f, 0x6e, 0x76, 0x6f, 0x6c, 0x75, 0x74, 0x69, 0x6f, 0x6e, 0x2f, 0x53,
  0x71, 0x75, 0x65, 0x65, 0x7a, 0x65, 0x3b, 0x31, 0x00, 0x00, 0x00, 0x00,
  0x03, 0x00, 0x00, 0x00, 0x01, 0x00, 0x00, 0x00, 0x0d, 0x00, 0x00, 0x00,
  0x20, 0x00, 0x00, 0x00, 0x96, 0xfb, 0xff, 0xff, 0x00, 0x00, 0x00, 0x01,
  0x14, 0x00, 0x00, 0x00, 0x24, 0x00, 0x00, 0x00, 0x24, 0x00, 0x00, 0x00,
  0x0d, 0x00, 0x00, 0x00, 0x90, 0x00, 0x00, 0x00, 0x04, 0x00, 0x00, 0x00,
  0xff, 0xff, 0xff, 0xff, 0x01, 0x00, 0x00, 0x00, 0x0d, 0x00, 0x00, 0x00,
  0x20, 0x00, 0x00, 0x00, 0x84, 0xfb, 0xff, 0xff, 0x6f, 0x00, 0x00, 0x00,
  0x73, 0x65, 0x71, 0x75, 0x65, 0x6e, 0x74, 0x69, 0x61, 0x6c, 0x5f, 0x31,
  0x5f, 0x31, 0x2f, 0x63, 0x6f, 0x6e, 0x76, 0x31, 0x64, 0x5f, 0x31, 0x5f,
  0x31, 0x2f, 0x54, 0x61, 0x6e, 0x68, 0x3b, 0x73, 0x65, 0x71, 0x75, 0x65,
  0x6e, 0x74, 0x69, 0x61, 0x6c, 0x5f, 0x31, 0x5f, 0x31, 0x2f, 0x63, 0x6f,
  0x6e, 0x76, 0x31, 0x64, 0x5f, 0x31, 0x5f, 0x31, 0x2f, 0x42, 0x69, 0x61,
  0x73, 0x41, 0x64, 0x64, 0x3b, 0x73, 0x65, 0x71, 0x75, 0x65, 0x6e, 0x74,
  0x69, 0x61, 0x6c, 0x5f, 0x31, 0x5f, 0x31, 0x2f, 0x63, 0x6f, 0x6e, 0x76,
  0x31, 0x64, 0x5f, 0x31, 0x5f, 0x31, 0x2f, 0x63, 0x6f, 0x6e, 0x76, 0x6f,
  0x6c, 0x75, 0x74, 0x69, 0x6f, 0x6e, 0x2f, 0x53, 0x71, 0x75, 0x65, 0x65,
  0x7a, 0x65, 0x3b, 0x00, 0x04, 0x00, 0x00, 0x00, 0x01, 0x00, 0x00, 0x00,
  0x01, 0x00, 0x00, 0x00, 0x0d, 0x00, 0x00, 0x00, 0x20, 0x00, 0x00, 0x00,
  0x52, 0xfc, 0xff, 0xff, 0x00, 0x00, 0x00, 0x01, 0x14, 0x00, 0x00, 0x00,
  0x24, 0x00, 0x00, 0x00, 0x24, 0x00, 0x00, 0x00, 0x0c, 0x00, 0x00, 0x00,
  0x98, 0x00, 0x00, 0x00, 0x04, 0x00, 0x00, 0x00, 0xff, 0xff, 0xff, 0xff,
  0x01, 0x00, 0x00, 0x00, 0x0d, 0x00, 0x00, 0x00, 0x20, 0x00, 0x00, 0x00,
  0x40, 0xfc, 0xff, 0xff, 0x76, 0x00, 0x00, 0x00, 0x73, 0x65, 0x71, 0x75,
  0x65, 0x6e, 0x74, 0x69, 0x61, 0x6c, 0x5f, 0x31, 0x5f, 0x31, 0x2f, 0x63,
  0x6f, 0x6e, 0x76, 0x31, 0x64, 0x5f, 0x31, 0x5f, 0x31, 0x2f, 0x42, 0x69,
  0x61, 0x73, 0x41, 0x64, 0x64, 0x3b, 0x73, 0x65, 0x71, 0x75, 0x65, 0x6e,
  0x74, 0x69, 0x61, 0x6c, 0x5f, 0x31, 0x5f, 0x31, 0x2f, 0x63, 0x6f, 0x6e,
  0x76, 0x31, 0x64, 0x5f, 0x31, 0x5f, 0x31, 0x2f, 0x63, 0x6f, 0x6e, 0x76,
  0x6f, 0x6c, 0x75, 0x74, 0x69, 0x6f, 0x6e, 0x2f, 0x53, 0x71, 0x75, 0x65,
  0x65, 0x7a, 0x65, 0x3b, 0x3b, 0x73, 0x65, 0x71, 0x75, 0x65, 0x6e, 0x74,
  0x69, 0x61, 0x6c, 0x5f, 0x31, 0x5f, 0x31, 0x2f, 0x63, 0x6f, 0x6e, 0x76,
  0x31, 0x64, 0x5f, 0x31, 0x5f, 0x31, 0x2f, 0x63, 0x6f, 0x6e, 0x76, 0x6f,
  0x6c, 0x75, 0x74, 0x69, 0x6f, 0x6e, 0x00, 0x00, 0x04, 0x00, 0x00, 0x00,
  0x01, 0x00, 0x00, 0x00, 0x01, 0x00, 0x00, 0x00, 0x0d, 0x00, 0x00, 0x00,
  0x20, 0x00, 0x00, 0x00, 0x16, 0xfd, 0xff, 0xff, 0x00, 0x00, 0x00, 0x01,
  0x14, 0x00, 0x00, 0x00, 0x24, 0x00, 0x00, 0x00, 0x24, 0x00, 0x00, 0x00,
  0x0b, 0x00, 0x00, 0x00, 0x54, 0x00, 0x00, 0x00, 0x04, 0x00, 0x00, 0x00,
  0xff, 0xff, 0xff, 0xff, 0x01, 0x00, 0x00, 0x00, 0x0f, 0x00, 0x00, 0x00,
  0x06, 0x00, 0x00, 0x00, 0x04, 0xfd, 0xff, 0xff, 0x30, 0x00, 0x00, 0x00,
  0x73, 0x65, 0x71, 0x75, 0x65, 0x6e, 0x74, 0x69, 0x61, 0x6c, 0x5f, 0x31,
  0x5f, 0x31, 0x2f, 0x63, 0x6f, 0x6e, 0x76, 0x31, 0x64, 0x5f, 0x31, 0x5f,
  0x31, 0x2f, 0x63, 0x6f, 0x6e, 0x76, 0x6f, 0x6c, 0x75, 0x74, 0x69, 0x6f,
  0x6e, 0x2f, 0x45, 0x78, 0x70, 0x61, 0x6e, 0x64, 0x44, 0x69, 0x6d, 0x73,
  0x00, 0x00, 0x00, 0x00, 0x04, 0x00, 0x00, 0x00, 0x01, 0x00, 0x00, 0x00,
  0x01, 0x00, 0x00, 0x00, 0x0f, 0x00, 0x00, 0x00, 0x06, 0x00, 0x00, 0x00,
  0x3a, 0xfe, 0xff, 0xff, 0x00, 0x00, 0x00, 0x01, 0x14, 0x00, 0x00, 0x00,
  0x14, 0x00, 0x00, 0x00, 0x0a, 0x00, 0x00, 0x00, 0x00, 0x00, 0x00, 0x02,
  0x44, 0x00, 0x00, 0x00, 0x70, 0xfd, 0xff, 0xff, 0x34, 0x00, 0x00, 0x00,
  0x73, 0x65, 0x71, 0x75, 0x65, 0x6e, 0x74, 0x69, 0x61, 0x6c, 0x5f, 0x31,
  0x5f, 0x31, 0x2f, 0x63, 0x6f, 0x6e, 0x76, 0x31, 0x64, 0x5f, 0x31, 0x5f,
  0x31, 0x2f, 0x63, 0x6f, 0x6e, 0x76, 0x6f, 0x6c, 0x75, 0x74, 0x69, 0x6f,
  0x6e, 0x2f, 0x45, 0x78, 0x70, 0x61, 0x6e, 0x64, 0x44, 0x69, 0x6d, 0x73,
  0x2f, 0x64, 0x69, 0x6d, 0x00, 0x00, 0x00, 0x00, 0x00, 0x00, 0x00, 0x00,
  0x9a, 0xfe, 0xff, 0xff, 0x00, 0x00, 0x00, 0x01, 0x14, 0x00, 0x00, 0x00,
  0x14, 0x00, 0x00, 0x00, 0x09, 0x00, 0x00, 0x00, 0x00, 0x00, 0x00, 0x02,
  0x1c, 0x00, 0x00, 0x00, 0xd0, 0xfd, 0xff, 0xff, 0x0f, 0x00, 0x00, 0x00,
  0x61, 0x72, 0x69, 0x74, 0x68, 0x2e, 0x63, 0x6f, 0x6e, 0x73, 0x74, 0x61,
  0x6e, 0x74, 0x37, 0x00, 0x00, 0x00, 0x00, 0x00, 0x7e, 0xfe, 0xff, 0xff,
  0x00, 0x00, 0x00, 0x01, 0x10, 0x00, 0x00, 0x00, 0x10, 0x00, 0x00, 0x00,
  0x08, 0x00, 0x00, 0x00, 0x1c, 0x00, 0x00, 0x00, 0x04, 0xfe, 0xff, 0xff,
  0x0f, 0x00, 0x00, 0x00, 0x61, 0x72, 0x69, 0x74, 0x68, 0x2e, 0x63, 0x6f,
  0x6e, 0x73, 0x74, 0x61, 0x6e, 0x74, 0x36, 0x00, 0x01, 0x00, 0x00, 0x00,
  0x10, 0x00, 0x00, 0x00, 0xb6, 0xfe, 0xff, 0xff, 0x00, 0x00, 0x00, 0x01,
  0x10, 0x00, 0x00, 0x00, 0x10, 0x00, 0x00, 0x00, 0x07, 0x00, 0x00, 0x00,
  0x1c, 0x00, 0x00, 0x00, 0x3c, 0xfe, 0xff, 0xff, 0x0f, 0x00, 0x00, 0x00,
  0x61, 0x72, 0x69, 0x74, 0x68, 0x2e, 0x63, 0x6f, 0x6e, 0x73, 0x74, 0x61,
  0x6e, 0x74, 0x35, 0x00, 0x01, 0x00, 0x00, 0x00, 0x03, 0x00, 0x00, 0x00,
  0xee, 0xfe, 0xff, 0xff, 0x00, 0x00, 0x00, 0x01, 0x10, 0x00, 0x00, 0x00,
  0x10, 0x00, 0x00, 0x00, 0x06, 0x00, 0x00, 0x00, 0x1c, 0x00, 0x00, 0x00,
  0x74, 0xfe, 0xff, 0xff, 0x0f, 0x00, 0x00, 0x00, 0x61, 0x72, 0x69, 0x74,
  0x68, 0x2e, 0x63, 0x6f, 0x6e, 0x73, 0x74, 0x61, 0x6e, 0x74, 0x34, 0x00,
  0x02, 0x00, 0x00, 0x00, 0x10, 0x00, 0x00, 0x00, 0x20, 0x00, 0x00, 0x00,
  0x2a, 0xff, 0xff, 0xff, 0x00, 0x00, 0x00, 0x01, 0x10, 0x00, 0x00, 0x00,
  0x10, 0x00, 0x00, 0x00, 0x05, 0x00, 0x00, 0x00, 0x1c, 0x00, 0x00, 0x00,
  0xb0, 0xfe, 0xff, 0xff, 0x0f, 0x00, 0x00, 0x00, 0x61, 0x72, 0x69, 0x74,
  0x68, 0x2e, 0x63, 0x6f, 0x6e, 0x73, 0x74, 0x61, 0x6e, 0x74, 0x33, 0x00,
  0x02, 0x00, 0x00, 0x00, 0x03, 0x00, 0x00, 0x00, 0x10, 0x00, 0x00, 0x00,
  0x66, 0xff, 0xff, 0xff, 0x00, 0x00, 0x00, 0x01, 0x10, 0x00, 0x00, 0x00,
  0x10, 0x00, 0x00, 0x00, 0x04, 0x00, 0x00, 0x00, 0x1c, 0x00, 0x00, 0x00,
  0xec, 0xfe, 0xff, 0xff, 0x0f, 0x00, 0x00, 0x00, 0x61, 0x72, 0x69, 0x74,
  0x68, 0x2e, 0x63, 0x6f, 0x6e, 0x73, 0x74, 0x61, 0x6e, 0x74, 0x32, 0x00,
  0x04, 0x00, 0x00, 0x00, 0x20, 0x00, 0x00, 0x00, 0x01, 0x00, 0x00, 0x00,
  0x03, 0x00, 0x00, 0x00, 0x06, 0x00, 0x00, 0x00, 0x00, 0x00, 0x16, 0x00,
  0x1c, 0x00, 0x18, 0x00, 0x17, 0x00, 0x10, 0x00, 0x0c, 0x00, 0x08, 0x00,
  0x00, 0x00, 0x00, 0x00, 0x00, 0x00, 0x07, 0x00, 0x16, 0x00, 0x00, 0x00,
  0x00, 0x00, 0x00, 0x01, 0x14, 0x00, 0x00, 0x00, 0x14, 0x00, 0x00, 0x00,
  0x03, 0x00, 0x00, 0x00, 0x00, 0x00, 0x00, 0x02, 0x1c, 0x00, 0x00, 0x00,
  0x4c, 0xff, 0xff, 0xff, 0x0f, 0x00, 0x00, 0x00, 0x61, 0x72, 0x69, 0x74,
  0x68, 0x2e, 0x63, 0x6f, 0x6e, 0x73, 0x74, 0x61, 0x6e, 0x74, 0x31, 0x00,
  0x01, 0x00, 0x00, 0x00, 0x03, 0x00, 0x00, 0x00, 0x00, 0x00, 0x16, 0x00,
  0x18, 0x00, 0x14, 0x00, 0x00, 0x00, 0x10, 0x00, 0x0c, 0x00, 0x08, 0x00,
  0x00, 0x00, 0x00, 0x00, 0x00, 0x00, 0x07, 0x00, 0x16, 0x00, 0x00, 0x00,
  0x00, 0x00, 0x00, 0x01, 0x10, 0x00, 0x00, 0x00, 0x10, 0x00, 0x00, 0x00,
  0x02, 0x00, 0x00, 0x00, 0x1c, 0x00, 0x00, 0x00, 0x9c, 0xff, 0xff, 0xff,
  0x0e, 0x00, 0x00, 0x00, 0x61, 0x72, 0x69, 0x74, 0x68, 0x2e, 0x63, 0x6f,
  0x6e, 0x73, 0x74, 0x61, 0x6e, 0x74, 0x00, 0x00, 0x01, 0x00, 0x00, 0x00,
  0x20, 0x00, 0x00, 0x00, 0x00, 0x00, 0x16, 0x00, 0x1c, 0x00, 0x18, 0x00,
  0x00, 0x00, 0x14, 0x00, 0x10, 0x00, 0x0c, 0x00, 0x00, 0x00, 0x00, 0x00,
  0x08, 0x00, 0x07, 0x00, 0x16, 0x00, 0x00, 0x00, 0x00, 0x00, 0x00, 0x01,
  0x14, 0x00, 0x00, 0x00, 0x24, 0x00, 0x00, 0x00, 0x24, 0x00, 0x00, 0x00,
  0x01, 0x00, 0x00, 0x00, 0x44, 0x00, 0x00, 0x00, 0x03, 0x00, 0x00, 0x00,
  0xff, 0xff, 0xff, 0xff, 0x0f, 0x00, 0x00, 0x00, 0x06, 0x00, 0x00, 0x00,
  0x04, 0x00, 0x04, 0x00, 0x04, 0x00, 0x00, 0x00, 0x20, 0x00, 0x00, 0x00,
  0x73, 0x65, 0x72, 0x76, 0x69, 0x6e, 0x67, 0x5f, 0x64, 0x65, 0x66, 0x61,
  0x75, 0x6c, 0x74, 0x5f, 0x6b, 0x65, 0x72, 0x61, 0x73, 0x5f, 0x74, 0x65,
  0x6e, 0x73, 0x6f, 0x72, 0x5f, 0x35, 0x3a, 0x30, 0x00, 0x00, 0x00, 0x00,
  0x03, 0x00, 0x00, 0x00, 0x01, 0x00, 0x00, 0x00, 0x0f, 0x00, 0x00, 0x00,
  0x06, 0x00, 0x00, 0x00, 0x07, 0x00, 0x00, 0x00, 0x70, 0x00, 0x00, 0x00,
  0x54, 0x00, 0x00, 0x00, 0x44, 0x00, 0x00, 0x00, 0x34, 0x00, 0x00, 0x00,
  0x24, 0x00, 0x00, 0x00, 0x14, 0x00, 0x00, 0x00, 0x04, 0x00, 0x00, 0x00,
  0xb8, 0xff, 0xff, 0xff, 0x19, 0x00, 0x00, 0x00, 0x00, 0x00, 0x00, 0x19,
  0xc4, 0xff, 0xff, 0xff, 0x09, 0x00, 0x00, 0x00, 0x00, 0x00, 0x00, 0x09,
  0xd0, 0xff, 0xff, 0xff, 0x28, 0x00, 0x00, 0x00, 0x00, 0x00, 0x00, 0x28,
  0xdc, 0xff, 0xff, 0xff, 0x16, 0x00, 0x00, 0x00, 0x00, 0x00, 0x00, 0x16,
  0xe8, 0xff, 0xff, 0xff, 0x1c, 0x00, 0x00, 0x00, 0x00, 0x00, 0x00, 0x1c,
  0xf4, 0xff, 0xff, 0xff, 0x03, 0x00, 0x00, 0x00, 0x00, 0x00, 0x00, 0x03,
  0x0c, 0x00, 0x0c, 0x00, 0x0b, 0x00, 0x00, 0x00, 0x00, 0x00, 0x04, 0x00,
  0x0c, 0x00, 0x00, 0x00, 0x46, 0x00, 0x00, 0x00, 0x00, 0x00, 0x00, 0x46
};
unsigned int boxing_model_left_15_tflite_len = 8124;
