unsigned char boxing_model_left_8_tflite[] = {
  0x1c, 0x00, 0x00, 0x00, 0x54, 0x46, 0x4c, 0x33, 0x14, 0x00, 0x20, 0x00,
  0x1c, 0x00, 0x18, 0x00, 0x14, 0x00, 0x10, 0x00, 0x0c, 0x00, 0x00, 0x00,
  0x08, 0x00, 0x04, 0x00, 0x14, 0x00, 0x00, 0x00, 0x1c, 0x00, 0x00, 0x00,
  0x8c, 0x00, 0x00, 0x00, 0xe4, 0x00, 0x00, 0x00, 0xb4, 0x09, 0x00, 0x00,
  0xc4, 0x09, 0x00, 0x00, 0x84, 0x13, 0x00, 0x00, 0x03, 0x00, 0x00, 0x00,
  0x01, 0x00, 0x00, 0x00, 0x04, 0x00, 0x00, 0x00, 0xee, 0xf4, 0xff, 0xff,
  0x0c, 0x00, 0x00, 0x00, 0x1c, 0x00, 0x00, 0x00, 0x3c, 0x00, 0x00, 0x00,
  0x0f, 0x00, 0x00, 0x00, 0x73, 0x65, 0x72, 0x76, 0x69, 0x6e, 0x67, 0x5f,
  0x64, 0x65, 0x66, 0x61, 0x75, 0x6c, 0x74, 0x00, 0x01, 0x00, 0x00, 0x00,
  0x04, 0x00, 0x00, 0x00, 0x90, 0xff, 0xff, 0xff, 0x11, 0x00, 0x00, 0x00,
  0x04, 0x00, 0x00, 0x00, 0x08, 0x00, 0x00, 0x00, 0x6f, 0x75, 0x74, 0x70,
  0x75, 0x74, 0x5f, 0x30, 0x00, 0x00, 0x00, 0x00, 0x01, 0x00, 0x00, 0x00,
  0x04, 0x00, 0x00, 0x00, 0x26, 0xf6, 0xff, 0xff, 0x04, 0x00, 0x00, 0x00,
  0x0c, 0x00, 0x00, 0x00, 0x6b, 0x65, 0x72, 0x61, 0x73, 0x5f, 0x74, 0x65,
  0x6e, 0x73, 0x6f, 0x72, 0x00, 0x00, 0x00, 0x00, 0x02, 0x00, 0x00, 0x00,
  0x34, 0x00, 0x00, 0x00, 0x04, 0x00, 0x00, 0x00, 0xdc, 0xff, 0xff, 0xff,
  0x14, 0x00, 0x00, 0x00, 0x04, 0x00, 0x00, 0x00, 0x13, 0x00, 0x00, 0x00,
  0x43, 0x4f, 0x4e, 0x56, 0x45, 0x52, 0x53, 0x49, 0x4f, 0x4e, 0x5f, 0x4d,
  0x45, 0x54, 0x41, 0x44, 0x41, 0x54, 0x41, 0x00, 0x08, 0x00, 0x0c, 0x00,
  0x08, 0x00, 0x04, 0x00, 0x08, 0x00, 0x00, 0x00, 0x13, 0x00, 0x00, 0x00,
  0x04, 0x00, 0x00, 0x00, 0x13, 0x00, 0x00, 0x00, 0x6d, 0x69, 0x6e, 0x5f,
  0x72, 0x75, 0x6e, 0x74, 0x69, 0x6d, 0x65, 0x5f, 0x76, 0x65, 0x72, 0x73,
  0x69, 0x6f, 0x6e, 0x00, 0x15, 0x00, 0x00, 0x00, 0xcc, 0x08, 0x00, 0x00,
  0xc4, 0x08, 0x00, 0x00, 0x74, 0x08, 0x00, 0x00, 0x58, 0x08, 0x00, 0x00,
  0xc8, 0x03, 0x00, 0x00, 0x58, 0x03, 0x00, 0x00, 0x48, 0x01, 0x00, 0x00,
  0x18, 0x01, 0x00, 0x00, 0xfc, 0x00, 0x00, 0x00, 0xe8, 0x00, 0x00, 0x00,
  0xd4, 0x00, 0x00, 0x00, 0xcc, 0x00, 0x00, 0x00, 0xc4, 0x00, 0x00, 0x00,
  0xbc, 0x00, 0x00, 0x00, 0xb4, 0x00, 0x00, 0x00, 0xac, 0x00, 0x00, 0x00,
  0xa4, 0x00, 0x00, 0x00, 0x9c, 0x00, 0x00, 0x00, 0x94, 0x00, 0x00, 0x00,
  0x74, 0x00, 0x00, 0x00, 0x04, 0x00, 0x00, 0x00, 0xf6, 0xf6, 0xff, 0xff,
  0x04, 0x00, 0x00, 0x00, 0x60, 0x00, 0x00, 0x00, 0x0c, 0x00, 0x00, 0x00,
  0x08, 0x00, 0x0e, 0x00, 0x08, 0x00, 0x04, 0x00, 0x08, 0x00, 0x00, 0x00,
  0x10, 0x00, 0x00, 0x00, 0x28, 0x00, 0x00, 0x00, 0x00, 0x00, 0x06, 0x00,
  0x08, 0x00, 0x04, 0x00, 0x06, 0x00, 0x00, 0x00, 0x04, 0x00, 0x00, 0x00,
  0x01, 0x00, 0x00, 0x00, 0xea, 0x03, 0x00, 0x00, 0x0c, 0x00, 0x18, 0x00,
  0x14, 0x00, 0x10, 0x00, 0x0c, 0x00, 0x04, 0x00, 0x0c, 0x00, 0x00, 0x00,
  0x6f, 0xf6, 0x70, 0x52, 0xa0, 0xf4, 0x11, 0x15, 0x02, 0x00, 0x00, 0x00,
  0x02, 0x00, 0x00, 0x00, 0x04, 0x00, 0x00, 0x00, 0x06, 0x00, 0x00, 0x00,
  0x32, 0x2e, 0x31, 0x38, 0x2e, 0x30, 0x00, 0x00, 0x62, 0xf7, 0xff, 0xff,
  0x04, 0x00, 0x00, 0x00, 0x10, 0x00, 0x00, 0x00, 0x31, 0x2e, 0x31, 0x34,
  0x2e, 0x30, 0x00, 0x00, 0x00, 0x00, 0x00, 0x00, 0x00, 0x00, 0x00, 0x00,
  0x70, 0xee, 0xff, 0xff, 0x74, 0xee, 0xff, 0xff, 0x78, 0xee, 0xff, 0xff,
  0x7c, 0xee, 0xff, 0xff, 0x80, 0xee, 0xff, 0xff, 0x84, 0xee, 0xff, 0xff,
  0x88, 0xee, 0xff, 0xff, 0x8c, 0xee, 0xff, 0xff, 0x9e, 0xf7, 0xff, 0xff,
  0x04, 0x00, 0x00, 0x00, 0x04, 0x00, 0x00, 0x00, 0xfd, 0xff, 0xff, 0xff,
  0xae, 0xf7, 0xff, 0xff, 0x04, 0x00, 0x00, 0x00, 0x04, 0x00, 0x00, 0x00,
  0x01, 0x00, 0x00, 0x00, 0xbe, 0xf7, 0xff, 0xff, 0x04, 0x00, 0x00, 0x00,
  0x0c, 0x00, 0x00, 0x00, 0xac, 0x39, 0xd7, 0xbe, 0x4d, 0x92, 0xa4, 0xbd,
  0x23, 0xb4, 0xdd, 0x3e, 0xd6, 0xf7, 0xff, 0xff, 0x04, 0x00, 0x00, 0x00,
  0x20, 0x00, 0x00, 0x00, 0x19, 0x1e, 0x6c, 0xbc, 0x0e, 0x57, 0x82, 0xbd,
  0x96, 0xcc, 0x13, 0x3f, 0x87, 0x5a, 0x72, 0x3e, 0x34, 0x43, 0xe4, 0x3c,
  0x96, 0xbd, 0xe6, 0x3a, 0x21, 0xe9, 0x98, 0x3e, 0x44, 0xca, 0xc4, 0xbd,
  0x02, 0xf8, 0xff, 0xff, 0x04, 0x00, 0x00, 0x00, 0x00, 0x02, 0x00, 0x00,
  0x3a, 0x2e, 0x2f, 0xbf, 0xd3, 0x21, 0xae, 0x3e, 0x5b, 0xa6, 0xa3, 0x3e,
  0x67, 0x83, 0x9e, 0x3d, 0xd0, 0x87, 0x7e, 0x3e, 0xa6, 0xbe, 0xab, 0xbd,
  0x6a, 0x88, 0x83, 0x3d, 0x93, 0x4e, 0x07, 0xbf, 0x8b, 0x1a, 0xd0, 0x3e,
  0xe5, 0xd0, 0x2a, 0xbe, 0x21, 0x99, 0x65, 0xbc, 0x95, 0x63, 0xc4, 0xbe,
  0xe6, 0x09, 0x2e, 0x3d, 0xe8, 0x35, 0xbc, 0xbd, 0xbe, 0xb1, 0xaf, 0xbe,
  0xc1, 0x16, 0xf3, 0x3e, 0xba, 0x31, 0xa2, 0xbe, 0xc5, 0xa4, 0x87, 0xbe,
  0x1f, 0x91, 0xe2, 0x3e, 0xa0, 0x32, 0x5d, 0xbe, 0xd5, 0xa0, 0x04, 0xbd,
  0x15, 0x8b, 0x2a, 0xbd, 0xab, 0x20, 0xad, 0x3b, 0xf6, 0x17, 0xac, 0xbe,
  0x6d, 0x5e, 0x99, 0x3e, 0xa5, 0x8a, 0x38, 0x3e, 0x06, 0xfc, 0xaf, 0x3d,
  0x9b, 0x22, 0x92, 0xbe, 0x15, 0x84, 0x8e, 0x3e, 0x64, 0x49, 0xfe, 0x3e,
  0x75, 0xf5, 0xf1, 0x3e, 0x42, 0xc3, 0x00, 0x3f, 0xc2, 0xef, 0x2d, 0xbe,
  0x22, 0x0c, 0x03, 0x3d, 0x03, 0x13, 0xe6, 0xbe, 0xf8, 0xf5, 0x40, 0x3f,
  0xa6, 0x5c, 0x5c, 0x3f, 0x22, 0x69, 0x66, 0x3c, 0x31, 0x72, 0x5b, 0x3f,
  0x6e, 0x28, 0x68, 0x3f, 0xcc, 0x55, 0xe1, 0x3c, 0x55, 0x9e, 0x39, 0xbd,
  0x89, 0x3e, 0xd9, 0xbe, 0x0f, 0x6a, 0x12, 0xbe, 0xa0, 0x47, 0x80, 0x3e,
  0x7b, 0x65, 0x2a, 0x3f, 0x02, 0x09, 0xd6, 0x3c, 0x73, 0xd3, 0x11, 0xbf,
  0xca, 0xeb, 0xc6, 0xbe, 0xbe, 0xa0, 0x81, 0x3f, 0x2a, 0xe7, 0x15, 0x3f,
  0xf1, 0xb6, 0xae, 0x3e, 0xdc, 0x24, 0x18, 0xbc, 0xb0, 0xd4, 0xd6, 0x3d,
  0x8c, 0x9a, 0x32, 0xbf, 0xdf, 0x2f, 0xcf, 0x3e, 0x7d, 0xca, 0x21, 0x3f,
  0x41, 0x94, 0x37, 0x3d, 0x14, 0x2a, 0x33, 0xbf, 0xb7, 0x1e, 0x2d, 0x3e,
  0x7a, 0x34, 0x62, 0x3e, 0x23, 0x39, 0xcc, 0x3e, 0xdf, 0x3d, 0x1e, 0x3f,
  0xc0, 0x3d, 0x5f, 0xbe, 0x6d, 0xc4, 0x2f, 0xbf, 0x24, 0x2c, 0x14, 0xbe,
  0x32, 0x9c, 0x32, 0xbe, 0xa3, 0x09, 0x55, 0xbf, 0xf6, 0xf6, 0x86, 0x3e,
  0x07, 0x89, 0xa5, 0xbd, 0x70, 0x8d, 0x0a, 0xbf, 0xac, 0xed, 0xe7, 0xbe,
  0xf3, 0x96, 0xcc, 0x3e, 0xe1, 0xa4, 0xb2, 0x3e, 0x8f, 0xa2, 0xd7, 0x3d,
  0xb4, 0x1c, 0xd3, 0xbd, 0x57, 0x68, 0x75, 0x3e, 0x36, 0xec, 0x65, 0x3d,
  0x41, 0x3c, 0x6d, 0x3e, 0x7d, 0x6b, 0x11, 0xbe, 0x61, 0xc8, 0x55, 0xbe,
  0x07, 0xd0, 0x84, 0xbe, 0x86, 0x45, 0xf2, 0x3e, 0xa9, 0xc8, 0x1d, 0xbf,
  0x57, 0x17, 0xb8, 0x3d, 0xd7, 0x50, 0xe2, 0xbd, 0x39, 0x26, 0xa9, 0xbd,
  0x54, 0x6e, 0xfb, 0x3c, 0x04, 0x72, 0x61, 0x3e, 0x8d, 0xad, 0x97, 0x3e,
  0x9a, 0x95, 0xbd, 0x3e, 0x00, 0x21, 0xa1, 0x3e, 0x9f, 0x39, 0xc2, 0x3e,
  0x62, 0x4f, 0xa8, 0xbe, 0x00, 0xc5, 0x8f, 0x3e, 0x75, 0x15, 0x80, 0xbd,
  0x7e, 0xe9, 0x26, 0x3f, 0xcc, 0x26, 0x53, 0x3e, 0xdf, 0x57, 0x23, 0xbf,
  0x39, 0xab, 0xcf, 0xbe, 0xaa, 0xc4, 0x7c, 0xbe, 0x57, 0x77, 0x20, 0xbf,
  0x3e, 0x0a, 0x90, 0x3c, 0x1f, 0x76, 0xfb, 0x3d, 0xd4, 0x37, 0xd1, 0x3e,
  0xe0, 0x88, 0x3f, 0xbf, 0x67, 0x02, 0x02, 0xbf, 0x88, 0x03, 0x77, 0xbf,
  0x68, 0xcb, 0x62, 0x3e, 0x14, 0x5f, 0x14, 0x3e, 0x13, 0xca, 0x4d, 0xbf,
  0xc3, 0xb6, 0x12, 0x3f, 0xd6, 0x70, 0x03, 0xbe, 0xf4, 0x4e, 0x8e, 0x3d,
  0x9a, 0x9c, 0x8d, 0xbe, 0x8c, 0x1e, 0x51, 0xbe, 0x86, 0xdc, 0x75, 0xbe,
  0xdf, 0xd9, 0x8e, 0xbd, 0x6b, 0x42, 0x49, 0x3d, 0xad, 0x24, 0x3e, 0xbe,
  0xed, 0x02, 0x6e, 0x3e, 0xb0, 0xe1, 0xca, 0x3e, 0x45, 0xed, 0x23, 0x3e,
  0xdd, 0x08, 0xdf, 0xbe, 0xe2, 0x97, 0xe1, 0x3e, 0x65, 0xb6, 0xb5, 0xbe,
  0xf1, 0xe3, 0x19, 0x3f, 0x2f, 0x63, 0x6b, 0xbd, 0x0e, 0xfa, 0xff, 0xff,
  0x04, 0x00, 0x00, 0x00, 0x60, 0x00, 0x00, 0x00, 0xdf, 0xd6, 0x3c, 0x3e,
  0x94, 0xb9, 0x7b, 0x3f, 0xa2, 0x27, 0x00, 0xbf, 0xc9, 0xdb, 0x1a, 0x3e,
  0x89, 0x7f, 0x5e, 0x3f, 0xb7, 0x78, 0x78, 0x3f, 0xc1, 0x83, 0x99, 0x3e,
  0x42, 0x8c, 0x5d, 0xbe, 0x97, 0x0d, 0x57, 0xbf, 0x76, 0x59, 0x4a, 0xbf,
  0x9a, 0x72, 0x00, 0x3f, 0xa5, 0x22, 0x9a, 0x3f, 0xa8, 0xc9, 0x81, 0xbf,
  0xfe, 0xc8, 0xa9, 0xbe, 0x20, 0x90, 0x21, 0xbf, 0x05, 0x6a, 0xf8, 0xbd,
  0x45, 0x58, 0x2c, 0xbd, 0xbc, 0x07, 0x06, 0xbf, 0x77, 0x35, 0x87, 0x3f,
  0xd6, 0x1a, 0xad, 0xbf, 0xf3, 0x1a, 0x33, 0xbe, 0x76, 0xfe, 0x33, 0xbf,
  0x66, 0x48, 0x64, 0x3f, 0x1a, 0x35, 0x04, 0xbf, 0x7a, 0xfa, 0xff, 0xff,
  0x04, 0x00, 0x00, 0x00, 0x80, 0x04, 0x00, 0x00, 0xbb, 0xfe, 0x4b, 0x3e,
  0x64, 0x6a, 0x85, 0x3d, 0x43, 0x7e, 0x5a, 0xbe, 0xf5, 0xdd, 0x25, 0xbe,
  0xa0, 0x6d, 0xd8, 0x3e, 0x9d, 0x60, 0x43, 0x3e, 0x63, 0x38, 0x44, 0x3e,
  0x27, 0xa6, 0x8f, 0xbe, 0x47, 0xf3, 0x89, 0xbe, 0x3c, 0x21, 0xc0, 0x3d,
  0x70, 0x54, 0xcf, 0x3e, 0x7f, 0x03, 0x12, 0x3d, 0xa4, 0x00, 0x80, 0x3e,
  0x0a, 0x11, 0x2d, 0xbe, 0xd7, 0xa3, 0x99, 0xbc, 0x0f, 0xe5, 0xdd, 0x3e,
  0x63, 0x5a, 0x3f, 0x3e, 0xe9, 0x3c, 0xb6, 0xbc, 0xf6, 0xba, 0xf1, 0x3d,
  0x5a, 0x75, 0xd2, 0xbd, 0x0e, 0x2d, 0x32, 0xbe, 0xb9, 0x2c, 0x42, 0x3e,
  0x34, 0xc8, 0x18, 0xbe, 0x4a, 0xa8, 0xbd, 0xbe, 0xfe, 0x7b, 0x00, 0xbe,
  0x41, 0xc4, 0x80, 0xbe, 0x97, 0xe7, 0x08, 0x3d, 0x3e, 0xc6, 0x13, 0x3d,
  0xe3, 0xe3, 0x91, 0xbe, 0x9c, 0xcf, 0xbc, 0xbd, 0xe8, 0xf5, 0xa1, 0x3d,
  0x5c, 0xd7, 0xc3, 0x3d, 0x3a, 0x9e, 0x8a, 0x3e, 0xae, 0x60, 0xb0, 0x3e,
  0xd8, 0xe3, 0x4d, 0xbe, 0x18, 0x24, 0x65, 0xbd, 0x84, 0xe7, 0x53, 0xbe,
  0xb4, 0x22, 0x8f, 0x3d, 0xed, 0x34, 0x14, 0x3e, 0x3d, 0xf6, 0x64, 0x3e,
  0x40, 0x3e, 0xf1, 0xbe, 0x7d, 0x70, 0x10, 0xbe, 0xf6, 0xb9, 0x9e, 0x3d,
  0x5a, 0xa0, 0x90, 0xbd, 0xc4, 0xd1, 0x26, 0x3d, 0x5b, 0xb7, 0x5d, 0x3e,
  0xe6, 0xec, 0x98, 0xbe, 0xdc, 0x70, 0xa6, 0xbe, 0x73, 0x5d, 0x35, 0xbe,
  0xfd, 0xa1, 0x64, 0x3b, 0x5c, 0xe1, 0x6b, 0x3e, 0x17, 0x14, 0x94, 0xbe,
  0x87, 0x2a, 0x95, 0xbe, 0xbe, 0x06, 0xc3, 0xbe, 0x86, 0x6e, 0x3b, 0x3e,
  0xcf, 0xd4, 0x20, 0x3c, 0x1d, 0x47, 0x81, 0xbe, 0x55, 0x4b, 0x17, 0x3e,
  0x45, 0x67, 0xd8, 0xbd, 0x49, 0xb3, 0xfb, 0xbc, 0xf2, 0xed, 0x0b, 0xbe,
  0x6d, 0x46, 0x8c, 0xbd, 0xf2, 0x73, 0x34, 0x3e, 0x69, 0xfb, 0x38, 0xbe,
  0x7d, 0x03, 0x7d, 0xbe, 0xc9, 0xb7, 0x28, 0xbe, 0x85, 0x3c, 0xec, 0x3b,
  0x3e, 0x67, 0xde, 0x3d, 0x34, 0x1c, 0x28, 0xbe, 0x9a, 0x06, 0x62, 0x3d,
  0xeb, 0x21, 0x1f, 0xbd, 0xc6, 0x0e, 0x9a, 0x3e, 0xa9, 0xe4, 0x1b, 0x3d,
  0xab, 0x3b, 0xf7, 0x3d, 0x01, 0xeb, 0x8a, 0xbe, 0xcd, 0x44, 0x00, 0xbe,
  0x93, 0x3b, 0x1d, 0x3e, 0x72, 0xdd, 0x8d, 0xbc, 0xb9, 0x2c, 0x22, 0x3e,
  0xf7, 0xb8, 0xa9, 0xbd, 0xac, 0x27, 0x91, 0xbe, 0xae, 0xbd, 0x99, 0xbe,
  0x45, 0x6e, 0x7a, 0xbe, 0xd1, 0x8d, 0x97, 0xbe, 0x4c, 0x61, 0xdb, 0x3d,
  0x1d, 0x39, 0x87, 0xbd, 0x12, 0x4b, 0xd4, 0xbd, 0xce, 0x99, 0x77, 0xbc,
  0xde, 0x21, 0xf4, 0xbc, 0x6f, 0x98, 0xb1, 0xbe, 0x7b, 0xee, 0x16, 0xbe,
  0x49, 0x83, 0x1b, 0x3e, 0x08, 0x9e, 0x15, 0x3e, 0xba, 0xcb, 0x0e, 0xbe,
  0x06, 0x72, 0xdf, 0xbe, 0x29, 0x08, 0x6b, 0xbe, 0xb1, 0x6e, 0x13, 0x3d,
  0x86, 0x2c, 0xe7, 0x3d, 0x94, 0xa5, 0x99, 0xbe, 0xc1, 0xf6, 0xdc, 0xbd,
  0x85, 0xac, 0xe9, 0xbb, 0x2f, 0xae, 0x31, 0x3e, 0x94, 0x53, 0xc0, 0x3d,
  0xd9, 0xca, 0x2e, 0x3e, 0x22, 0x65, 0x46, 0xbe, 0x29, 0xe1, 0xc6, 0xbd,
  0xa0, 0xf3, 0xd5, 0xbe, 0x44, 0xc4, 0x88, 0xbe, 0x49, 0x11, 0xab, 0x3d,
  0x5b, 0xd1, 0x8a, 0x3e, 0xef, 0xa2, 0x63, 0xbc, 0x91, 0x94, 0x71, 0xbe,
  0x9a, 0xaf, 0xad, 0x3e, 0xbe, 0x84, 0x78, 0x3e, 0xd4, 0xc9, 0x25, 0x3e,
  0x94, 0xe6, 0x74, 0x3d, 0x4a, 0xfb, 0xb3, 0xbe, 0x84, 0x6d, 0x43, 0xbe,
  0x2d, 0x86, 0x8f, 0x3e, 0x95, 0x88, 0xd1, 0x3e, 0x4a, 0xd9, 0x26, 0xbd,
  0x18, 0x24, 0x8a, 0xbe, 0x17, 0x7f, 0x1d, 0xbd, 0xf8, 0x3c, 0x2e, 0xbc,
  0x9c, 0x48, 0x0d, 0x3e, 0x6e, 0x2d, 0xfa, 0x3d, 0xd0, 0xef, 0xa8, 0xbd,
  0x3e, 0x04, 0x16, 0xbe, 0x47, 0xcc, 0x6a, 0xbe, 0x9f, 0xac, 0xde, 0xbe,
  0xdc, 0x96, 0xe6, 0xbd, 0x25, 0x6e, 0x81, 0x3b, 0xd8, 0x8c, 0x40, 0x3e,
  0x2d, 0x32, 0x2e, 0xbe, 0x6e, 0x1e, 0xeb, 0xbd, 0xf3, 0x11, 0x99, 0xbe,
  0x39, 0x16, 0x02, 0xbd, 0x1d, 0xff, 0x72, 0x3e, 0xc1, 0xcc, 0xe3, 0x3c,
  0x13, 0x69, 0x7f, 0x3e, 0x61, 0x5e, 0x29, 0xbe, 0x61, 0x38, 0xd6, 0xbd,
  0x08, 0x6f, 0x3e, 0x3d, 0xa3, 0x5d, 0xd5, 0x3e, 0xed, 0x85, 0x52, 0x3d,
  0xcf, 0x4c, 0xd3, 0x3d, 0xad, 0x63, 0x09, 0xbb, 0x27, 0x54, 0xe3, 0xbd,
  0xe4, 0xa1, 0xb7, 0x3c, 0xbf, 0xa6, 0x08, 0xbf, 0x2c, 0x65, 0x28, 0x3e,
  0xe6, 0xb4, 0x6e, 0x3e, 0xfb, 0xc9, 0xce, 0xbd, 0x90, 0xbe, 0x9f, 0x3e,
  0xff, 0xe3, 0x18, 0xbe, 0xe4, 0xc5, 0xa3, 0xbd, 0xf5, 0xa0, 0x4b, 0x3e,
  0xaf, 0x1a, 0x42, 0x3d, 0x2d, 0x8a, 0x3c, 0x3e, 0x09, 0xbe, 0x7d, 0xbd,
  0xf7, 0xb0, 0x85, 0x3d, 0xe3, 0xa0, 0x4d, 0xbe, 0x80, 0xbd, 0x92, 0xbe,
  0x8d, 0xb7, 0x9f, 0xbd, 0x4a, 0x5e, 0x8c, 0x3c, 0xf6, 0xfe, 0x63, 0x3e,
  0x46, 0xac, 0xfd, 0x3b, 0x8d, 0x95, 0x78, 0xbd, 0xdf, 0x91, 0x89, 0xbe,
  0xd0, 0xfb, 0x89, 0xbc, 0x53, 0xa7, 0xb4, 0x3d, 0x96, 0xb9, 0xd3, 0x3d,
  0xe6, 0xd1, 0x94, 0xbe, 0xef, 0xc3, 0x6f, 0xbe, 0x76, 0x6a, 0xbf, 0xbc,
  0x63, 0x2b, 0xaa, 0x3e, 0xf5, 0x9d, 0x8f, 0x3e, 0x26, 0x0d, 0x17, 0xbd,
  0x6a, 0x33, 0x30, 0x3e, 0x5c, 0xb3, 0xe3, 0x3c, 0xe8, 0xea, 0x00, 0x3d,
  0xd7, 0xa9, 0x79, 0x3e, 0x44, 0xb8, 0x5e, 0x3e, 0xcb, 0x9f, 0xb8, 0xbd,
  0x5a, 0x34, 0x06, 0xbd, 0x09, 0x13, 0xef, 0x3e, 0x58, 0xc3, 0x0f, 0x3e,
  0x23, 0x2c, 0x15, 0x3e, 0x7e, 0xca, 0x2d, 0x3e, 0x84, 0xc9, 0x38, 0xbd,
  0x2d, 0x17, 0xcd, 0xbd, 0xbc, 0x41, 0x29, 0x3e, 0x47, 0x0e, 0xa4, 0xbe,
  0x61, 0xde, 0x80, 0xbe, 0x20, 0x58, 0x29, 0xbe, 0x9a, 0x5c, 0x49, 0x3e,
  0xfe, 0x71, 0x88, 0x3d, 0x06, 0x6f, 0x34, 0xbd, 0xa3, 0xd1, 0xab, 0xbc,
  0x7c, 0x09, 0x9c, 0x3c, 0x90, 0x52, 0x38, 0xbe, 0xf4, 0x27, 0x78, 0x3d,
  0xe8, 0x50, 0x5a, 0x3d, 0x1e, 0x34, 0x90, 0xbd, 0x1e, 0xb1, 0xdd, 0x3d,
  0xa7, 0x1b, 0x81, 0xbe, 0x39, 0xe9, 0x57, 0x3e, 0x9e, 0xa1, 0xd1, 0xbd,
  0x64, 0x48, 0xbd, 0xbd, 0x1c, 0x74, 0x05, 0xbe, 0x5b, 0x62, 0x91, 0xbe,
  0x69, 0x82, 0x81, 0x3e, 0x49, 0xcc, 0x6c, 0xbc, 0xb8, 0xd2, 0xc5, 0x3e,
  0xf1, 0xef, 0xf0, 0xbe, 0xe5, 0x13, 0x8e, 0x3d, 0x43, 0x5d, 0x71, 0xbd,
  0x36, 0x72, 0x83, 0xbd, 0xfa, 0x60, 0x80, 0xbe, 0x9f, 0x4d, 0x49, 0x3e,
  0x43, 0xc3, 0x67, 0x3c, 0xb0, 0x91, 0x84, 0xbe, 0x28, 0x6f, 0x08, 0x3e,
  0x90, 0xec, 0xce, 0xbd, 0xa1, 0x12, 0x17, 0xbe, 0x7a, 0xe8, 0x4d, 0x3d,
  0x0c, 0x4f, 0xd5, 0x3e, 0x41, 0xd7, 0xa2, 0xbe, 0x77, 0x12, 0x29, 0x3d,
  0x26, 0x2d, 0x7b, 0x3e, 0x01, 0xc7, 0xa5, 0x3c, 0x49, 0xf9, 0x8f, 0xbe,
  0xae, 0x59, 0x63, 0x3c, 0x38, 0x5b, 0xce, 0xbe, 0x08, 0x0b, 0x7d, 0xbd,
  0xcf, 0x3e, 0xd7, 0xbd, 0xc1, 0x06, 0xa5, 0xbe, 0xfa, 0xb3, 0x9d, 0xbe,
  0xab, 0xe7, 0x48, 0xbe, 0x84, 0x6d, 0x39, 0xbe, 0xe6, 0x0e, 0x76, 0x3a,
  0x3e, 0x0c, 0xd4, 0x3d, 0x44, 0xc8, 0x05, 0xbc, 0x71, 0x3b, 0x45, 0xbe,
  0xe9, 0x3a, 0x0d, 0xbe, 0xdf, 0xd3, 0x1a, 0xbd, 0x32, 0x0c, 0x5f, 0x3e,
  0x62, 0xd8, 0x7c, 0xbb, 0x82, 0x07, 0xa6, 0xba, 0xd7, 0xa1, 0xb1, 0xbe,
  0xeb, 0x68, 0x6a, 0x3e, 0x30, 0x81, 0x8b, 0xbe, 0x10, 0x08, 0xf9, 0xbb,
  0x66, 0x26, 0xf1, 0xbd, 0xc1, 0xae, 0xc2, 0xbe, 0x3d, 0xea, 0x43, 0x3e,
  0x79, 0x29, 0x8c, 0xbd, 0x74, 0x72, 0x24, 0xbe, 0xee, 0xfa, 0x83, 0x3d,
  0x3b, 0x81, 0x32, 0x3d, 0x9a, 0x05, 0x31, 0x3e, 0x0d, 0xfe, 0x18, 0x3e,
  0xce, 0xd2, 0x6c, 0x3e, 0x77, 0x3a, 0x2c, 0xbe, 0x34, 0x1b, 0x11, 0xbe,
  0xac, 0xf7, 0x8e, 0x3d, 0x91, 0xf1, 0x23, 0x3e, 0x8f, 0xa2, 0x4b, 0xbe,
  0xf8, 0x0f, 0xcc, 0xbe, 0xcd, 0x49, 0x8c, 0x3e, 0xa1, 0x2e, 0xd2, 0xbd,
  0xac, 0x61, 0xa7, 0x3d, 0x77, 0xbb, 0x1e, 0x3e, 0xf9, 0x98, 0xf7, 0xbd,
  0xc6, 0xc9, 0x20, 0x3e, 0xc5, 0x28, 0xb9, 0xbb, 0x86, 0x0a, 0xbc, 0x3c,
  0xad, 0x9e, 0x59, 0xbe, 0x78, 0x4a, 0xdb, 0x3d, 0xe3, 0xc4, 0x6a, 0x3e,
  0x17, 0xc1, 0xb3, 0x3e, 0x43, 0x29, 0xb8, 0x3d, 0xbd, 0x14, 0x02, 0x3e,
  0x43, 0xd3, 0x28, 0xbe, 0x52, 0xdf, 0x94, 0xbd, 0x4b, 0xa0, 0x98, 0xbd,
  0x17, 0xc1, 0x99, 0x3e, 0x91, 0x28, 0x48, 0xbe, 0x06, 0xff, 0xff, 0xff,
  0x04, 0x00, 0x00, 0x00, 0x0c, 0x00, 0x00, 0x00, 0xff, 0xff, 0xff, 0xff,
  0x06, 0x00, 0x00, 0x00, 0x10, 0x00, 0x00, 0x00, 0x1e, 0xff, 0xff, 0xff,
  0x04, 0x00, 0x00, 0x00, 0x40, 0x00, 0x00, 0x00, 0x07, 0x31, 0x89, 0x3e,
  0x10, 0xb6, 0x42, 0xbc, 0xcd, 0x82, 0x01, 0xbf, 0x8d, 0xc7, 0xe9, 0x3d,
  0xc5, 0x5c, 0xa5, 0x3e, 0xb0, 0x45, 0x8c, 0xbe, 0x94, 0xdc, 0xf1, 0x3e,
  0x93, 0x96, 0x3f, 0x3e, 0xa3, 0xce, 0x47, 0x3d, 0x30, 0x12, 0x95, 0xbe,
  0x5f, 0xe5, 0xd2, 0xbc, 0x08, 0x45, 0x25, 0xbf, 0xcd, 0x61, 0x8d, 0x3e,
  0xac, 0xb4, 0xee, 0x3d, 0xbc, 0xc0, 0x06, 0xbf, 0xe6, 0xee, 0x2d, 0x3e,
  0x5c, 0xf6, 0xff, 0xff, 0x60, 0xf6, 0xff, 0xff, 0x0f, 0x00, 0x00, 0x00,
  0x4d, 0x4c, 0x49, 0x52, 0x20, 0x43, 0x6f, 0x6e, 0x76, 0x65, 0x72, 0x74,
  0x65, 0x64, 0x2e, 0x00, 0x01, 0x00, 0x00, 0x00, 0x14, 0x00, 0x00, 0x00,
  0x00, 0x00, 0x0e, 0x00, 0x18, 0x00, 0x14, 0x00, 0x10, 0x00, 0x0c, 0x00,
  0x08, 0x00, 0x04, 0x00, 0x0e, 0x00, 0x00, 0x00, 0x14, 0x00, 0x00, 0x00,
  0x1c, 0x00, 0x00, 0x00, 0x00, 0x02, 0x00, 0x00, 0x04, 0x02, 0x00, 0x00,
  0x08, 0x02, 0x00, 0x00, 0x04, 0x00, 0x00, 0x00, 0x6d, 0x61, 0x69, 0x6e,
  0x00, 0x00, 0x00, 0x00, 0x08, 0x00, 0x00, 0x00, 0xb8, 0x01, 0x00, 0x00,
  0x58, 0x01, 0x00, 0x00, 0x24, 0x01, 0x00, 0x00, 0xf0, 0x00, 0x00, 0x00,
  0xbc, 0x00, 0x00, 0x00, 0x78, 0x00, 0x00, 0x00, 0x40, 0x00, 0x00, 0x00,
  0x04, 0x00, 0x00, 0x00, 0xd2, 0xfe, 0xff, 0xff, 0x1c, 0x00, 0x00, 0x00,
  0x00, 0x00, 0x00, 0x09, 0x1c, 0x00, 0x00, 0x00, 0x20, 0x00, 0x00, 0x00,
  0x06, 0x00, 0x00, 0x00, 0x00, 0x00, 0x06, 0x00, 0x08, 0x00, 0x04, 0x00,
  0x06, 0x00, 0x00, 0x00, 0x00, 0x00, 0x80, 0x3f, 0x01, 0x00, 0x00, 0x00,
  0x11, 0x00, 0x00, 0x00, 0x01, 0x00, 0x00, 0x00, 0x10, 0x00, 0x00, 0x00,
  0x0a, 0xff, 0xff, 0xff, 0x14, 0x00, 0x00, 0x00, 0x00, 0x00, 0x00, 0x08,
  0x10, 0x00, 0x00, 0x00, 0x14, 0x00, 0x00, 0x00, 0x05, 0x00, 0x00, 0x00,
  0x28, 0xf7, 0xff, 0xff, 0x01, 0x00, 0x00, 0x00, 0x10, 0x00, 0x00, 0x00,
  0x03, 0x00, 0x00, 0x00, 0x0f, 0x00, 0x00, 0x00, 0x04, 0x00, 0x00, 0x00,
  0x07, 0x00, 0x00, 0x00, 0x3e, 0xff, 0xff, 0xff, 0x1c, 0x00, 0x00, 0x00,
  0x00, 0x00, 0x00, 0x08, 0x1c, 0x00, 0x00, 0x00, 0x20, 0x00, 0x00, 0x00,
  0x05, 0x00, 0x00, 0x00, 0x00, 0x00, 0x06, 0x00, 0x08, 0x00, 0x07, 0x00,
  0x06, 0x00, 0x00, 0x00, 0x00, 0x00, 0x00, 0x01, 0x01, 0x00, 0x00, 0x00,
  0x0f, 0x00, 0x00, 0x00, 0x03, 0x00, 0x00, 0x00, 0x0e, 0x00, 0x00, 0x00,
  0x05, 0x00, 0x00, 0x00, 0x06, 0x00, 0x00, 0x00, 0x7e, 0xff, 0xff, 0xff,
  0x14, 0x00, 0x00, 0x00, 0x00, 0x00, 0x00, 0x1b, 0x10, 0x00, 0x00, 0x00,
  0x14, 0x00, 0x00, 0x00, 0x04, 0x00, 0x00, 0x00, 0x9c, 0xf7, 0xff, 0xff,
  0x01, 0x00, 0x00, 0x00, 0x0e, 0x00, 0x00, 0x00, 0x02, 0x00, 0x00, 0x00,
  0x0d, 0x00, 0x00, 0x00, 0x08, 0x00, 0x00, 0x00, 0xda, 0xff, 0xff, 0xff,
  0x0c, 0x00, 0x00, 0x00, 0x10, 0x00, 0x00, 0x00, 0x03, 0x00, 0x00, 0x00,
  0x01, 0x00, 0x00, 0x00, 0x0d, 0x00, 0x00, 0x00, 0x02, 0x00, 0x00, 0x00,
  0x0c, 0x00, 0x00, 0x00, 0x02, 0x00, 0x00, 0x00, 0x00, 0x00, 0x0a, 0x00,
  0x10, 0x00, 0x0c, 0x00, 0x08, 0x00, 0x04, 0x00, 0x0a, 0x00, 0x00, 0x00,
  0x0c, 0x00, 0x00, 0x00, 0x10, 0x00, 0x00, 0x00, 0x02, 0x00, 0x00, 0x00,
  0x01, 0x00, 0x00, 0x00, 0x0c, 0x00, 0x00, 0x00, 0x01, 0x00, 0x00, 0x00,
  0x0b, 0x00, 0x00, 0x00, 0x00, 0x00, 0x0e, 0x00, 0x1a, 0x00, 0x14, 0x00,
  0x10, 0x00, 0x0c, 0x00, 0x0b, 0x00, 0x04, 0x00, 0x0e, 0x00, 0x00, 0x00,
  0x20, 0x00, 0x00, 0x00, 0x00, 0x00, 0x00, 0x01, 0x28, 0x00, 0x00, 0x00,
  0x2c, 0x00, 0x00, 0x00, 0x01, 0x00, 0x00, 0x00, 0x00, 0x00, 0x0a, 0x00,
  0x10, 0x00, 0x0f, 0x00, 0x08, 0x00, 0x04, 0x00, 0x0a, 0x00, 0x00, 0x00,
  0x01, 0x00, 0x00, 0x00, 0x01, 0x00, 0x00, 0x00, 0x00, 0x00, 0x00, 0x01,
  0x01, 0x00, 0x00, 0x00, 0x0b, 0x00, 0x00, 0x00, 0x03, 0x00, 0x00, 0x00,
  0x0a, 0x00, 0x00, 0x00, 0x03, 0x00, 0x00, 0x00, 0x01, 0x00, 0x00, 0x00,
  0x00, 0x00, 0x0e, 0x00, 0x14, 0x00, 0x00, 0x00, 0x10, 0x00, 0x0c, 0x00,
  0x0b, 0x00, 0x04, 0x00, 0x0e, 0x00, 0x00, 0x00, 0x10, 0x00, 0x00, 0x00,
  0x00, 0x00, 0x00, 0x34, 0x0c, 0x00, 0x00, 0x00, 0x10, 0x00, 0x00, 0x00,
  0x84, 0xf8, 0xff, 0xff, 0x01, 0x00, 0x00, 0x00, 0x0a, 0x00, 0x00, 0x00,
  0x02, 0x00, 0x00, 0x00, 0x00, 0x00, 0x00, 0x00, 0x09, 0x00, 0x00, 0x00,
  0x01, 0x00, 0x00, 0x00, 0x11, 0x00, 0x00, 0x00, 0x01, 0x00, 0x00, 0x00,
  0x00, 0x00, 0x00, 0x00, 0x12, 0x00, 0x00, 0x00, 0x24, 0x07, 0x00, 0x00,
  0xd0, 0x06, 0x00, 0x00, 0x78, 0x06, 0x00, 0x00, 0x18, 0x06, 0x00, 0x00,
  0xd8, 0x05, 0x00, 0x00, 0x98, 0x05, 0x00, 0x00, 0x5c, 0x05, 0x00, 0x00,
  0x20, 0x05, 0x00, 0x00, 0xe4, 0x04, 0x00, 0x00, 0x84, 0x04, 0x00, 0x00,
  0x04, 0x04, 0x00, 0x00, 0x48, 0x03, 0x00, 0x00, 0x94, 0x02, 0x00, 0x00,
  0xe4, 0x01, 0x00, 0x00, 0x74, 0x01, 0x00, 0x00, 0xe0, 0x00, 0x00, 0x00,
  0x60, 0x00, 0x00, 0x00, 0x04, 0x00, 0x00, 0x00, 0x3a, 0xf9, 0xff, 0xff,
  0x00, 0x00, 0x00, 0x01, 0x14, 0x00, 0x00, 0x00, 0x1c, 0x00, 0x00, 0x00,
  0x1c, 0x00, 0x00, 0x00, 0x12, 0x00, 0x00, 0x00, 0x34, 0x00, 0x00, 0x00,
  0x02, 0x00, 0x00, 0x00, 0xff, 0xff, 0xff, 0xff, 0x03, 0x00, 0x00, 0x00,
  0x20, 0xf9, 0xff, 0xff, 0x1b, 0x00, 0x00, 0x00, 0x53, 0x74, 0x61, 0x74,
  0x65, 0x66, 0x75, 0x6c, 0x50, 0x61, 0x72, 0x74, 0x69, 0x74, 0x69, 0x6f,
  0x6e, 0x65, 0x64, 0x43, 0x61, 0x6c, 0x6c, 0x5f, 0x31, 0x3a, 0x30, 0x00,
  0x02, 0x00, 0x00, 0x00, 0x01, 0x00, 0x00, 0x00, 0x03, 0x00, 0x00, 0x00,
  0x92, 0xf9, 0xff, 0xff, 0x00, 0x00, 0x00, 0x01, 0x14, 0x00, 0x00, 0x00,
  0x1c, 0x00, 0x00, 0x00, 0x1c, 0x00, 0x00, 0x00, 0x11, 0x00, 0x00, 0x00,
  0x58, 0x00, 0x00, 0x00, 0x02, 0x00, 0x00, 0x00, 0xff, 0xff, 0xff, 0xff,
  0x03, 0x00, 0x00, 0x00, 0x78, 0xf9, 0xff, 0xff, 0x3c, 0x00, 0x00, 0x00,
  0x73, 0x65, 0x71, 0x75, 0x65, 0x6e, 0x74, 0x69, 0x61, 0x6c, 0x5f, 0x31,
  0x2f, 0x64, 0x65, 0x6e, 0x73, 0x65, 0x5f, 0x31, 0x5f, 0x32, 0x2f, 0x4d,
  0x61, 0x74, 0x4d, 0x75, 0x6c, 0x3b, 0x73, 0x65, 0x71, 0x75, 0x65, 0x6e,
  0x74, 0x69, 0x61, 0x6c, 0x5f, 0x31, 0x2f, 0x64, 0x65, 0x6e, 0x73, 0x65,
  0x5f, 0x31, 0x5f, 0x32, 0x2f, 0x42, 0x69, 0x61, 0x73, 0x41, 0x64, 0x64,
  0x00, 0x00, 0x00, 0x00, 0x02, 0x00, 0x00, 0x00, 0x01, 0x00, 0x00, 0x00,
  0x03, 0x00, 0x00, 0x00, 0x0e, 0xfa, 0xff, 0xff, 0x00, 0x00, 0x00, 0x01,
  0x14, 0x00, 0x00, 0x00, 0x1c, 0x00, 0x00, 0x00, 0x1c, 0x00, 0x00, 0x00,
  0x10, 0x00, 0x00, 0x00, 0x6c, 0x00, 0x00, 0x00, 0x02, 0x00, 0x00, 0x00,
  0xff, 0xff, 0xff, 0xff, 0x08, 0x00, 0x00, 0x00, 0xf4, 0xf9, 0xff, 0xff,
  0x52, 0x00, 0x00, 0x00, 0x73, 0x65, 0x71, 0x75, 0x65, 0x6e, 0x74, 0x69,
  0x61, 0x6c, 0x5f, 0x31, 0x2f, 0x64, 0x65, 0x6e, 0x73, 0x65, 0x5f, 0x31,
  0x2f, 0x4d, 0x61, 0x74, 0x4d, 0x75, 0x6c, 0x3b, 0x73, 0x65, 0x71, 0x75,
  0x65, 0x6e, 0x74, 0x69, 0x61, 0x6c, 0x5f, 0x31, 0x2f, 0x64, 0x65, 0x6e,
  0x73, 0x65, 0x5f, 0x31, 0x2f, 0x52, 0x65, 0x6c, 0x75, 0x3b, 0x73, 0x65,
  0x71, 0x75, 0x65, 0x6e, 0x74, 0x69, 0x61, 0x6c, 0x5f, 0x31, 0x2f, 0x64,
  0x65, 0x6e, 0x73, 0x65, 0x5f, 0x31, 0x2f, 0x42, 0x69, 0x61, 0x73, 0x41,
  0x64, 0x64, 0x00, 0x00, 0x02, 0x00, 0x00, 0x00, 0x01, 0x00, 0x00, 0x00,
  0x08, 0x00, 0x00, 0x00, 0x9e, 0xfa, 0xff, 0xff, 0x00, 0x00, 0x00, 0x01,
  0x14, 0x00, 0x00, 0x00, 0x1c, 0x00, 0x00, 0x00, 0x1c, 0x00, 0x00, 0x00,
  0x0f, 0x00, 0x00, 0x00, 0x48, 0x00, 0x00, 0x00, 0x02, 0x00, 0x00, 0x00,
  0xff, 0xff, 0xff, 0xff, 0x10, 0x00, 0x00, 0x00, 0x84, 0xfa, 0xff, 0xff,
  0x2c, 0x00, 0x00, 0x00, 0x73, 0x65, 0x71, 0x75, 0x65, 0x6e, 0x74, 0x69,
  0x61, 0x6c, 0x5f, 0x31, 0x2f, 0x67, 0x6c, 0x6f, 0x62, 0x61, 0x6c, 0x5f,
  0x61, 0x76, 0x65, 0x72, 0x61, 0x67, 0x65, 0x5f, 0x70, 0x6f, 0x6f, 0x6c,
  0x69, 0x6e, 0x67, 0x31, 0x64, 0x5f, 0x31, 0x2f, 0x4d, 0x65, 0x61, 0x6e,
  0x00, 0x00, 0x00, 0x00, 0x02, 0x00, 0x00, 0x00, 0x01, 0x00, 0x00, 0x00,
  0x10, 0x00, 0x00, 0x00, 0x0a, 0xfb, 0xff, 0xff, 0x00, 0x00, 0x00, 0x01,
  0x14, 0x00, 0x00, 0x00, 0x20, 0x00, 0x00, 0x00, 0x20, 0x00, 0x00, 0x00,
  0x0e, 0x00, 0x00, 0x00, 0x84, 0x00, 0x00, 0x00, 0x03, 0x00, 0x00, 0x00,
  0xff, 0xff, 0xff, 0xff, 0x06, 0x00, 0x00, 0x00, 0x10, 0x00, 0x00, 0x00,
  0xf4, 0xfa, 0xff, 0xff, 0x64, 0x00, 0x00, 0x00, 0x73, 0x65, 0x71, 0x75,
  0x65, 0x6e, 0x74, 0x69, 0x61, 0x6c, 0x5f, 0x31, 0x2f, 0x63, 0x6f, 0x6e,
  0x76, 0x31, 0x64, 0x5f, 0x31, 0x2f, 0x54, 0x61, 0x6e, 0x68, 0x3b, 0x73,
  0x65, 0x71, 0x75, 0x65, 0x6e, 0x74, 0x69, 0x61, 0x6c, 0x5f, 0x31, 0x2f,
  0x63, 0x6f, 0x6e, 0x76, 0x31, 0x64, 0x5f, 0x31, 0x2f, 0x42, 0x69, 0x61,
  0x73, 0x41, 0x64, 0x64, 0x3b, 0x73, 0x65, 0x71, 0x75, 0x65, 0x6e, 0x74,
  0x69, 0x61, 0x6c, 0x5f, 0x31, 0x2f, 0x63, 0x6f, 0x6e, 0x76, 0x31, 0x64,
  0x5f, 0x31, 0x2f, 0x63, 0x6f, 0x6e, 0x76, 0x6f, 0x6c, 0x75, 0x74, 0x69,
  0x6f, 0x6e, 0x2f, 0x53, 0x71, 0x75, 0x65, 0x65, 0x7a, 0x65, 0x3b, 0x31,
  0x00, 0x00, 0x00, 0x00, 0x03, 0x00, 0x00, 0x00, 0x01, 0x00, 0x00, 0x00,
  0x06, 0x00, 0x00, 0x00, 0x10, 0x00, 0x00, 0x00, 0xb6, 0xfb, 0xff, 0xff,
  0x00, 0x00, 0x00, 0x01, 0x14, 0x00, 0x00, 0x00, 0x24, 0x00, 0x00, 0x00,
  0x24, 0x00, 0x00, 0x00, 0x0d, 0x00, 0x00, 0x00, 0x84, 0x00, 0x00, 0x00,
  0x04, 0x00, 0x00, 0x00, 0xff, 0xff, 0xff, 0xff, 0x01, 0x00, 0x00, 0x00,
  0x06, 0x00, 0x00, 0x00, 0x10, 0x00, 0x00, 0x00, 0xa4, 0xfb, 0xff, 0xff,
  0x63, 0x00, 0x00, 0x00, 0x73, 0x65, 0x71, 0x75, 0x65, 0x6e, 0x74, 0x69,
  0x61, 0x6c, 0x5f, 0x31, 0x2f, 0x63, 0x6f, 0x6e, 0x76, 0x31, 0x64, 0x5f,
  0x31, 0x2f, 0x54, 0x61, 0x6e, 0x68, 0x3b, 0x73, 0x65, 0x71, 0x75, 0x65,
  0x6e, 0x74, 0x69, 0x61, 0x6c, 0x5f, 0x31, 0x2f, 0x63, 0x6f, 0x6e, 0x76,
  0x31, 0x64, 0x5f, 0x31, 0x2f, 0x42, 0x69, 0x61, 0x73, 0x41, 0x64, 0x64,
  0x3b, 0x73, 0x65, 0x71, 0x75, 0x65, 0x6e, 0x74, 0x69, 0x61, 0x6c, 0x5f,
  0x31, 0x2f, 0x63, 0x6f, 0x6e, 0x76, 0x31, 0x64, 0x5f, 0x31, 0x2f, 0x63,
  0x6f, 0x6e, 0x76, 0x6f, 0x6c, 0x75, 0x74, 0x69, 0x6f, 0x6e, 0x2f, 0x53,
  0x71, 0x75, 0x65, 0x65, 0x7a, 0x65, 0x3b, 0x00, 0x04, 0x00, 0x00, 0x00,
  0x01, 0x00, 0x00, 0x00, 0x01, 0x00, 0x00, 0x00, 0x06, 0x00, 0x00, 0x00,
  0x10, 0x00, 0x00, 0x00, 0x66, 0xfc, 0xff, 0xff, 0x00, 0x00, 0x00, 0x01,
  0x14, 0x00, 0x00, 0x00, 0x24, 0x00, 0x00, 0x00, 0x24, 0x00, 0x00, 0x00,
  0x0c, 0x00, 0x00, 0x00, 0x8c, 0x00, 0x00, 0x00, 0x04, 0x00, 0x00, 0x00,
  0xff, 0xff, 0xff, 0xff, 0x01, 0x00, 0x00, 0x00, 0x06, 0x00, 0x00, 0x00,
  0x10, 0x00, 0x00, 0x00, 0x54, 0xfc, 0xff, 0xff, 0x6a, 0x00, 0x00, 0x00,
  0x73, 0x65, 0x71, 0x75, 0x65, 0x6e, 0x74, 0x69, 0x61, 0x6c, 0x5f, 0x31,
  0x2f, 0x63, 0x6f, 0x6e, 0x76, 0x31, 0x64, 0x5f, 0x31, 0x2f, 0x42, 0x69,
  0x61, 0x73, 0x41, 0x64, 0x64, 0x3b, 0x73, 0x65, 0x71, 0x75, 0x65, 0x6e,
  0x74, 0x69, 0x61, 0x6c, 0x5f, 0x31, 0x2f, 0x63, 0x6f, 0x6e, 0x76, 0x31,
  0x64, 0x5f, 0x31, 0x2f, 0x63, 0x6f, 0x6e, 0x76, 0x6f, 0x6c, 0x75, 0x74,
  0x69, 0x6f, 0x6e, 0x2f, 0x53, 0x71, 0x75, 0x65, 0x65, 0x7a, 0x65, 0x3b,
  0x3b, 0x73, 0x65, 0x71, 0x75, 0x65, 0x6e, 0x74, 0x69, 0x61, 0x6c, 0x5f,
  0x31, 0x2f, 0x63, 0x6f, 0x6e, 0x76, 0x31, 0x64, 0x5f, 0x31, 0x2f, 0x63,
  0x6f, 0x6e, 0x76, 0x6f, 0x6c, 0x75, 0x74, 0x69, 0x6f, 0x6e, 0x00, 0x00,
  0x04, 0x00, 0x00, 0x00, 0x01, 0x00, 0x00, 0x00, 0x01, 0x00, 0x00, 0x00,
  0x06, 0x00, 0x00, 0x00, 0x10, 0x00, 0x00, 0x00, 0x1e, 0xfd, 0xff, 0xff,
  0x00, 0x00, 0x00, 0x01, 0x14, 0x00, 0x00, 0x00, 0x24, 0x00, 0x00, 0x00,
  0x24, 0x00, 0x00, 0x00, 0x0b, 0x00, 0x00, 0x00, 0x50, 0x00, 0x00, 0x00,
  0x04, 0x00, 0x00, 0x00, 0xff, 0xff, 0xff, 0xff, 0x01, 0x00, 0x00, 0x00,
  0x08, 0x00, 0x00, 0x00, 0x06, 0x00, 0x00, 0x00, 0x0c, 0xfd, 0xff, 0xff,
  0x2c, 0x00, 0x00, 0x00, 0x73, 0x65, 0x71, 0x75, 0x65, 0x6e, 0x74, 0x69,
  0x61, 0x6c, 0x5f, 0x31, 0x2f, 0x63, 0x6f, 0x6e, 0x76, 0x31, 0x64, 0x5f,
  0x31, 0x2f, 0x63, 0x6f, 0x6e, 0x76, 0x6f, 0x6c, 0x75, 0x74, 0x69, 0x6f,
  0x6e, 0x2f, 0x45, 0x78, 0x70, 0x61, 0x6e, 0x64, 0x44, 0x69, 0x6d, 0x73,
  0x00, 0x00, 0x00, 0x00, 0x04, 0x00, 0x00, 0x00, 0x01, 0x00, 0x00, 0x00,
  0x01, 0x00, 0x00, 0x00, 0x08, 0x00, 0x00, 0x00, 0x06, 0x00, 0x00, 0x00,
  0x3e, 0xfe, 0xff, 0xff, 0x00, 0x00, 0x00, 0x01, 0x14, 0x00, 0x00, 0x00,
  0x14, 0x00, 0x00, 0x00, 0x0a, 0x00, 0x00, 0x00, 0x00, 0x00, 0x00, 0x02,
  0x40, 0x00, 0x00, 0x00, 0x74, 0xfd, 0xff, 0xff, 0x30, 0x00, 0x00, 0x00,
  0x73, 0x65, 0x71, 0x75, 0x65, 0x6e, 0x74, 0x69, 0x61, 0x6c, 0x5f, 0x31,
  0x2f, 0x63, 0x6f, 0x6e, 0x76, 0x31, 0x64, 0x5f, 0x31, 0x2f, 0x63, 0x6f,
  0x6e, 0x76, 0x6f, 0x6c, 0x75, 0x74, 0x69, 0x6f, 0x6e, 0x2f, 0x45, 0x78,
  0x70, 0x61, 0x6e, 0x64, 0x44, 0x69, 0x6d, 0x73, 0x2f, 0x64, 0x69, 0x6d,
  0x00, 0x00, 0x00, 0x00, 0x00, 0x00, 0x00, 0x00, 0x9a, 0xfe, 0xff, 0xff,
  0x00, 0x00, 0x00, 0x01, 0x14, 0x00, 0x00, 0x00, 0x14, 0x00, 0x00, 0x00,
  0x09, 0x00, 0x00, 0x00, 0x00, 0x00, 0x00, 0x02, 0x1c, 0x00, 0x00, 0x00,
  0xd0, 0xfd, 0xff, 0xff, 0x0f, 0x00, 0x00, 0x00, 0x61, 0x72, 0x69, 0x74,
  0x68, 0x2e, 0x63, 0x6f, 0x6e, 0x73, 0x74, 0x61, 0x6e, 0x74, 0x37, 0x00,
  0x00, 0x00, 0x00, 0x00, 0x7e, 0xfe, 0xff, 0xff, 0x00, 0x00, 0x00, 0x01,
  0x10, 0x00, 0x00, 0x00, 0x10, 0x00, 0x00, 0x00, 0x08, 0x00, 0x00, 0x00,
  0x1c, 0x00, 0x00, 0x00, 0x04, 0xfe, 0xff, 0xff, 0x0f, 0x00, 0x00, 0x00,
  0x61, 0x72, 0x69, 0x74, 0x68, 0x2e, 0x63, 0x6f, 0x6e, 0x73, 0x74, 0x61,
  0x6e, 0x74, 0x36, 0x00, 0x01, 0x00, 0x00, 0x00, 0x03, 0x00, 0x00, 0x00,
  0xb6, 0xfe, 0xff, 0xff, 0x00, 0x00, 0x00, 0x01, 0x10, 0x00, 0x00, 0x00,
  0x10, 0x00, 0x00, 0x00, 0x07, 0x00, 0x00, 0x00, 0x1c, 0x00, 0x00, 0x00,
  0x3c, 0xfe, 0xff, 0xff, 0x0f, 0x00, 0x00, 0x00, 0x61, 0x72, 0x69, 0x74,
  0x68, 0x2e, 0x63, 0x6f, 0x6e, 0x73, 0x74, 0x61, 0x6e, 0x74, 0x35, 0x00,
  0x01, 0x00, 0x00, 0x00, 0x08, 0x00, 0x00, 0x00, 0xee, 0xfe, 0xff, 0xff,
  0x00, 0x00, 0x00, 0x01, 0x10, 0x00, 0x00, 0x00, 0x10, 0x00, 0x00, 0x00,
  0x06, 0x00, 0x00, 0x00, 0x1c, 0x00, 0x00, 0x00, 0x74, 0xfe, 0xff, 0xff,
  0x0f, 0x00, 0x00, 0x00, 0x61, 0x72, 0x69, 0x74, 0x68, 0x2e, 0x63, 0x6f,
  0x6e, 0x73, 0x74, 0x61, 0x6e, 0x74, 0x34, 0x00, 0x02, 0x00, 0x00, 0x00,
  0x08, 0x00, 0x00, 0x00, 0x10, 0x00, 0x00, 0x00, 0x2a, 0xff, 0xff, 0xff,
  0x00, 0x00, 0x00, 0x01, 0x10, 0x00, 0x00, 0x00, 0x10, 0x00, 0x00, 0x00,
  0x05, 0x00, 0x00, 0x00, 0x1c, 0x00, 0x00, 0x00, 0xb0, 0xfe, 0xff, 0xff,
  0x0f, 0x00, 0x00, 0x00, 0x61, 0x72, 0x69, 0x74, 0x68, 0x2e, 0x63, 0x6f,
  0x6e, 0x73, 0x74, 0x61, 0x6e, 0x74, 0x33, 0x00, 0x02, 0x00, 0x00, 0x00,
  0x03, 0x00, 0x00, 0x00, 0x08, 0x00, 0x00, 0x00, 0x66, 0xff, 0xff, 0xff,
  0x00, 0x00, 0x00, 0x01, 0x10, 0x00, 0x00, 0x00, 0x10, 0x00, 0x00, 0x00,
  0x04, 0x00, 0x00, 0x00, 0x1c, 0x00, 0x00, 0x00, 0xec, 0xfe, 0xff, 0xff,
  0x0f, 0x00, 0x00, 0x00, 0x61, 0x72, 0x69, 0x74, 0x68, 0x2e, 0x63, 0x6f,
  0x6e, 0x73, 0x74, 0x61, 0x6e, 0x74, 0x32, 0x00, 0x04, 0x00, 0x00, 0x00,
  0x10, 0x00, 0x00, 0x00, 0x01, 0x00, 0x00, 0x00, 0x03, 0x00, 0x00, 0x00,
  0x06, 0x00, 0x00, 0x00, 0x00, 0x00, 0x16, 0x00, 0x1c, 0x00, 0x18, 0x00,
  0x17, 0x00, 0x10, 0x00, 0x0c, 0x00, 0x08, 0x00, 0x00, 0x00, 0x00, 0x00,
  0x00, 0x00, 0x07, 0x00, 0x16, 0x00, 0x00, 0x00, 0x00, 0x00, 0x00, 0x01,
  0x14, 0x00, 0x00, 0x00, 0x14, 0x00, 0x00, 0x00, 0x03, 0x00, 0x00, 0x00,
  0x00, 0x00, 0x00, 0x02, 0x1c, 0x00, 0x00, 0x00, 0x4c, 0xff, 0xff, 0xff,
  0x0f, 0x00, 0x00, 0x00, 0x61, 0x72, 0x69, 0x74, 0x68, 0x2e, 0x63, 0x6f,
  0x6e, 0x73, 0x74, 0x61, 0x6e, 0x74, 0x31, 0x00, 0x01, 0x00, 0x00, 0x00,
  0x03, 0x00, 0x00, 0x00, 0x00, 0x00, 0x16, 0x00, 0x18, 0x00, 0x14, 0x00,
  0x00, 0x00, 0x10, 0x00, 0x0c, 0x00, 0x08, 0x00, 0x00, 0x00, 0x00, 0x00,
  0x00, 0x00, 0x07, 0x00, 0x16, 0x00, 0x00, 0x00, 0x00, 0x00, 0x00, 0x01,
  0x10, 0x00, 0x00, 0x00, 0x10, 0x00, 0x00, 0x00, 0x02, 0x00, 0x00, 0x00,
  0x1c, 0x00, 0x00, 0x00, 0x9c, 0xff, 0xff, 0xff, 0x0e, 0x00, 0x00, 0x00,
  0x61, 0x72, 0x69, 0x74, 0x68, 0x2e, 0x63, 0x6f, 0x6e, 0x73, 0x74, 0x61,
  0x6e, 0x74, 0x00, 0x00, 0x01, 0x00, 0x00, 0x00, 0x10, 0x00, 0x00, 0x00,
  0x00, 0x00, 0x16, 0x00, 0x1c, 0x00, 0x18, 0x00, 0x00, 0x00, 0x14, 0x00,
  0x10, 0x00, 0x0c, 0x00, 0x00, 0x00, 0x00, 0x00, 0x08, 0x00, 0x07, 0x00,
  0x16, 0x00, 0x00, 0x00, 0x00, 0x00, 0x00, 0x01, 0x14, 0x00, 0x00, 0x00,
  0x24, 0x00, 0x00, 0x00, 0x24, 0x00, 0x00, 0x00, 0x01, 0x00, 0x00, 0x00,
  0x40, 0x00, 0x00, 0x00, 0x03, 0x00, 0x00, 0x00, 0xff, 0xff, 0xff, 0xff,
  0x08, 0x00, 0x00, 0x00, 0x06, 0x00, 0x00, 0x00, 0x04, 0x00, 0x04, 0x00,
  0x04, 0x00, 0x00, 0x00, 0x1e, 0x00, 0x00, 0x00, 0x73, 0x65, 0x72, 0x76,
  0x69, 0x6e, 0x67, 0x5f, 0x64, 0x65, 0x66, 0x61, 0x75, 0x6c, 0x74, 0x5f,
  0x6b, 0x65, 0x72, 0x61, 0x73, 0x5f, 0x74, 0x65, 0x6e, 0x73, 0x6f, 0x72,
  0x3a, 0x30, 0x00, 0x00, 0x03, 0x00, 0x00, 0x00, 0x01, 0x00, 0x00, 0x00,
  0x08, 0x00, 0x00, 0x00, 0x06, 0x00, 0x00, 0x00, 0x07, 0x00, 0x00, 0x00,
  0x70, 0x00, 0x00, 0x00, 0x54, 0x00, 0x00, 0x00, 0x44, 0x00, 0x00, 0x00,
  0x34, 0x00, 0x00, 0x00, 0x24, 0x00, 0x00, 0x00, 0x14, 0x00, 0x00, 0x00,
  0x04, 0x00, 0x00, 0x00, 0xb8, 0xff, 0xff, 0xff, 0x19, 0x00, 0x00, 0x00,
  0x00, 0x00, 0x00, 0x19, 0xc4, 0xff, 0xff, 0xff, 0x09, 0x00, 0x00, 0x00,
  0x00, 0x00, 0x00, 0x09, 0xd0, 0xff, 0xff, 0xff, 0x28, 0x00, 0x00, 0x00,
  0x00, 0x00, 0x00, 0x28, 0xdc, 0xff, 0xff, 0xff, 0x16, 0x00, 0x00, 0x00,
  0x00, 0x00, 0x00, 0x16, 0xe8, 0xff, 0xff, 0xff, 0x1c, 0x00, 0x00, 0x00,
  0x00, 0x00, 0x00, 0x1c, 0xf4, 0xff, 0xff, 0xff, 0x03, 0x00, 0x00, 0x00,
  0x00, 0x00, 0x00, 0x03, 0x0c, 0x00, 0x0c, 0x00, 0x0b, 0x00, 0x00, 0x00,
  0x00, 0x00, 0x04, 0x00, 0x0c, 0x00, 0x00, 0x00, 0x46, 0x00, 0x00, 0x00,
  0x00, 0x00, 0x00, 0x46
};
unsigned int boxing_model_left_8_tflite_len = 5176;
