unsigned char boxing_model_tflite[] = {
  0x1c, 0x00, 0x00, 0x00, 0x54, 0x46, 0x4c, 0x33, 0x14, 0x00, 0x20, 0x00,
  0x1c, 0x00, 0x18, 0x00, 0x14, 0x00, 0x10, 0x00, 0x0c, 0x00, 0x00, 0x00,
  0x08, 0x00, 0x04, 0x00, 0x14, 0x00, 0x00, 0x00, 0x1c, 0x00, 0x00, 0x00,
  0x8c, 0x00, 0x00, 0x00, 0xe4, 0x00, 0x00, 0x00, 0xb4, 0x09, 0x00, 0x00,
  0xc4, 0x09, 0x00, 0x00, 0xc8, 0x13, 0x00, 0x00, 0x03, 0x00, 0x00, 0x00,
  0x01, 0x00, 0x00, 0x00, 0x04, 0x00, 0x00, 0x00, 0xee, 0xf4, 0xff, 0xff,
  0x0c, 0x00, 0x00, 0x00, 0x1c, 0x00, 0x00, 0x00, 0x3c, 0x00, 0x00, 0x00,
  0x0f, 0x00, 0x00, 0x00, 0x73, 0x65, 0x72, 0x76, 0x69, 0x6e, 0x67, 0x5f,
  0x64, 0x65, 0x66, 0x61, 0x75, 0x6c, 0x74, 0x00, 0x01, 0x00, 0x00, 0x00,
  0x04, 0x00, 0x00, 0x00, 0x90, 0xff, 0xff, 0xff, 0x11, 0x00, 0x00, 0x00,
  0x04, 0x00, 0x00, 0x00, 0x08, 0x00, 0x00, 0x00, 0x6f, 0x75, 0x74, 0x70,
  0x75, 0x74, 0x5f, 0x30, 0x00, 0x00, 0x00, 0x00, 0x01, 0x00, 0x00, 0x00,
  0x04, 0x00, 0x00, 0x00, 0x26, 0xf6, 0xff, 0xff, 0x04, 0x00, 0x00, 0x00,
  0x0f, 0x00, 0x00, 0x00, 0x6b, 0x65, 0x72, 0x61, 0x73, 0x5f, 0x74, 0x65,
  0x6e, 0x73, 0x6f, 0x72, 0x5f, 0x31, 0x33, 0x00, 0x02, 0x00, 0x00, 0x00,
  0x34, 0x00, 0x00, 0x00, 0x04, 0x00, 0x00, 0x00, 0xdc, 0xff, 0xff, 0xff,
  0x14, 0x00, 0x00, 0x00, 0x04, 0x00, 0x00, 0x00, 0x13, 0x00, 0x00, 0x00,
  0x43, 0x4f, 0x4e, 0x56, 0x45, 0x52, 0x53, 0x49, 0x4f, 0x4e, 0x5f, 0x4d,
  0x45, 0x54, 0x41, 0x44, 0x41, 0x54, 0x41, 0x00, 0x08, 0x00, 0x0c, 0x00,
  0x08, 0x00, 0x04, 0x00, 0x08, 0x00, 0x00, 0x00, 0x13, 0x00, 0x00, 0x00,
  0x04, 0x00, 0x00, 0x00, 0x13, 0x00, 0x00, 0x00, 0x6d, 0x69, 0x6e, 0x5f,
  0x72, 0x75, 0x6e, 0x74, 0x69, 0x6d, 0x65, 0x5f, 0x76, 0x65, 0x72, 0x73,
  0x69, 0x6f, 0x6e, 0x00, 0x15, 0x00, 0x00, 0x00, 0xcc, 0x08, 0x00, 0x00,
  0xc4, 0x08, 0x00, 0x00, 0x74, 0x08, 0x00, 0x00, 0x58, 0x08, 0x00, 0x00,
  0xc8, 0x03, 0x00, 0x00, 0x58, 0x03, 0x00, 0x00, 0x48, 0x01, 0x00, 0x00,
  0x2c, 0x01, 0x00, 0x00, 0xfc, 0x00, 0x00, 0x00, 0xe8, 0x00, 0x00, 0x00,
  0xd4, 0x00, 0x00, 0x00, 0xcc, 0x00, 0x00, 0x00, 0xc4, 0x00, 0x00, 0x00,
  0xbc, 0x00, 0x00, 0x00, 0xb4, 0x00, 0x00, 0x00, 0xac, 0x00, 0x00, 0x00,
  0xa4, 0x00, 0x00, 0x00, 0x9c, 0x00, 0x00, 0x00, 0x94, 0x00, 0x00, 0x00,
  0x74, 0x00, 0x00, 0x00, 0x04, 0x00, 0x00, 0x00, 0xf6, 0xf6, 0xff, 0xff,
  0x04, 0x00, 0x00, 0x00, 0x60, 0x00, 0x00, 0x00, 0x0c, 0x00, 0x00, 0x00,
  0x08, 0x00, 0x0e, 0x00, 0x08, 0x00, 0x04, 0x00, 0x08, 0x00, 0x00, 0x00,
  0x10, 0x00, 0x00, 0x00, 0x28, 0x00, 0x00, 0x00, 0x00, 0x00, 0x06, 0x00,
  0x08, 0x00, 0x04, 0x00, 0x06, 0x00, 0x00, 0x00, 0x04, 0x00, 0x00, 0x00,
  0x01, 0x00, 0x00, 0x00, 0xea, 0x03, 0x00, 0x00, 0x0c, 0x00, 0x18, 0x00,
  0x14, 0x00, 0x10, 0x00, 0x0c, 0x00, 0x04, 0x00, 0x0c, 0x00, 0x00, 0x00,
  0x86, 0x27, 0x33, 0xe7, 0x78, 0x41, 0x36, 0x63, 0x02, 0x00, 0x00, 0x00,
  0x02, 0x00, 0x00, 0x00, 0x04, 0x00, 0x00, 0x00, 0x06, 0x00, 0x00, 0x00,
  0x32, 0x2e, 0x31, 0x38, 0x2e, 0x30, 0x00, 0x00, 0x62, 0xf7, 0xff, 0xff,
  0x04, 0x00, 0x00, 0x00, 0x10, 0x00, 0x00, 0x00, 0x31, 0x2e, 0x31, 0x34,
  0x2e, 0x30, 0x00, 0x00, 0x00, 0x00, 0x00, 0x00, 0x00, 0x00, 0x00, 0x00,
  0x30, 0xee, 0xff, 0xff, 0x34, 0xee, 0xff, 0xff, 0x38, 0xee, 0xff, 0xff,
  0x3c, 0xee, 0xff, 0xff, 0x40, 0xee, 0xff, 0xff, 0x44, 0xee, 0xff, 0xff,
  0x48, 0xee, 0xff, 0xff, 0x4c, 0xee, 0xff, 0xff, 0x9e, 0xf7, 0xff, 0xff,
  0x04, 0x00, 0x00, 0x00, 0x04, 0x00, 0x00, 0x00, 0xfd, 0xff, 0xff, 0xff,
  0xae, 0xf7, 0xff, 0xff, 0x04, 0x00, 0x00, 0x00, 0x04, 0x00, 0x00, 0x00,
  0x01, 0x00, 0x00, 0x00, 0xbe, 0xf7, 0xff, 0xff, 0x04, 0x00, 0x00, 0x00,
  0x20, 0x00, 0x00, 0x00, 0x4c, 0x14, 0x65, 0x3c, 0xf5, 0x5e, 0x0a, 0x3e,
  0x4a, 0x21, 0xbb, 0xbc, 0x39, 0xda, 0x0d, 0xbb, 0x6a, 0x91, 0x8c, 0x3d,
  0xa9, 0xdb, 0xa4, 0x3d, 0x48, 0x8d, 0x6c, 0x3c, 0x19, 0x69, 0x6d, 0x3e,
  0xea, 0xf7, 0xff, 0xff, 0x04, 0x00, 0x00, 0x00, 0x0c, 0x00, 0x00, 0x00,
  0xa4, 0x1d, 0x41, 0xbe, 0xf4, 0xee, 0x7f, 0x3e, 0xbe, 0x36, 0x14, 0xbd,
  0x02, 0xf8, 0xff, 0xff, 0x04, 0x00, 0x00, 0x00, 0x00, 0x02, 0x00, 0x00,
  0x07, 0x81, 0x5f, 0x3e, 0x54, 0x51, 0x79, 0x3e, 0xd4, 0x09, 0x0b, 0x3f,
  0x98, 0x6a, 0x1b, 0xbd, 0xe1, 0xb1, 0xd8, 0xbe, 0x23, 0x21, 0xc3, 0xbe,
  0xf9, 0x1f, 0x11, 0xbf, 0x80, 0xb8, 0x02, 0x3f, 0x23, 0x53, 0x5c, 0x3e,
  0x0d, 0xc2, 0xc0, 0xbd, 0x30, 0x43, 0x0d, 0x3e, 0xfe, 0x54, 0xef, 0xbe,
  0x1a, 0x29, 0xab, 0xbd, 0x00, 0x6a, 0x0d, 0xbf, 0xa5, 0x57, 0x3c, 0x3e,
  0x59, 0xa2, 0x54, 0xbd, 0x68, 0xbb, 0xce, 0x3e, 0xfa, 0x0d, 0xf9, 0x3e,
  0x47, 0x10, 0x80, 0xbe, 0x44, 0xbf, 0xae, 0xbe, 0x30, 0xbc, 0x56, 0xbe,
  0x5e, 0x58, 0x06, 0x3f, 0x19, 0xdf, 0x9c, 0xbe, 0x4d, 0x7d, 0xea, 0x3e,
  0xbd, 0x83, 0x59, 0xbe, 0x3b, 0x90, 0x06, 0x3f, 0xf0, 0x17, 0xbc, 0x3e,
  0x2e, 0x01, 0x20, 0xbf, 0x63, 0x04, 0x58, 0x3d, 0xb2, 0x1c, 0xd9, 0xbe,
  0x4e, 0xec, 0x24, 0xbf, 0x32, 0x33, 0xb3, 0xbe, 0x35, 0xac, 0x73, 0x3e,
  0xe6, 0xbc, 0x28, 0x3e, 0x41, 0xcf, 0xb5, 0xbe, 0x5c, 0x8c, 0x09, 0x3e,
  0x3f, 0xe6, 0x8f, 0x3e, 0xfa, 0x89, 0xf2, 0xbd, 0xbc, 0x77, 0x9e, 0x3e,
  0x54, 0xb0, 0xc3, 0xbe, 0xa6, 0xb5, 0xfc, 0xbe, 0x58, 0x30, 0x40, 0x3d,
  0x7e, 0x76, 0xd8, 0xbe, 0x91, 0x90, 0xe0, 0x3e, 0xdc, 0x84, 0xc6, 0xbe,
  0x49, 0x29, 0xff, 0x3e, 0xa2, 0x7e, 0x24, 0xbe, 0x01, 0xf3, 0x9c, 0x3e,
  0xe5, 0x5a, 0xff, 0xbd, 0xd9, 0x81, 0xf3, 0xbc, 0x5e, 0x0d, 0x1a, 0xbd,
  0x5a, 0x2e, 0x9a, 0x3e, 0x52, 0x10, 0x08, 0x3e, 0x11, 0x26, 0xf2, 0xbd,
  0x69, 0x41, 0x8e, 0xbe, 0x86, 0xce, 0x01, 0xbf, 0x12, 0xfa, 0xf5, 0xbd,
  0xae, 0x20, 0x83, 0x3e, 0x20, 0x3a, 0x05, 0xbf, 0x50, 0x85, 0xab, 0x3e,
  0x97, 0x6e, 0x1d, 0x3d, 0xf6, 0x5c, 0x58, 0x3e, 0x39, 0x7b, 0xb7, 0x3d,
  0x86, 0x2c, 0xc6, 0xbd, 0x30, 0x23, 0xdc, 0x3e, 0x74, 0x36, 0x1e, 0x3f,
  0xc7, 0x3c, 0x18, 0x3f, 0x69, 0xd2, 0x8f, 0x3e, 0x5b, 0x28, 0x8b, 0xbe,
  0xa5, 0x1c, 0x82, 0x3e, 0x7c, 0x0d, 0xf7, 0xbe, 0x47, 0x3c, 0x9a, 0xbd,
  0x36, 0xf1, 0x26, 0xbf, 0x74, 0xbf, 0xb3, 0xbd, 0xd7, 0x7f, 0xa2, 0x3e,
  0x49, 0x44, 0x23, 0x3e, 0x2e, 0x3f, 0xc6, 0xbe, 0x3f, 0xc6, 0x14, 0xbe,
  0xf6, 0x17, 0x3a, 0x3b, 0x36, 0x1c, 0x19, 0x3e, 0x19, 0x04, 0xb6, 0xbe,
  0x84, 0xd2, 0xb3, 0xbd, 0x0a, 0x6d, 0xc6, 0x3e, 0xb3, 0x8c, 0xd9, 0xbe,
  0x68, 0xdd, 0x2a, 0x3e, 0x0a, 0xf5, 0x1c, 0x3f, 0xf1, 0xcd, 0xae, 0xbe,
  0x35, 0x9a, 0x01, 0xbf, 0x9e, 0x12, 0x2e, 0xbf, 0xcf, 0x74, 0xfb, 0xbd,
  0xb3, 0xa6, 0x48, 0x3e, 0xfa, 0x4e, 0x4b, 0xbd, 0x47, 0x8c, 0xe1, 0xbe,
  0x0e, 0x58, 0xec, 0x3d, 0x0d, 0xa9, 0x13, 0x3f, 0x28, 0xb1, 0xd4, 0xbd,
  0xe9, 0x24, 0x78, 0x3e, 0xc1, 0xf0, 0x13, 0x3e, 0xea, 0x53, 0x38, 0x3e,
  0x31, 0x22, 0xef, 0x3e, 0x7a, 0xa0, 0x8d, 0xbe, 0x78, 0xb2, 0x5d, 0xbe,
  0x70, 0x88, 0xc7, 0x3d, 0x5d, 0xa4, 0x10, 0xbf, 0xb4, 0x46, 0x12, 0x3e,
  0xa6, 0x33, 0x5f, 0xbe, 0x73, 0x9b, 0x9c, 0x3e, 0xd8, 0x33, 0x93, 0xbe,
  0xfb, 0xa5, 0x6a, 0x3e, 0x8a, 0xb5, 0xb2, 0x3a, 0x1e, 0xef, 0x77, 0x3d,
  0x8a, 0x7a, 0xc3, 0x3e, 0xec, 0xe4, 0x0b, 0x3d, 0xd6, 0x6e, 0x12, 0xbf,
  0xb4, 0x52, 0x0d, 0x3e, 0xb5, 0xa6, 0x78, 0xbd, 0x6a, 0x85, 0x71, 0x3e,
  0x7a, 0x64, 0xd1, 0x3e, 0x82, 0xcf, 0xb3, 0xbe, 0xec, 0xa6, 0x41, 0xbd,
  0x99, 0x4b, 0x15, 0xbe, 0xbd, 0x6c, 0x83, 0xbe, 0xa4, 0xf2, 0x07, 0x3f,
  0x0e, 0xb5, 0xe2, 0x3e, 0xae, 0x9b, 0xaa, 0x3d, 0x91, 0x17, 0xb9, 0xbe,
  0xc5, 0x0a, 0x25, 0x3f, 0x36, 0xe6, 0xb8, 0x3e, 0x0e, 0xfa, 0xff, 0xff,
  0x04, 0x00, 0x00, 0x00, 0x60, 0x00, 0x00, 0x00, 0x51, 0x53, 0x60, 0x3f,
  0x5f, 0xf2, 0x13, 0x3f, 0x66, 0x6b, 0x4b, 0x3f, 0xa5, 0xa2, 0x31, 0x3f,
  0x5f, 0x5f, 0x38, 0x3f, 0x13, 0x25, 0xe1, 0xbe, 0x5c, 0xf0, 0x84, 0xbe,
  0xa3, 0x6e, 0xf7, 0xbe, 0x70, 0xd7, 0x01, 0x3f, 0x70, 0x20, 0x4c, 0x3f,
  0xad, 0x4f, 0x04, 0xbe, 0xa5, 0xc6, 0x9f, 0xbe, 0xaa, 0x14, 0x10, 0xbf,
  0xd4, 0x96, 0x5b, 0xbf, 0x00, 0x1a, 0x0d, 0xbe, 0x2d, 0x9c, 0x66, 0xbf,
  0xf1, 0x57, 0xad, 0xbd, 0x77, 0x2b, 0x98, 0xbe, 0x82, 0x8a, 0xf2, 0xbe,
  0x8e, 0xf0, 0xcb, 0xbe, 0xdb, 0x56, 0x0d, 0x3f, 0x59, 0x1f, 0xa4, 0xbd,
  0xcf, 0x96, 0xa6, 0x3e, 0xf7, 0x82, 0xb4, 0x3d, 0x7a, 0xfa, 0xff, 0xff,
  0x04, 0x00, 0x00, 0x00, 0x80, 0x04, 0x00, 0x00, 0x47, 0x79, 0x50, 0xbe,
  0x5b, 0x5e, 0x46, 0xbe, 0x90, 0x25, 0xfa, 0x3c, 0x17, 0x68, 0x11, 0x3e,
  0x6e, 0xc2, 0x7d, 0xbd, 0xf3, 0x3d, 0x36, 0xbe, 0x10, 0xff, 0xbc, 0x3d,
  0x92, 0xca, 0xf1, 0x3d, 0xde, 0x83, 0x7f, 0xbd, 0x5f, 0x04, 0x9a, 0xbe,
  0x3a, 0x0f, 0xad, 0x3e, 0x60, 0xbf, 0x52, 0xbe, 0x8d, 0x9a, 0x68, 0xbd,
  0xc9, 0x86, 0xb2, 0x3d, 0x59, 0x34, 0x95, 0xbe, 0x9e, 0xe5, 0x8f, 0x3c,
  0xa8, 0x81, 0xb9, 0xbd, 0xc6, 0x1b, 0x8b, 0xbe, 0xa5, 0x6b, 0x65, 0x3e,
  0x04, 0xb2, 0x8d, 0xbe, 0x36, 0xa9, 0x2a, 0x3e, 0xe6, 0xb0, 0x56, 0x3d,
  0x7b, 0x9f, 0xba, 0xbe, 0xab, 0xd0, 0xa6, 0xbe, 0xe1, 0xf0, 0x04, 0x3e,
  0x2f, 0x3f, 0x49, 0xbd, 0x0f, 0x39, 0xf4, 0x3d, 0xf9, 0x84, 0xa2, 0xbe,
  0xee, 0xe3, 0xa2, 0x3d, 0x08, 0xb7, 0x07, 0x3e, 0x17, 0xcb, 0x84, 0x3d,
  0xc6, 0xa0, 0x41, 0xbe, 0x13, 0xea, 0x90, 0xbe, 0x82, 0xf9, 0xb0, 0xbe,
  0x95, 0xe2, 0x2c, 0x3e, 0x93, 0xb4, 0x84, 0xbe, 0xe7, 0x39, 0xb2, 0xbd,
  0x85, 0x48, 0x64, 0xbd, 0x2b, 0xbe, 0xc3, 0x3e, 0xa9, 0x16, 0xf6, 0x3d,
  0xdf, 0xa2, 0x7f, 0x3d, 0xb7, 0x2f, 0xd1, 0x3e, 0x96, 0xcb, 0xdf, 0xbe,
  0x16, 0x65, 0x2b, 0x3c, 0xee, 0x6e, 0x17, 0xbe, 0x2c, 0x57, 0xa4, 0xbd,
  0x4a, 0x23, 0x0e, 0xbe, 0xc3, 0x34, 0x55, 0xbd, 0x99, 0xf1, 0xbe, 0x3d,
  0xc3, 0xda, 0x9b, 0xbd, 0xd0, 0x43, 0x4e, 0x3d, 0x3e, 0x79, 0x6b, 0x3e,
  0x01, 0xe0, 0x87, 0xbe, 0x8d, 0x02, 0xc0, 0xbb, 0x2b, 0xf4, 0xbd, 0xbd,
  0x92, 0x3e, 0x02, 0x3d, 0xf7, 0x62, 0x84, 0x3e, 0xa0, 0x6c, 0xa2, 0x3e,
  0xe3, 0x60, 0xee, 0x3d, 0x99, 0x65, 0x01, 0xbe, 0x1e, 0xe2, 0x69, 0x3c,
  0x56, 0xd6, 0x09, 0x3e, 0x03, 0xc2, 0x3c, 0x3e, 0x1e, 0xf1, 0x1a, 0x3d,
  0x48, 0x0d, 0x59, 0xbd, 0x7a, 0xab, 0x12, 0xbe, 0x81, 0xbd, 0x46, 0xbc,
  0xef, 0xa1, 0xaf, 0xbd, 0x1e, 0xea, 0xaf, 0x3c, 0xfa, 0xd8, 0xea, 0x3d,
  0xf3, 0xaf, 0xff, 0xbd, 0x82, 0xf7, 0x2f, 0xbe, 0x8f, 0x9f, 0xea, 0x3c,
  0x35, 0x79, 0xbd, 0x3e, 0x1b, 0x3a, 0x5e, 0x3d, 0xd8, 0xb2, 0xc3, 0xbe,
  0xed, 0x2a, 0x16, 0x3e, 0x21, 0xb1, 0x8b, 0x3e, 0xc3, 0xfe, 0x5c, 0x3e,
  0xe8, 0xea, 0x98, 0x3e, 0x9c, 0x20, 0x4e, 0x3e, 0xf4, 0x0c, 0xb4, 0xbe,
  0xfa, 0xe0, 0xcf, 0xbd, 0x88, 0x09, 0xa7, 0x3d, 0x27, 0xab, 0x11, 0xbc,
  0x0a, 0xc5, 0xb0, 0x3e, 0xc8, 0xf9, 0x4a, 0xbe, 0x2d, 0x6b, 0x14, 0xbe,
  0x8f, 0xf7, 0xdf, 0x3d, 0xed, 0xf0, 0xa9, 0xbd, 0xb4, 0xa0, 0x36, 0xbe,
  0xa4, 0x30, 0x3c, 0x3e, 0x24, 0xad, 0x64, 0xbe, 0x57, 0x1d, 0x30, 0xbe,
  0x61, 0x8f, 0x99, 0x3d, 0x96, 0x46, 0xac, 0x3e, 0x23, 0x7d, 0x81, 0xbe,
  0x99, 0x26, 0x7e, 0xbe, 0x4d, 0xf6, 0x20, 0xbe, 0x64, 0xaa, 0xd1, 0x3d,
  0xdb, 0x51, 0x49, 0x3d, 0x5c, 0x00, 0x8a, 0x3e, 0x71, 0x7d, 0xe2, 0x3d,
  0x2a, 0xcf, 0xd6, 0x3d, 0x97, 0xe6, 0x2e, 0xbe, 0xdb, 0xa3, 0x0a, 0x3e,
  0x1e, 0xf4, 0x2d, 0xbe, 0x7f, 0x6c, 0x71, 0x3e, 0xee, 0xf7, 0x4d, 0xbe,
  0xf6, 0x02, 0xf4, 0xbc, 0x9d, 0xb6, 0x36, 0x3d, 0x23, 0xe9, 0x89, 0xbe,
  0x7b, 0x07, 0x6b, 0x3e, 0x8a, 0x02, 0xfd, 0x3d, 0x80, 0xf5, 0x84, 0x3d,
  0x7c, 0xda, 0x0b, 0x3d, 0xef, 0xd6, 0x13, 0x3e, 0x2f, 0x6f, 0xbf, 0xbd,
  0x9e, 0xc2, 0x20, 0xbe, 0x4a, 0x84, 0x81, 0xbd, 0x55, 0x68, 0x9c, 0x3e,
  0x64, 0x3b, 0xbd, 0x3d, 0xa0, 0x7a, 0xf5, 0x3d, 0xe1, 0xd9, 0x72, 0xbe,
  0x38, 0x20, 0x79, 0x3e, 0x36, 0x22, 0x0d, 0xbe, 0xab, 0xaa, 0xf0, 0x3b,
  0x02, 0x94, 0x79, 0xbe, 0xdc, 0x88, 0xae, 0xbd, 0xe5, 0xf6, 0x64, 0xbe,
  0x21, 0xfa, 0x55, 0x3e, 0xb9, 0x9e, 0x33, 0xbe, 0xc5, 0x1e, 0x11, 0x3e,
  0x70, 0xd2, 0x5b, 0x3e, 0xa4, 0xb4, 0x3a, 0x3d, 0xc5, 0xda, 0x56, 0x3e,
  0xee, 0xf4, 0x03, 0xbe, 0xf0, 0xbc, 0x8b, 0xbe, 0xa6, 0x4e, 0x81, 0x3b,
  0x13, 0x8c, 0x88, 0xbe, 0xdf, 0x58, 0xcb, 0x3d, 0xa3, 0x12, 0x7c, 0xbe,
  0xb9, 0xc5, 0x2a, 0x3e, 0xe3, 0xa7, 0x99, 0xbe, 0x97, 0xea, 0xce, 0x3d,
  0xfa, 0x61, 0x4c, 0x3d, 0x35, 0x90, 0x4f, 0x3e, 0x3c, 0x06, 0x5e, 0x3d,
  0xb2, 0x58, 0xbb, 0xbe, 0x5d, 0xbb, 0xf3, 0x3a, 0x4c, 0xf7, 0x13, 0x3e,
  0xea, 0x58, 0xff, 0xbd, 0x5b, 0xb8, 0x2e, 0xbc, 0x30, 0xf2, 0x0b, 0xbe,
  0x08, 0x47, 0x15, 0x3e, 0x9b, 0xc7, 0x1f, 0xbc, 0xe4, 0x8c, 0x0f, 0x3e,
  0x9b, 0x49, 0x1b, 0x3e, 0x0a, 0xee, 0x18, 0xbe, 0xd2, 0xfe, 0x8c, 0x3d,
  0x1e, 0xe6, 0x67, 0x3e, 0x8d, 0xea, 0xa1, 0xbe, 0x5f, 0x84, 0xe4, 0x3d,
  0xfa, 0x27, 0x0c, 0xbe, 0x03, 0xf2, 0xbb, 0xbe, 0x19, 0x76, 0x93, 0xbe,
  0x25, 0xb1, 0xc3, 0xbd, 0x14, 0xf5, 0x95, 0xbd, 0xa8, 0x73, 0x25, 0xbe,
  0xf3, 0xa0, 0x9a, 0x3d, 0xcc, 0xb2, 0x65, 0xbe, 0x3d, 0xff, 0xa4, 0xbd,
  0x0b, 0xc9, 0xca, 0x3d, 0x04, 0xad, 0x68, 0xbe, 0xbc, 0xdc, 0x83, 0x3e,
  0x3a, 0xbe, 0x9a, 0xbd, 0x70, 0x9a, 0xb4, 0xbe, 0x47, 0xe2, 0xb0, 0x3d,
  0x57, 0x86, 0x8d, 0x3d, 0x46, 0x5c, 0x2d, 0xbc, 0xf1, 0x4f, 0xb5, 0xbe,
  0xc1, 0x35, 0x64, 0x3b, 0xc9, 0xcd, 0x19, 0x3e, 0x8f, 0x1b, 0x19, 0x3e,
  0xa5, 0x51, 0x94, 0xbe, 0xc2, 0x32, 0x3b, 0xbe, 0x92, 0xaa, 0x38, 0x3e,
  0x2b, 0x2c, 0x2d, 0xbe, 0x16, 0xa4, 0x7d, 0xbe, 0xab, 0xe1, 0xf9, 0xbb,
  0x80, 0x48, 0x31, 0x3d, 0x81, 0xfb, 0x8e, 0x3e, 0xbb, 0x4e, 0x5c, 0xbe,
  0x69, 0xa5, 0x52, 0xbd, 0x8d, 0xd5, 0xa2, 0x3e, 0x74, 0xab, 0xf2, 0xbc,
  0xd0, 0xa4, 0xca, 0xbd, 0x71, 0xc3, 0x36, 0x3b, 0x19, 0x11, 0x1f, 0xbe,
  0x81, 0xca, 0xf2, 0xbd, 0x6f, 0x41, 0xac, 0x3e, 0x25, 0x54, 0x77, 0x3c,
  0xb3, 0x8a, 0x36, 0x3e, 0x18, 0x0c, 0x00, 0xbe, 0x47, 0x94, 0x64, 0xbe,
  0xa8, 0xa8, 0x9d, 0x3e, 0xf6, 0x55, 0x12, 0x3e, 0x5d, 0x57, 0x37, 0xbc,
  0x91, 0xc1, 0x88, 0xbe, 0xe8, 0xec, 0xad, 0x3d, 0x53, 0x62, 0x7f, 0x3e,
  0xae, 0xef, 0x2a, 0xbe, 0xf4, 0xf3, 0xa7, 0x3e, 0x7f, 0x72, 0x03, 0xbd,
  0xbf, 0x56, 0x47, 0x3e, 0x36, 0xee, 0x05, 0xbd, 0x4b, 0x5e, 0x3a, 0x3e,
  0x05, 0xb6, 0x39, 0x3e, 0x99, 0x7c, 0x7a, 0xbd, 0xda, 0x90, 0xa0, 0xbc,
  0xb7, 0x07, 0xc3, 0xbe, 0x01, 0xd2, 0xb3, 0xbd, 0xef, 0x8c, 0x25, 0xbe,
  0x8d, 0x16, 0x5a, 0x3d, 0x37, 0x4c, 0x35, 0x3e, 0x59, 0xcf, 0xb1, 0x3d,
  0x5c, 0x7b, 0x23, 0x3e, 0x63, 0x7b, 0x01, 0x3e, 0xa3, 0x23, 0x15, 0x3e,
  0x60, 0xd5, 0xa9, 0x3d, 0x2f, 0x09, 0xfa, 0xbc, 0x8f, 0x3a, 0xfb, 0xbd,
  0x2f, 0x14, 0x8b, 0xbe, 0x1c, 0xda, 0xa6, 0x3c, 0x53, 0x6b, 0x9f, 0x3e,
  0xbc, 0xd3, 0xbd, 0x3d, 0x50, 0x70, 0xb4, 0xbd, 0x9e, 0xa8, 0x29, 0x3e,
  0xdf, 0x08, 0x78, 0x3e, 0x92, 0xa1, 0x1e, 0xbe, 0x93, 0xf0, 0x38, 0x3e,
  0x5f, 0x9f, 0x8d, 0x3e, 0x43, 0x12, 0x24, 0xbe, 0x4a, 0x4c, 0x08, 0x3e,
  0x74, 0xef, 0x9c, 0xbe, 0xbe, 0x6e, 0xb6, 0x3e, 0x3a, 0x14, 0xe0, 0x3d,
  0xce, 0xa5, 0xf3, 0x3d, 0x40, 0x93, 0x1a, 0xbe, 0x5e, 0xa5, 0xe4, 0xbc,
  0xe8, 0xa2, 0xcd, 0xbd, 0xb7, 0x5a, 0xf5, 0xbd, 0x4d, 0x6d, 0xf3, 0xbd,
  0x2a, 0xa0, 0x96, 0xbb, 0xfd, 0xa0, 0xb5, 0x3e, 0xca, 0xdb, 0xe7, 0xbb,
  0x00, 0xd2, 0x39, 0xbd, 0x1e, 0x00, 0x9d, 0x3d, 0x37, 0xaa, 0xd0, 0x3d,
  0x9a, 0xac, 0x11, 0xbd, 0x65, 0x5e, 0xc2, 0x3e, 0x6d, 0x85, 0x15, 0x3e,
  0xa3, 0x81, 0xd3, 0xbd, 0x1e, 0x8b, 0x37, 0xbd, 0x56, 0x0b, 0x17, 0xbe,
  0xb8, 0x58, 0xdf, 0xbd, 0xe3, 0xb5, 0x50, 0x3e, 0x72, 0xe5, 0x4a, 0xbe,
  0x36, 0x71, 0x8c, 0xbe, 0x6e, 0xa5, 0x98, 0x3e, 0xef, 0x4e, 0xf6, 0xbd,
  0x30, 0xf7, 0xe6, 0x3c, 0xeb, 0xd9, 0xcb, 0xbd, 0x2d, 0x2b, 0x7c, 0xbe,
  0x04, 0x96, 0x82, 0x3e, 0x95, 0xa4, 0x4a, 0xbe, 0x6c, 0x9f, 0x09, 0xbd,
  0xab, 0x86, 0xd2, 0xbd, 0x42, 0x6f, 0x06, 0x3e, 0x29, 0xd9, 0xda, 0xbd,
  0x46, 0x28, 0xd2, 0xbd, 0x42, 0x2a, 0x5b, 0xbe, 0xb0, 0xa4, 0xbb, 0xbe,
  0xf6, 0x08, 0xbe, 0x3d, 0x6d, 0x0c, 0x92, 0x3d, 0xb4, 0xa2, 0x44, 0x3e,
  0x5f, 0xfd, 0xf6, 0xbd, 0xec, 0xab, 0x98, 0x3e, 0x06, 0xff, 0xff, 0xff,
  0x04, 0x00, 0x00, 0x00, 0x0c, 0x00, 0x00, 0x00, 0xff, 0xff, 0xff, 0xff,
  0x0a, 0x00, 0x00, 0x00, 0x10, 0x00, 0x00, 0x00, 0x1e, 0xff, 0xff, 0xff,
  0x04, 0x00, 0x00, 0x00, 0x40, 0x00, 0x00, 0x00, 0xf2, 0xb2, 0x6c, 0x3d,
  0x4a, 0x0b, 0xd7, 0x3c, 0x88, 0x13, 0x50, 0xbd, 0x3f, 0xcd, 0xc4, 0xbd,
  0xff, 0x3e, 0xb6, 0x3d, 0x1a, 0x7f, 0xeb, 0x3d, 0x3c, 0xff, 0x4e, 0x39,
  0xfd, 0x7a, 0x74, 0x3d, 0xbf, 0x1a, 0x23, 0xbd, 0xc8, 0xe4, 0x1f, 0xba,
  0x97, 0x2e, 0x74, 0x3d, 0x38, 0xe9, 0x49, 0xbd, 0xc1, 0x1a, 0xc2, 0x3b,
  0x83, 0xee, 0xc8, 0xbc, 0xcb, 0xfc, 0x9b, 0x3d, 0x9d, 0x05, 0x4b, 0x3d,
  0x1c, 0xf6, 0xff, 0xff, 0x20, 0xf6, 0xff, 0xff, 0x0f, 0x00, 0x00, 0x00,
  0x4d, 0x4c, 0x49, 0x52, 0x20, 0x43, 0x6f, 0x6e, 0x76, 0x65, 0x72, 0x74,
  0x65, 0x64, 0x2e, 0x00, 0x01, 0x00, 0x00, 0x00, 0x14, 0x00, 0x00, 0x00,
  0x00, 0x00, 0x0e, 0x00, 0x18, 0x00, 0x14, 0x00, 0x10, 0x00, 0x0c, 0x00,
  0x08, 0x00, 0x04, 0x00, 0x0e, 0x00, 0x00, 0x00, 0x14, 0x00, 0x00, 0x00,
  0x1c, 0x00, 0x00, 0x00, 0x00, 0x02, 0x00, 0x00, 0x04, 0x02, 0x00, 0x00,
  0x08, 0x02, 0x00, 0x00, 0x04, 0x00, 0x00, 0x00, 0x6d, 0x61, 0x69, 0x6e,
  0x00, 0x00, 0x00, 0x00, 0x08, 0x00, 0x00, 0x00, 0xb8, 0x01, 0x00, 0x00,
  0x58, 0x01, 0x00, 0x00, 0x24, 0x01, 0x00, 0x00, 0xf0, 0x00, 0x00, 0x00,
  0xbc, 0x00, 0x00, 0x00, 0x78, 0x00, 0x00, 0x00, 0x40, 0x00, 0x00, 0x00,
  0x04, 0x00, 0x00, 0x00, 0xd2, 0xfe, 0xff, 0xff, 0x1c, 0x00, 0x00, 0x00,
  0x00, 0x00, 0x00, 0x09, 0x1c, 0x00, 0x00, 0x00, 0x20, 0x00, 0x00, 0x00,
  0x06, 0x00, 0x00, 0x00, 0x00, 0x00, 0x06, 0x00, 0x08, 0x00, 0x04, 0x00,
  0x06, 0x00, 0x00, 0x00, 0x00, 0x00, 0x80, 0x3f, 0x01, 0x00, 0x00, 0x00,
  0x11, 0x00, 0x00, 0x00, 0x01, 0x00, 0x00, 0x00, 0x10, 0x00, 0x00, 0x00,
  0x0a, 0xff, 0xff, 0xff, 0x14, 0x00, 0x00, 0x00, 0x00, 0x00, 0x00, 0x08,
  0x10, 0x00, 0x00, 0x00, 0x14, 0x00, 0x00, 0x00, 0x05, 0x00, 0x00, 0x00,
  0xe8, 0xf6, 0xff, 0xff, 0x01, 0x00, 0x00, 0x00, 0x10, 0x00, 0x00, 0x00,
  0x03, 0x00, 0x00, 0x00, 0x0f, 0x00, 0x00, 0x00, 0x04, 0x00, 0x00, 0x00,
  0x06, 0x00, 0x00, 0x00, 0x3e, 0xff, 0xff, 0xff, 0x1c, 0x00, 0x00, 0x00,
  0x00, 0x00, 0x00, 0x08, 0x1c, 0x00, 0x00, 0x00, 0x20, 0x00, 0x00, 0x00,
  0x05, 0x00, 0x00, 0x00, 0x00, 0x00, 0x06, 0x00, 0x08, 0x00, 0x07, 0x00,
  0x06, 0x00, 0x00, 0x00, 0x00, 0x00, 0x00, 0x01, 0x01, 0x00, 0x00, 0x00,
  0x0f, 0x00, 0x00, 0x00, 0x03, 0x00, 0x00, 0x00, 0x0e, 0x00, 0x00, 0x00,
  0x05, 0x00, 0x00, 0x00, 0x07, 0x00, 0x00, 0x00, 0x7e, 0xff, 0xff, 0xff,
  0x14, 0x00, 0x00, 0x00, 0x00, 0x00, 0x00, 0x1b, 0x10, 0x00, 0x00, 0x00,
  0x14, 0x00, 0x00, 0x00, 0x04, 0x00, 0x00, 0x00, 0x5c, 0xf7, 0xff, 0xff,
  0x01, 0x00, 0x00, 0x00, 0x0e, 0x00, 0x00, 0x00, 0x02, 0x00, 0x00, 0x00,
  0x0d, 0x00, 0x00, 0x00, 0x08, 0x00, 0x00, 0x00, 0xda, 0xff, 0xff, 0xff,
  0x0c, 0x00, 0x00, 0x00, 0x10, 0x00, 0x00, 0x00, 0x03, 0x00, 0x00, 0x00,
  0x01, 0x00, 0x00, 0x00, 0x0d, 0x00, 0x00, 0x00, 0x02, 0x00, 0x00, 0x00,
  0x0c, 0x00, 0x00, 0x00, 0x02, 0x00, 0x00, 0x00, 0x00, 0x00, 0x0a, 0x00,
  0x10, 0x00, 0x0c, 0x00, 0x08, 0x00, 0x04, 0x00, 0x0a, 0x00, 0x00, 0x00,
  0x0c, 0x00, 0x00, 0x00, 0x10, 0x00, 0x00, 0x00, 0x02, 0x00, 0x00, 0x00,
  0x01, 0x00, 0x00, 0x00, 0x0c, 0x00, 0x00, 0x00, 0x01, 0x00, 0x00, 0x00,
  0x0b, 0x00, 0x00, 0x00, 0x00, 0x00, 0x0e, 0x00, 0x1a, 0x00, 0x14, 0x00,
  0x10, 0x00, 0x0c, 0x00, 0x0b, 0x00, 0x04, 0x00, 0x0e, 0x00, 0x00, 0x00,
  0x20, 0x00, 0x00, 0x00, 0x00, 0x00, 0x00, 0x01, 0x28, 0x00, 0x00, 0x00,
  0x2c, 0x00, 0x00, 0x00, 0x01, 0x00, 0x00, 0x00, 0x00, 0x00, 0x0a, 0x00,
  0x10, 0x00, 0x0f, 0x00, 0x08, 0x00, 0x04, 0x00, 0x0a, 0x00, 0x00, 0x00,
  0x01, 0x00, 0x00, 0x00, 0x01, 0x00, 0x00, 0x00, 0x00, 0x00, 0x00, 0x01,
  0x01, 0x00, 0x00, 0x00, 0x0b, 0x00, 0x00, 0x00, 0x03, 0x00, 0x00, 0x00,
  0x0a, 0x00, 0x00, 0x00, 0x03, 0x00, 0x00, 0x00, 0x01, 0x00, 0x00, 0x00,
  0x00, 0x00, 0x0e, 0x00, 0x14, 0x00, 0x00, 0x00, 0x10, 0x00, 0x0c, 0x00,
  0x0b, 0x00, 0x04, 0x00, 0x0e, 0x00, 0x00, 0x00, 0x10, 0x00, 0x00, 0x00,
  0x00, 0x00, 0x00, 0x34, 0x0c, 0x00, 0x00, 0x00, 0x10, 0x00, 0x00, 0x00,
  0x44, 0xf8, 0xff, 0xff, 0x01, 0x00, 0x00, 0x00, 0x0a, 0x00, 0x00, 0x00,
  0x02, 0x00, 0x00, 0x00, 0x00, 0x00, 0x00, 0x00, 0x09, 0x00, 0x00, 0x00,
  0x01, 0x00, 0x00, 0x00, 0x11, 0x00, 0x00, 0x00, 0x01, 0x00, 0x00, 0x00,
  0x00, 0x00, 0x00, 0x00, 0x12, 0x00, 0x00, 0x00, 0x64, 0x07, 0x00, 0x00,
  0x10, 0x07, 0x00, 0x00, 0xb8, 0x06, 0x00, 0x00, 0x58, 0x06, 0x00, 0x00,
  0x18, 0x06, 0x00, 0x00, 0xd8, 0x05, 0x00, 0x00, 0x9c, 0x05, 0x00, 0x00,
  0x60, 0x05, 0x00, 0x00, 0x24, 0x05, 0x00, 0x00, 0xc0, 0x04, 0x00, 0x00,
  0x3c, 0x04, 0x00, 0x00, 0x74, 0x03, 0x00, 0x00, 0xb4, 0x02, 0x00, 0x00,
  0xf8, 0x01, 0x00, 0x00, 0x84, 0x01, 0x00, 0x00, 0xe4, 0x00, 0x00, 0x00,
  0x60, 0x00, 0x00, 0x00, 0x04, 0x00, 0x00, 0x00, 0xfa, 0xf8, 0xff, 0xff,
  0x00, 0x00, 0x00, 0x01, 0x14, 0x00, 0x00, 0x00, 0x1c, 0x00, 0x00, 0x00,
  0x1c, 0x00, 0x00, 0x00, 0x12, 0x00, 0x00, 0x00, 0x34, 0x00, 0x00, 0x00,
  0x02, 0x00, 0x00, 0x00, 0xff, 0xff, 0xff, 0xff, 0x03, 0x00, 0x00, 0x00,
  0xe0, 0xf8, 0xff, 0xff, 0x1b, 0x00, 0x00, 0x00, 0x53, 0x74, 0x61, 0x74,
  0x65, 0x66, 0x75, 0x6c, 0x50, 0x61, 0x72, 0x74, 0x69, 0x74, 0x69, 0x6f,
  0x6e, 0x65, 0x64, 0x43, 0x61, 0x6c, 0x6c, 0x5f, 0x31, 0x3a, 0x30, 0x00,
  0x02, 0x00, 0x00, 0x00, 0x01, 0x00, 0x00, 0x00, 0x03, 0x00, 0x00, 0x00,
  0x52, 0xf9, 0xff, 0xff, 0x00, 0x00, 0x00, 0x01, 0x14, 0x00, 0x00, 0x00,
  0x1c, 0x00, 0x00, 0x00, 0x1c, 0x00, 0x00, 0x00, 0x11, 0x00, 0x00, 0x00,
  0x5c, 0x00, 0x00, 0x00, 0x02, 0x00, 0x00, 0x00, 0xff, 0xff, 0xff, 0xff,
  0x03, 0x00, 0x00, 0x00, 0x38, 0xf9, 0xff, 0xff, 0x40, 0x00, 0x00, 0x00,
  0x73, 0x65, 0x71, 0x75, 0x65, 0x6e, 0x74, 0x69, 0x61, 0x6c, 0x5f, 0x33,
  0x5f, 0x31, 0x2f, 0x64, 0x65, 0x6e, 0x73, 0x65, 0x5f, 0x35, 0x5f, 0x31,
  0x2f, 0x4d, 0x61, 0x74, 0x4d, 0x75, 0x6c, 0x3b, 0x73, 0x65, 0x71, 0x75,
  0x65, 0x6e, 0x74, 0x69, 0x61, 0x6c, 0x5f, 0x33, 0x5f, 0x31, 0x2f, 0x64,
  0x65, 0x6e, 0x73, 0x65, 0x5f, 0x35, 0x5f, 0x31, 0x2f, 0x42, 0x69, 0x61,
  0x73, 0x41, 0x64, 0x64, 0x00, 0x00, 0x00, 0x00, 0x02, 0x00, 0x00, 0x00,
  0x01, 0x00, 0x00, 0x00, 0x03, 0x00, 0x00, 0x00, 0xd2, 0xf9, 0xff, 0xff,
  0x00, 0x00, 0x00, 0x01, 0x14, 0x00, 0x00, 0x00, 0x1c, 0x00, 0x00, 0x00,
  0x1c, 0x00, 0x00, 0x00, 0x10, 0x00, 0x00, 0x00, 0x78, 0x00, 0x00, 0x00,
  0x02, 0x00, 0x00, 0x00, 0xff, 0xff, 0xff, 0xff, 0x08, 0x00, 0x00, 0x00,
  0xb8, 0xf9, 0xff, 0xff, 0x5e, 0x00, 0x00, 0x00, 0x73, 0x65, 0x71, 0x75,
  0x65, 0x6e, 0x74, 0x69, 0x61, 0x6c, 0x5f, 0x33, 0x5f, 0x31, 0x2f, 0x64,
  0x65, 0x6e, 0x73, 0x65, 0x5f, 0x34, 0x5f, 0x31, 0x2f, 0x4d, 0x61, 0x74,
  0x4d, 0x75, 0x6c, 0x3b, 0x73, 0x65, 0x71, 0x75, 0x65, 0x6e, 0x74, 0x69,
  0x61, 0x6c, 0x5f, 0x33, 0x5f, 0x31, 0x2f, 0x64, 0x65, 0x6e, 0x73, 0x65,
  0x5f, 0x34, 0x5f, 0x31, 0x2f, 0x52, 0x65, 0x6c, 0x75, 0x3b, 0x73, 0x65,
  0x71, 0x75, 0x65, 0x6e, 0x74, 0x69, 0x61, 0x6c, 0x5f, 0x33, 0x5f, 0x31,
  0x2f, 0x64, 0x65, 0x6e, 0x73, 0x65, 0x5f, 0x34, 0x5f, 0x31, 0x2f, 0x42,
  0x69, 0x61, 0x73, 0x41, 0x64, 0x64, 0x00, 0x00, 0x02, 0x00, 0x00, 0x00,
  0x01, 0x00, 0x00, 0x00, 0x08, 0x00, 0x00, 0x00, 0x6e, 0xfa, 0xff, 0xff,
  0x00, 0x00, 0x00, 0x01, 0x14, 0x00, 0x00, 0x00, 0x1c, 0x00, 0x00, 0x00,
  0x1c, 0x00, 0x00, 0x00, 0x0f, 0x00, 0x00, 0x00, 0x4c, 0x00, 0x00, 0x00,
  0x02, 0x00, 0x00, 0x00, 0xff, 0xff, 0xff, 0xff, 0x10, 0x00, 0x00, 0x00,
  0x54, 0xfa, 0xff, 0xff, 0x30, 0x00, 0x00, 0x00, 0x73, 0x65, 0x71, 0x75,
  0x65, 0x6e, 0x74, 0x69, 0x61, 0x6c, 0x5f, 0x33, 0x5f, 0x31, 0x2f, 0x67,
  0x6c, 0x6f, 0x62, 0x61, 0x6c, 0x5f, 0x61, 0x76, 0x65, 0x72, 0x61, 0x67,
  0x65, 0x5f, 0x70, 0x6f, 0x6f, 0x6c, 0x69, 0x6e, 0x67, 0x31, 0x64, 0x5f,
  0x33, 0x5f, 0x31, 0x2f, 0x4d, 0x65, 0x61, 0x6e, 0x00, 0x00, 0x00, 0x00,
  0x02, 0x00, 0x00, 0x00, 0x01, 0x00, 0x00, 0x00, 0x10, 0x00, 0x00, 0x00,
  0xde, 0xfa, 0xff, 0xff, 0x00, 0x00, 0x00, 0x01, 0x14, 0x00, 0x00, 0x00,
  0x20, 0x00, 0x00, 0x00, 0x20, 0x00, 0x00, 0x00, 0x0e, 0x00, 0x00, 0x00,
  0x90, 0x00, 0x00, 0x00, 0x03, 0x00, 0x00, 0x00, 0xff, 0xff, 0xff, 0xff,
  0x0a, 0x00, 0x00, 0x00, 0x10, 0x00, 0x00, 0x00, 0xc8, 0xfa, 0xff, 0xff,
  0x70, 0x00, 0x00, 0x00, 0x73, 0x65, 0x71, 0x75, 0x65, 0x6e, 0x74, 0x69,
  0x61, 0x6c, 0x5f, 0x33, 0x5f, 0x31, 0x2f, 0x63, 0x6f, 0x6e, 0x76, 0x31,
  0x64, 0x5f, 0x33, 0x5f, 0x31, 0x2f, 0x54, 0x61, 0x6e, 0x68, 0x3b, 0x73,
  0x65, 0x71, 0x75, 0x65, 0x6e, 0x74, 0x69, 0x61, 0x6c, 0x5f, 0x33, 0x5f,
  0x31, 0x2f, 0x63, 0x6f, 0x6e, 0x76, 0x31, 0x64, 0x5f, 0x33, 0x5f, 0x31,
  0x2f, 0x42, 0x69, 0x61, 0x73, 0x41, 0x64, 0x64, 0x3b, 0x73, 0x65, 0x71,
  0x75, 0x65, 0x6e, 0x74, 0x69, 0x61, 0x6c, 0x5f, 0x33, 0x5f, 0x31, 0x2f,
  0x63, 0x6f, 0x6e, 0x76, 0x31, 0x64, 0x5f, 0x33, 0x5f, 0x31, 0x2f, 0x63,
  0x6f, 0x6e, 0x76, 0x6f, 0x6c, 0x75, 0x74, 0x69, 0x6f, 0x6e, 0x2f, 0x53,
  0x71, 0x75, 0x65, 0x65, 0x7a, 0x65, 0x3b, 0x31, 0x00, 0x00, 0x00, 0x00,
  0x03, 0x00, 0x00, 0x00, 0x01, 0x00, 0x00, 0x00, 0x0a, 0x00, 0x00, 0x00,
  0x10, 0x00, 0x00, 0x00, 0x96, 0xfb, 0xff, 0xff, 0x00, 0x00, 0x00, 0x01,
  0x14, 0x00, 0x00, 0x00, 0x24, 0x00, 0x00, 0x00, 0x24, 0x00, 0x00, 0x00,
  0x0d, 0x00, 0x00, 0x00, 0x90, 0x00, 0x00, 0x00, 0x04, 0x00, 0x00, 0x00,
  0xff, 0xff, 0xff, 0xff, 0x01, 0x00, 0x00, 0x00, 0x0a, 0x00, 0x00, 0x00,
  0x10, 0x00, 0x00, 0x00, 0x84, 0xfb, 0xff, 0xff, 0x6f, 0x00, 0x00, 0x00,
  0x73, 0x65, 0x71, 0x75, 0x65, 0x6e, 0x74, 0x69, 0x61, 0x6c, 0x5f, 0x33,
  0x5f, 0x31, 0x2f, 0x63, 0x6f, 0x6e, 0x76, 0x31, 0x64, 0x5f, 0x33, 0x5f,
  0x31, 0x2f, 0x54, 0x61, 0x6e, 0x68, 0x3b, 0x73, 0x65, 0x71, 0x75, 0x65,
  0x6e, 0x74, 0x69, 0x61, 0x6c, 0x5f, 0x33, 0x5f, 0x31, 0x2f, 0x63, 0x6f,
  0x6e, 0x76, 0x31, 0x64, 0x5f, 0x33, 0x5f, 0x31, 0x2f, 0x42, 0x69, 0x61,
  0x73, 0x41, 0x64, 0x64, 0x3b, 0x73, 0x65, 0x71, 0x75, 0x65, 0x6e, 0x74,
  0x69, 0x61, 0x6c, 0x5f, 0x33, 0x5f, 0x31, 0x2f, 0x63, 0x6f, 0x6e, 0x76,
  0x31, 0x64, 0x5f, 0x33, 0x5f, 0x31, 0x2f, 0x63, 0x6f, 0x6e, 0x76, 0x6f,
  0x6c, 0x75, 0x74, 0x69, 0x6f, 0x6e, 0x2f, 0x53, 0x71, 0x75, 0x65, 0x65,
  0x7a, 0x65, 0x3b, 0x00, 0x04, 0x00, 0x00, 0x00, 0x01, 0x00, 0x00, 0x00,
  0x01, 0x00, 0x00, 0x00, 0x0a, 0x00, 0x00, 0x00, 0x10, 0x00, 0x00, 0x00,
  0x52, 0xfc, 0xff, 0xff, 0x00, 0x00, 0x00, 0x01, 0x14, 0x00, 0x00, 0x00,
  0x24, 0x00, 0x00, 0x00, 0x24, 0x00, 0x00, 0x00, 0x0c, 0x00, 0x00, 0x00,
  0x98, 0x00, 0x00, 0x00, 0x04, 0x00, 0x00, 0x00, 0xff, 0xff, 0xff, 0xff,
  0x01, 0x00, 0x00, 0x00, 0x0a, 0x00, 0x00, 0x00, 0x10, 0x00, 0x00, 0x00,
  0x40, 0xfc, 0xff, 0xff, 0x76, 0x00, 0x00, 0x00, 0x73, 0x65, 0x71, 0x75,
  0x65, 0x6e, 0x74, 0x69, 0x61, 0x6c, 0x5f, 0x33, 0x5f, 0x31, 0x2f, 0x63,
  0x6f, 0x6e, 0x76, 0x31, 0x64, 0x5f, 0x33, 0x5f, 0x31, 0x2f, 0x42, 0x69,
  0x61, 0x73, 0x41, 0x64, 0x64, 0x3b, 0x73, 0x65, 0x71, 0x75, 0x65, 0x6e,
  0x74, 0x69, 0x61, 0x6c, 0x5f, 0x33, 0x5f, 0x31, 0x2f, 0x63, 0x6f, 0x6e,
  0x76, 0x31, 0x64, 0x5f, 0x33, 0x5f, 0x31, 0x2f, 0x63, 0x6f, 0x6e, 0x76,
  0x6f, 0x6c, 0x75, 0x74, 0x69, 0x6f, 0x6e, 0x2f, 0x53, 0x71, 0x75, 0x65,
  0x65, 0x7a, 0x65, 0x3b, 0x3b, 0x73, 0x65, 0x71, 0x75, 0x65, 0x6e, 0x74,
  0x69, 0x61, 0x6c, 0x5f, 0x33, 0x5f, 0x31, 0x2f, 0x63, 0x6f, 0x6e, 0x76,
  0x31, 0x64, 0x5f, 0x33, 0x5f, 0x31, 0x2f, 0x63, 0x6f, 0x6e, 0x76, 0x6f,
  0x6c, 0x75, 0x74, 0x69, 0x6f, 0x6e, 0x00, 0x00, 0x04, 0x00, 0x00, 0x00,
  0x01, 0x00, 0x00, 0x00, 0x01, 0x00, 0x00, 0x00, 0x0a, 0x00, 0x00, 0x00,
  0x10, 0x00, 0x00, 0x00, 0x16, 0xfd, 0xff, 0xff, 0x00, 0x00, 0x00, 0x01,
  0x14, 0x00, 0x00, 0x00, 0x24, 0x00, 0x00, 0x00, 0x24, 0x00, 0x00, 0x00,
  0x0b, 0x00, 0x00, 0x00, 0x54, 0x00, 0x00, 0x00, 0x04, 0x00, 0x00, 0x00,
  0xff, 0xff, 0xff, 0xff, 0x01, 0x00, 0x00, 0x00, 0x0c, 0x00, 0x00, 0x00,
  0x06, 0x00, 0x00, 0x00, 0x04, 0xfd, 0xff, 0xff, 0x30, 0x00, 0x00, 0x00,
  0x73, 0x65, 0x71, 0x75, 0x65, 0x6e, 0x74, 0x69, 0x61, 0x6c, 0x5f, 0x33,
  0x5f, 0x31, 0x2f, 0x63, 0x6f, 0x6e, 0x76, 0x31, 0x64, 0x5f, 0x33, 0x5f,
  0x31, 0x2f, 0x63, 0x6f, 0x6e, 0x76, 0x6f, 0x6c, 0x75, 0x74, 0x69, 0x6f,
  0x6e, 0x2f, 0x45, 0x78, 0x70, 0x61, 0x6e, 0x64, 0x44, 0x69, 0x6d, 0x73,
  0x00, 0x00, 0x00, 0x00, 0x04, 0x00, 0x00, 0x00, 0x01, 0x00, 0x00, 0x00,
  0x01, 0x00, 0x00, 0x00, 0x0c, 0x00, 0x00, 0x00, 0x06, 0x00, 0x00, 0x00,
  0x3a, 0xfe, 0xff, 0xff, 0x00, 0x00, 0x00, 0x01, 0x14, 0x00, 0x00, 0x00,
  0x14, 0x00, 0x00, 0x00, 0x0a, 0x00, 0x00, 0x00, 0x00, 0x00, 0x00, 0x02,
  0x44, 0x00, 0x00, 0x00, 0x70, 0xfd, 0xff, 0xff, 0x34, 0x00, 0x00, 0x00,
  0x73, 0x65, 0x71, 0x75, 0x65, 0x6e, 0x74, 0x69, 0x61, 0x6c, 0x5f, 0x33,
  0x5f, 0x31, 0x2f, 0x63, 0x6f, 0x6e, 0x76, 0x31, 0x64, 0x5f, 0x33, 0x5f,
  0x31, 0x2f, 0x63, 0x6f, 0x6e, 0x76, 0x6f, 0x6c, 0x75, 0x74, 0x69, 0x6f,
  0x6e, 0x2f, 0x45, 0x78, 0x70, 0x61, 0x6e, 0x64, 0x44, 0x69, 0x6d, 0x73,
  0x2f, 0x64, 0x69, 0x6d, 0x00, 0x00, 0x00, 0x00, 0x00, 0x00, 0x00, 0x00,
  0x9a, 0xfe, 0xff, 0xff, 0x00, 0x00, 0x00, 0x01, 0x14, 0x00, 0x00, 0x00,
  0x14, 0x00, 0x00, 0x00, 0x09, 0x00, 0x00, 0x00, 0x00, 0x00, 0x00, 0x02,
  0x1c, 0x00, 0x00, 0x00, 0xd0, 0xfd, 0xff, 0xff, 0x0f, 0x00, 0x00, 0x00,
  0x61, 0x72, 0x69, 0x74, 0x68, 0x2e, 0x63, 0x6f, 0x6e, 0x73, 0x74, 0x61,
  0x6e, 0x74, 0x37, 0x00, 0x00, 0x00, 0x00, 0x00, 0x7e, 0xfe, 0xff, 0xff,
  0x00, 0x00, 0x00, 0x01, 0x10, 0x00, 0x00, 0x00, 0x10, 0x00, 0x00, 0x00,
  0x08, 0x00, 0x00, 0x00, 0x1c, 0x00, 0x00, 0x00, 0x04, 0xfe, 0xff, 0xff,
  0x0f, 0x00, 0x00, 0x00, 0x61, 0x72, 0x69, 0x74, 0x68, 0x2e, 0x63, 0x6f,
  0x6e, 0x73, 0x74, 0x61, 0x6e, 0x74, 0x36, 0x00, 0x01, 0x00, 0x00, 0x00,
  0x08, 0x00, 0x00, 0x00, 0xb6, 0xfe, 0xff, 0xff, 0x00, 0x00, 0x00, 0x01,
  0x10, 0x00, 0x00, 0x00, 0x10, 0x00, 0x00, 0x00, 0x07, 0x00, 0x00, 0x00,
  0x1c, 0x00, 0x00, 0x00, 0x3c, 0xfe, 0xff, 0xff, 0x0f, 0x00, 0x00, 0x00,
  0x61, 0x72, 0x69, 0x74, 0x68, 0x2e, 0x63, 0x6f, 0x6e, 0x73, 0x74, 0x61,
  0x6e, 0x74, 0x35, 0x00, 0x01, 0x00, 0x00, 0x00, 0x03, 0x00, 0x00, 0x00,
  0xee, 0xfe, 0xff, 0xff, 0x00, 0x00, 0x00, 0x01, 0x10, 0x00, 0x00, 0x00,
  0x10, 0x00, 0x00, 0x00, 0x06, 0x00, 0x00, 0x00, 0x1c, 0x00, 0x00, 0x00,
  0x74, 0xfe, 0xff, 0xff, 0x0f, 0x00, 0x00, 0x00, 0x61, 0x72, 0x69, 0x74,
  0x68, 0x2e, 0x63, 0x6f, 0x6e, 0x73, 0x74, 0x61, 0x6e, 0x74, 0x34, 0x00,
  0x02, 0x00, 0x00, 0x00, 0x08, 0x00, 0x00, 0x00, 0x10, 0x00, 0x00, 0x00,
  0x2a, 0xff, 0xff, 0xff, 0x00, 0x00, 0x00, 0x01, 0x10, 0x00, 0x00, 0x00,
  0x10, 0x00, 0x00, 0x00, 0x05, 0x00, 0x00, 0x00, 0x1c, 0x00, 0x00, 0x00,
  0xb0, 0xfe, 0xff, 0xff, 0x0f, 0x00, 0x00, 0x00, 0x61, 0x72, 0x69, 0x74,
  0x68, 0x2e, 0x63, 0x6f, 0x6e, 0x73, 0x74, 0x61, 0x6e, 0x74, 0x33, 0x00,
  0x02, 0x00, 0x00, 0x00, 0x03, 0x00, 0x00, 0x00, 0x08, 0x00, 0x00, 0x00,
  0x66, 0xff, 0xff, 0xff, 0x00, 0x00, 0x00, 0x01, 0x10, 0x00, 0x00, 0x00,
  0x10, 0x00, 0x00, 0x00, 0x04, 0x00, 0x00, 0x00, 0x1c, 0x00, 0x00, 0x00,
  0xec, 0xfe, 0xff, 0xff, 0x0f, 0x00, 0x00, 0x00, 0x61, 0x72, 0x69, 0x74,
  0x68, 0x2e, 0x63, 0x6f, 0x6e, 0x73, 0x74, 0x61, 0x6e, 0x74, 0x32, 0x00,
  0x04, 0x00, 0x00, 0x00, 0x10, 0x00, 0x00, 0x00, 0x01, 0x00, 0x00, 0x00,
  0x03, 0x00, 0x00, 0x00, 0x06, 0x00, 0x00, 0x00, 0x00, 0x00, 0x16, 0x00,
  0x1c, 0x00, 0x18, 0x00, 0x17, 0x00, 0x10, 0x00, 0x0c, 0x00, 0x08, 0x00,
  0x00, 0x00, 0x00, 0x00, 0x00, 0x00, 0x07, 0x00, 0x16, 0x00, 0x00, 0x00,
  0x00, 0x00, 0x00, 0x01, 0x14, 0x00, 0x00, 0x00, 0x14, 0x00, 0x00, 0x00,
  0x03, 0x00, 0x00, 0x00, 0x00, 0x00, 0x00, 0x02, 0x1c, 0x00, 0x00, 0x00,
  0x4c, 0xff, 0xff, 0xff, 0x0f, 0x00, 0x00, 0x00, 0x61, 0x72, 0x69, 0x74,
  0x68, 0x2e, 0x63, 0x6f, 0x6e, 0x73, 0x74, 0x61, 0x6e, 0x74, 0x31, 0x00,
  0x01, 0x00, 0x00, 0x00, 0x03, 0x00, 0x00, 0x00, 0x00, 0x00, 0x16, 0x00,
  0x18, 0x00, 0x14, 0x00, 0x00, 0x00, 0x10, 0x00, 0x0c, 0x00, 0x08, 0x00,
  0x00, 0x00, 0x00, 0x00, 0x00, 0x00, 0x07, 0x00, 0x16, 0x00, 0x00, 0x00,
  0x00, 0x00, 0x00, 0x01, 0x10, 0x00, 0x00, 0x00, 0x10, 0x00, 0x00, 0x00,
  0x02, 0x00, 0x00, 0x00, 0x1c, 0x00, 0x00, 0x00, 0x9c, 0xff, 0xff, 0xff,
  0x0e, 0x00, 0x00, 0x00, 0x61, 0x72, 0x69, 0x74, 0x68, 0x2e, 0x63, 0x6f,
  0x6e, 0x73, 0x74, 0x61, 0x6e, 0x74, 0x00, 0x00, 0x01, 0x00, 0x00, 0x00,
  0x10, 0x00, 0x00, 0x00, 0x00, 0x00, 0x16, 0x00, 0x1c, 0x00, 0x18, 0x00,
  0x00, 0x00, 0x14, 0x00, 0x10, 0x00, 0x0c, 0x00, 0x00, 0x00, 0x00, 0x00,
  0x08, 0x00, 0x07, 0x00, 0x16, 0x00, 0x00, 0x00, 0x00, 0x00, 0x00, 0x01,
  0x14, 0x00, 0x00, 0x00, 0x24, 0x00, 0x00, 0x00, 0x24, 0x00, 0x00, 0x00,
  0x01, 0x00, 0x00, 0x00, 0x44, 0x00, 0x00, 0x00, 0x03, 0x00, 0x00, 0x00,
  0xff, 0xff, 0xff, 0xff, 0x0c, 0x00, 0x00, 0x00, 0x06, 0x00, 0x00, 0x00,
  0x04, 0x00, 0x04, 0x00, 0x04, 0x00, 0x00, 0x00, 0x21, 0x00, 0x00, 0x00,
  0x73, 0x65, 0x72, 0x76, 0x69, 0x6e, 0x67, 0x5f, 0x64, 0x65, 0x66, 0x61,
  0x75, 0x6c, 0x74, 0x5f, 0x6b, 0x65, 0x72, 0x61, 0x73, 0x5f, 0x74, 0x65,
  0x6e, 0x73, 0x6f, 0x72, 0x5f, 0x31, 0x33, 0x3a, 0x30, 0x00, 0x00, 0x00,
  0x03, 0x00, 0x00, 0x00, 0x01, 0x00, 0x00, 0x00, 0x0c, 0x00, 0x00, 0x00,
  0x06, 0x00, 0x00, 0x00, 0x07, 0x00, 0x00, 0x00, 0x70, 0x00, 0x00, 0x00,
  0x54, 0x00, 0x00, 0x00, 0x44, 0x00, 0x00, 0x00, 0x34, 0x00, 0x00, 0x00,
  0x24, 0x00, 0x00, 0x00, 0x14, 0x00, 0x00, 0x00, 0x04, 0x00, 0x00, 0x00,
  0xb8, 0xff, 0xff, 0xff, 0x19, 0x00, 0x00, 0x00, 0x00, 0x00, 0x00, 0x19,
  0xc4, 0xff, 0xff, 0xff, 0x09, 0x00, 0x00, 0x00, 0x00, 0x00, 0x00, 0x09,
  0xd0, 0xff, 0xff, 0xff, 0x28, 0x00, 0x00, 0x00, 0x00, 0x00, 0x00, 0x28,
  0xdc, 0xff, 0xff, 0xff, 0x16, 0x00, 0x00, 0x00, 0x00, 0x00, 0x00, 0x16,
  0xe8, 0xff, 0xff, 0xff, 0x1c, 0x00, 0x00, 0x00, 0x00, 0x00, 0x00, 0x1c,
  0xf4, 0xff, 0xff, 0xff, 0x03, 0x00, 0x00, 0x00, 0x00, 0x00, 0x00, 0x03,
  0x0c, 0x00, 0x0c, 0x00, 0x0b, 0x00, 0x00, 0x00, 0x00, 0x00, 0x04, 0x00,
  0x0c, 0x00, 0x00, 0x00, 0x46, 0x00, 0x00, 0x00, 0x00, 0x00, 0x00, 0x46
};
unsigned int boxing_model_tflite_len = 5244;
