unsigned char boxing_model_right_8_tflite[] = {
  0x1c, 0x00, 0x00, 0x00, 0x54, 0x46, 0x4c, 0x33, 0x14, 0x00, 0x20, 0x00,
  0x1c, 0x00, 0x18, 0x00, 0x14, 0x00, 0x10, 0x00, 0x0c, 0x00, 0x00, 0x00,
  0x08, 0x00, 0x04, 0x00, 0x14, 0x00, 0x00, 0x00, 0x1c, 0x00, 0x00, 0x00,
  0x8c, 0x00, 0x00, 0x00, 0xe4, 0x00, 0x00, 0x00, 0xb4, 0x09, 0x00, 0x00,
  0xc4, 0x09, 0x00, 0x00, 0x84, 0x13, 0x00, 0x00, 0x03, 0x00, 0x00, 0x00,
  0x01, 0x00, 0x00, 0x00, 0x04, 0x00, 0x00, 0x00, 0xee, 0xf4, 0xff, 0xff,
  0x0c, 0x00, 0x00, 0x00, 0x1c, 0x00, 0x00, 0x00, 0x3c, 0x00, 0x00, 0x00,
  0x0f, 0x00, 0x00, 0x00, 0x73, 0x65, 0x72, 0x76, 0x69, 0x6e, 0x67, 0x5f,
  0x64, 0x65, 0x66, 0x61, 0x75, 0x6c, 0x74, 0x00, 0x01, 0x00, 0x00, 0x00,
  0x04, 0x00, 0x00, 0x00, 0x90, 0xff, 0xff, 0xff, 0x11, 0x00, 0x00, 0x00,
  0x04, 0x00, 0x00, 0x00, 0x08, 0x00, 0x00, 0x00, 0x6f, 0x75, 0x74, 0x70,
  0x75, 0x74, 0x5f, 0x30, 0x00, 0x00, 0x00, 0x00, 0x01, 0x00, 0x00, 0x00,
  0x04, 0x00, 0x00, 0x00, 0x26, 0xf6, 0xff, 0xff, 0x04, 0x00, 0x00, 0x00,
  0x0c, 0x00, 0x00, 0x00, 0x6b, 0x65, 0x72, 0x61, 0x73, 0x5f, 0x74, 0x65,
  0x6e, 0x73, 0x6f, 0x72, 0x00, 0x00, 0x00, 0x00, 0x02, 0x00, 0x00, 0x00,
  0x34, 0x00, 0x00, 0x00, 0x04, 0x00, 0x00, 0x00, 0xdc, 0xff, 0xff, 0xff,
  0x14, 0x00, 0x00, 0x00, 0x04, 0x00, 0x00, 0x00, 0x13, 0x00, 0x00, 0x00,
  0x43, 0x4f, 0x4e, 0x56, 0x45, 0x52, 0x53, 0x49, 0x4f, 0x4e, 0x5f, 0x4d,
  0x45, 0x54, 0x41, 0x44, 0x41, 0x54, 0x41, 0x00, 0x08, 0x00, 0x0c, 0x00,
  0x08, 0x00, 0x04, 0x00, 0x08, 0x00, 0x00, 0x00, 0x13, 0x00, 0x00, 0x00,
  0x04, 0x00, 0x00, 0x00, 0x13, 0x00, 0x00, 0x00, 0x6d, 0x69, 0x6e, 0x5f,
  0x72, 0x75, 0x6e, 0x74, 0x69, 0x6d, 0x65, 0x5f, 0x76, 0x65, 0x72, 0x73,
  0x69, 0x6f, 0x6e, 0x00, 0x15, 0x00, 0x00, 0x00, 0xcc, 0x08, 0x00, 0x00,
  0xc4, 0x08, 0x00, 0x00, 0x74, 0x08, 0x00, 0x00, 0x58, 0x08, 0x00, 0x00,
  0xc8, 0x03, 0x00, 0x00, 0x58, 0x03, 0x00, 0x00, 0x48, 0x01, 0x00, 0x00,
  0x18, 0x01, 0x00, 0x00, 0xfc, 0x00, 0x00, 0x00, 0xe8, 0x00, 0x00, 0x00,
  0xd4, 0x00, 0x00, 0x00, 0xcc, 0x00, 0x00, 0x00, 0xc4, 0x00, 0x00, 0x00,
  0xbc, 0x00, 0x00, 0x00, 0xb4, 0x00, 0x00, 0x00, 0xac, 0x00, 0x00, 0x00,
  0xa4, 0x00, 0x00, 0x00, 0x9c, 0x00, 0x00, 0x00, 0x94, 0x00, 0x00, 0x00,
  0x74, 0x00, 0x00, 0x00, 0x04, 0x00, 0x00, 0x00, 0xf6, 0xf6, 0xff, 0xff,
  0x04, 0x00, 0x00, 0x00, 0x60, 0x00, 0x00, 0x00, 0x0c, 0x00, 0x00, 0x00,
  0x08, 0x00, 0x0e, 0x00, 0x08, 0x00, 0x04, 0x00, 0x08, 0x00, 0x00, 0x00,
  0x10, 0x00, 0x00, 0x00, 0x28, 0x00, 0x00, 0x00, 0x00, 0x00, 0x06, 0x00,
  0x08, 0x00, 0x04, 0x00, 0x06, 0x00, 0x00, 0x00, 0x04, 0x00, 0x00, 0x00,
  0x01, 0x00, 0x00, 0x00, 0xea, 0x03, 0x00, 0x00, 0x0c, 0x00, 0x18, 0x00,
  0x14, 0x00, 0x10, 0x00, 0x0c, 0x00, 0x04, 0x00, 0x0c, 0x00, 0x00, 0x00,
  0x6f, 0xf6, 0x70, 0x52, 0xa0, 0xf4, 0x11, 0x15, 0x02, 0x00, 0x00, 0x00,
  0x02, 0x00, 0x00, 0x00, 0x04, 0x00, 0x00, 0x00, 0x06, 0x00, 0x00, 0x00,
  0x32, 0x2e, 0x31, 0x38, 0x2e, 0x30, 0x00, 0x00, 0x62, 0xf7, 0xff, 0xff,
  0x04, 0x00, 0x00, 0x00, 0x10, 0x00, 0x00, 0x00, 0x31, 0x2e, 0x31, 0x34,
  0x2e, 0x30, 0x00, 0x00, 0x00, 0x00, 0x00, 0x00, 0x00, 0x00, 0x00, 0x00,
  0x70, 0xee, 0xff, 0xff, 0x74, 0xee, 0xff, 0xff, 0x78, 0xee, 0xff, 0xff,
  0x7c, 0xee, 0xff, 0xff, 0x80, 0xee, 0xff, 0xff, 0x84, 0xee, 0xff, 0xff,
  0x88, 0xee, 0xff, 0xff, 0x8c, 0xee, 0xff, 0xff, 0x9e, 0xf7, 0xff, 0xff,
  0x04, 0x00, 0x00, 0x00, 0x04, 0x00, 0x00, 0x00, 0xfd, 0xff, 0xff, 0xff,
  0xae, 0xf7, 0xff, 0xff, 0x04, 0x00, 0x00, 0x00, 0x04, 0x00, 0x00, 0x00,
  0x01, 0x00, 0x00, 0x00, 0xbe, 0xf7, 0xff, 0xff, 0x04, 0x00, 0x00, 0x00,
  0x0c, 0x00, 0x00, 0x00, 0x13, 0xd9, 0x56, 0x3e, 0x20, 0x28, 0x0f, 0xbe,
  0xa7, 0x08, 0xc0, 0xbd, 0xd6, 0xf7, 0xff, 0xff, 0x04, 0x00, 0x00, 0x00,
  0x20, 0x00, 0x00, 0x00, 0x23, 0xb9, 0x04, 0x3f, 0x20, 0x2a, 0x9b, 0x3b,
  0x35, 0x5b, 0xc3, 0x3d, 0xd8, 0xe7, 0x6f, 0xbd, 0x0a, 0xe1, 0x7a, 0x3e,
  0x18, 0x65, 0x7f, 0x3e, 0xe8, 0x40, 0x38, 0x3e, 0x1f, 0xcd, 0x97, 0x3e,
  0x02, 0xf8, 0xff, 0xff, 0x04, 0x00, 0x00, 0x00, 0x00, 0x02, 0x00, 0x00,
  0xd5, 0x60, 0x61, 0xbf, 0xa2, 0x34, 0x45, 0x3f, 0x75, 0xd3, 0x17, 0x3e,
  0x9d, 0x46, 0x4e, 0xbe, 0x13, 0x40, 0x58, 0xbe, 0x30, 0x77, 0x05, 0x3f,
  0x9a, 0x5b, 0xee, 0x3e, 0x9c, 0x0d, 0xfe, 0x3e, 0x7a, 0x22, 0x27, 0x3e,
  0xdb, 0xdf, 0xd5, 0xbe, 0x4d, 0x59, 0x9e, 0x3d, 0x32, 0x5b, 0x57, 0x3f,
  0x6f, 0x8f, 0x38, 0xbe, 0xd6, 0x58, 0xb5, 0x3c, 0x23, 0x58, 0x28, 0x3f,
  0x0f, 0xc8, 0x64, 0x3d, 0xfa, 0x72, 0x9b, 0xbe, 0x25, 0x9a, 0x82, 0x3e,
  0x63, 0x86, 0x05, 0xbf, 0xec, 0x71, 0xd1, 0xbe, 0xe7, 0x32, 0xc4, 0xbe,
  0x83, 0xa8, 0xe4, 0x3e, 0x95, 0xcf, 0xe1, 0x3e, 0xa1, 0x56, 0xd4, 0x3d,
  0xb4, 0x6f, 0xf4, 0x3e, 0xab, 0xff, 0x40, 0xbe, 0xc3, 0xde, 0xa4, 0x3e,
  0x6d, 0x42, 0xdf, 0xbe, 0x2b, 0xd9, 0x83, 0xbe, 0x90, 0xa1, 0x08, 0xbe,
  0xe1, 0x65, 0xc9, 0x3e, 0x16, 0x45, 0x78, 0x3e, 0xd1, 0x2d, 0x13, 0x3e,
  0x0b, 0xc6, 0x85, 0xbe, 0x4a, 0xc0, 0xf9, 0x3e, 0xfc, 0xf0, 0x8f, 0xbd,
  0x65, 0xe3, 0x63, 0xbe, 0x3e, 0xfe, 0x0d, 0xbf, 0x1c, 0x76, 0xaf, 0xbe,
  0x62, 0x56, 0x83, 0xbe, 0x86, 0x9f, 0x10, 0xbf, 0x12, 0x13, 0x2b, 0xbf,
  0x04, 0xda, 0xfd, 0xbe, 0x33, 0x0b, 0xa9, 0xbd, 0x8a, 0x9f, 0x39, 0xbe,
  0x38, 0x5b, 0xa2, 0x3d, 0x6a, 0xcb, 0xe1, 0xbe, 0x26, 0x6c, 0xff, 0x3d,
  0xd8, 0x6c, 0x8e, 0x3e, 0xa5, 0xe6, 0x63, 0x3e, 0xdb, 0xd0, 0xe8, 0xbe,
  0xc1, 0x9d, 0x0a, 0x3f, 0xba, 0x28, 0xa6, 0xbe, 0x92, 0x67, 0xbf, 0x3d,
  0x92, 0xbe, 0xa5, 0xbe, 0x26, 0xcf, 0x8c, 0x3e, 0xb6, 0x53, 0x15, 0x3f,
  0xa8, 0x22, 0x8d, 0xbd, 0x64, 0x37, 0x17, 0x3e, 0x0a, 0xd1, 0x0b, 0xbe,
  0x0e, 0x64, 0x05, 0x3f, 0xbf, 0x34, 0xaf, 0xbe, 0xac, 0x29, 0xc6, 0xbd,
  0xf8, 0x9f, 0x10, 0x3f, 0x1a, 0x0c, 0x38, 0xbd, 0xf2, 0xfb, 0x00, 0xbf,
  0xd7, 0x48, 0x68, 0xbe, 0xe1, 0x36, 0x11, 0xbe, 0xb2, 0xc7, 0x98, 0x3e,
  0x18, 0x20, 0x65, 0x3e, 0x5f, 0x8c, 0x83, 0xbe, 0x96, 0x6d, 0x2b, 0xbf,
  0x58, 0x0c, 0x45, 0xbe, 0x80, 0xd9, 0x1d, 0x3f, 0x7c, 0x45, 0xf1, 0x3d,
  0x27, 0xb8, 0xbb, 0xbe, 0x39, 0xa7, 0x01, 0xbf, 0x85, 0xf1, 0x4b, 0xbf,
  0xd1, 0x78, 0xf3, 0x3e, 0xfd, 0x58, 0x28, 0xbe, 0x22, 0x7f, 0xd3, 0x3e,
  0x07, 0xf0, 0xc7, 0x3e, 0xf0, 0xa3, 0x3d, 0x3f, 0x66, 0x33, 0xd9, 0x3e,
  0x32, 0xc3, 0x68, 0xbf, 0x92, 0xb3, 0x94, 0xbe, 0xc9, 0xb7, 0xe5, 0xbe,
  0x72, 0xfa, 0x1b, 0x3e, 0xc7, 0x76, 0x11, 0xbf, 0xf6, 0x38, 0x0e, 0xbf,
  0xb0, 0x91, 0x92, 0xbe, 0x5d, 0x16, 0x39, 0xbf, 0x31, 0x24, 0x6d, 0xbe,
  0xce, 0x69, 0x40, 0x3f, 0x4c, 0x4b, 0x03, 0xbf, 0x58, 0xd8, 0x7b, 0xbe,
  0x5e, 0x66, 0x91, 0x3e, 0x8c, 0x7a, 0x95, 0xbe, 0x2a, 0xbf, 0x9d, 0x3e,
  0x54, 0x29, 0x46, 0xbf, 0x5d, 0xee, 0x11, 0xbd, 0x2d, 0xaa, 0x5b, 0xbe,
  0x10, 0x1f, 0x3b, 0x3f, 0xe1, 0x75, 0x46, 0xbf, 0x45, 0x1e, 0xca, 0xbe,
  0x32, 0x68, 0x1e, 0xbf, 0x0b, 0x2a, 0xa9, 0xbe, 0x67, 0xf3, 0x3a, 0x3f,
  0x58, 0x69, 0x03, 0x3f, 0x6f, 0xee, 0x16, 0xbf, 0x24, 0xe4, 0xef, 0xbe,
  0xdc, 0xcf, 0x52, 0x3f, 0x53, 0x03, 0xfa, 0xbe, 0xb3, 0xf8, 0xb4, 0x3e,
  0x30, 0x50, 0x91, 0x3e, 0x06, 0xe5, 0x06, 0xbf, 0x34, 0xd4, 0x9d, 0x3e,
  0x92, 0x4f, 0x01, 0x3f, 0x11, 0xee, 0xd4, 0xbe, 0x66, 0xee, 0x82, 0x3c,
  0xf5, 0xdc, 0x31, 0x3e, 0x71, 0xfe, 0x98, 0x3d, 0x4f, 0xd5, 0x9e, 0x3c,
  0xa2, 0xe1, 0x39, 0x3e, 0x5c, 0x6e, 0x19, 0xbf, 0xd4, 0x9e, 0x23, 0xbf,
  0xe4, 0x2e, 0x08, 0x3f, 0x02, 0xd9, 0x17, 0xbf, 0x0e, 0xfa, 0xff, 0xff,
  0x04, 0x00, 0x00, 0x00, 0x60, 0x00, 0x00, 0x00, 0x79, 0x34, 0x24, 0x3f,
  0xc4, 0x3b, 0x36, 0x3e, 0x3a, 0x1b, 0x32, 0xbf, 0xe5, 0x83, 0xc9, 0x3d,
  0x71, 0x33, 0x2d, 0xbe, 0xc1, 0x79, 0x1f, 0xbf, 0x2c, 0xfa, 0xb9, 0xbe,
  0xc5, 0xeb, 0x50, 0x3f, 0xb6, 0x98, 0x4f, 0xbe, 0x5e, 0x71, 0x34, 0xbf,
  0x3d, 0x6c, 0xc8, 0x3e, 0xfe, 0x13, 0x3a, 0xbf, 0x95, 0x1b, 0x83, 0xbf,
  0x91, 0x21, 0xf7, 0x3e, 0xf0, 0x78, 0x56, 0xbf, 0x71, 0xec, 0xb6, 0xbe,
  0x42, 0xfc, 0xe2, 0xbe, 0x30, 0x82, 0x54, 0x3e, 0x3b, 0x39, 0x93, 0x3e,
  0x0f, 0x03, 0xb9, 0x3d, 0xaa, 0xad, 0x51, 0xbf, 0xa4, 0x38, 0xa2, 0xbf,
  0x83, 0x29, 0xba, 0x3e, 0x0a, 0x7a, 0x89, 0xbf, 0x7a, 0xfa, 0xff, 0xff,
  0x04, 0x00, 0x00, 0x00, 0x80, 0x04, 0x00, 0x00, 0x12, 0x3f, 0xc2, 0x3d,
  0xd4, 0xf3, 0x40, 0xbe, 0xb8, 0xe8, 0x21, 0x3e, 0xb0, 0xfa, 0x2c, 0x3e,
  0x71, 0x4e, 0x9e, 0x3e, 0x15, 0xa9, 0x86, 0x3e, 0xa2, 0xe6, 0x2f, 0xbe,
  0xda, 0xc0, 0x21, 0x3c, 0x61, 0xc3, 0xf1, 0xbd, 0x87, 0xb1, 0xcc, 0x3b,
  0x08, 0xbd, 0x11, 0x3e, 0x1f, 0x4f, 0x60, 0xbd, 0xb0, 0x22, 0x22, 0x3e,
  0x48, 0xcf, 0xa9, 0x3e, 0x46, 0x08, 0x12, 0x3e, 0xa8, 0xee, 0x7f, 0xbe,
  0xaf, 0xc6, 0x22, 0x3d, 0x40, 0x0a, 0x86, 0x3d, 0x10, 0x5e, 0x30, 0xbe,
  0x1e, 0x3f, 0xb4, 0x3b, 0x5d, 0x09, 0xed, 0xbd, 0x1d, 0x7c, 0x82, 0xbe,
  0x38, 0x07, 0xc7, 0xbb, 0xf8, 0x78, 0x9a, 0xbe, 0xe1, 0xda, 0x00, 0x3c,
  0x65, 0xfe, 0x87, 0xbe, 0xba, 0x23, 0x0d, 0xbe, 0xd1, 0xd6, 0x76, 0xbe,
  0x6b, 0x2a, 0x30, 0xbd, 0x07, 0xc4, 0x72, 0x3d, 0x12, 0x1f, 0x14, 0x3e,
  0xe1, 0x0f, 0x0e, 0x3d, 0x3c, 0x7d, 0x28, 0xbe, 0x83, 0xe3, 0xc1, 0xbd,
  0xbe, 0x2b, 0x49, 0x3e, 0xcb, 0x65, 0x02, 0x3e, 0x72, 0x29, 0xdd, 0xbc,
  0x9c, 0x57, 0x97, 0xbe, 0xed, 0x8f, 0xce, 0x3d, 0xc6, 0x22, 0xc0, 0xbd,
  0x06, 0x58, 0x80, 0x3d, 0x7e, 0xe4, 0x0a, 0x3f, 0x51, 0x98, 0x35, 0xbe,
  0x4e, 0x7f, 0x6a, 0x3c, 0x7b, 0x5c, 0x10, 0xbd, 0x7c, 0x3a, 0x6f, 0xbd,
  0xa0, 0x5a, 0x9e, 0x3e, 0xd2, 0x92, 0x9b, 0x3e, 0xdc, 0xb0, 0xf0, 0xbd,
  0xa5, 0xfe, 0x8e, 0x3d, 0x1a, 0xc4, 0xed, 0xbc, 0xba, 0x47, 0x9b, 0x3d,
  0xb0, 0x0d, 0xb5, 0xbd, 0x9c, 0x84, 0x31, 0xbe, 0x1c, 0x10, 0x44, 0xbe,
  0xf7, 0xb9, 0x5b, 0xbe, 0x4c, 0xd0, 0x6b, 0x3e, 0x71, 0xaa, 0xf5, 0xbd,
  0x9b, 0x96, 0x30, 0x3e, 0xc4, 0xd4, 0xea, 0x3d, 0x53, 0xbd, 0x1c, 0x3e,
  0x21, 0x41, 0x19, 0x3e, 0xec, 0x17, 0xb4, 0x3c, 0xcb, 0x3e, 0x5e, 0xbd,
  0x30, 0xfd, 0x05, 0xbe, 0xf2, 0xd6, 0x7a, 0x3e, 0x04, 0x0a, 0x7f, 0x3e,
  0xb1, 0xfd, 0xcc, 0xbb, 0xa8, 0x1f, 0x0c, 0xbe, 0xaa, 0xe9, 0x2d, 0xbd,
  0xfc, 0x32, 0x9e, 0x3e, 0x1e, 0x5f, 0x88, 0xbe, 0x71, 0x52, 0xee, 0xbb,
  0x4f, 0x2d, 0x84, 0x3e, 0x67, 0x3c, 0x19, 0xbe, 0xdf, 0x5a, 0x77, 0x3e,
  0x59, 0x27, 0xe3, 0xba, 0xe4, 0x23, 0x9e, 0xbe, 0x4e, 0x2d, 0x36, 0xbe,
  0x04, 0xe2, 0x8e, 0x3d, 0x23, 0x87, 0xe3, 0x3d, 0xec, 0xa6, 0x37, 0x3e,
  0x28, 0xc6, 0x89, 0xbe, 0x77, 0x1f, 0x57, 0x3d, 0x1b, 0x9a, 0x60, 0xbe,
  0xa0, 0x9a, 0x10, 0xbe, 0xe7, 0x32, 0xd9, 0x3d, 0x22, 0xf3, 0x62, 0xbe,
  0x2a, 0xaa, 0x38, 0xbe, 0xb8, 0xf2, 0x9f, 0x3e, 0x3b, 0x4b, 0x2f, 0x3d,
  0x05, 0xb9, 0x1a, 0xbb, 0xde, 0xbd, 0xbe, 0xbe, 0xa1, 0x67, 0xd7, 0x3e,
  0x3b, 0x94, 0x7c, 0x3d, 0x85, 0xe2, 0x93, 0x3e, 0x69, 0x1d, 0x0d, 0xbe,
  0x0b, 0x25, 0x6a, 0x3e, 0x23, 0x22, 0x65, 0xbe, 0x26, 0x3f, 0x15, 0x3d,
  0xb9, 0xa2, 0x5c, 0x3e, 0x7a, 0x10, 0xbb, 0xbe, 0xb5, 0x24, 0xce, 0x3d,
  0x33, 0x0f, 0x84, 0xbe, 0x69, 0x07, 0x87, 0xbe, 0x8c, 0xcd, 0xf8, 0xbd,
  0xa8, 0x46, 0x97, 0x3d, 0xc5, 0x74, 0x24, 0x3e, 0x52, 0xe2, 0xb6, 0xbd,
  0x6c, 0xb7, 0x5b, 0x3e, 0x47, 0xed, 0x6b, 0x3d, 0x81, 0xdb, 0xd6, 0xbd,
  0xb5, 0x7a, 0x5f, 0x3e, 0x1c, 0x11, 0xc0, 0x3d, 0x5a, 0xc8, 0x40, 0xbe,
  0xa6, 0xa0, 0x94, 0xbe, 0xb8, 0x5f, 0x41, 0x3e, 0x92, 0x8e, 0xc0, 0x3e,
  0xb0, 0x87, 0x91, 0x3d, 0xbc, 0x8a, 0x0f, 0xbe, 0x4a, 0x78, 0xcb, 0x3d,
  0xb8, 0xa8, 0xd3, 0xbd, 0x87, 0x67, 0xab, 0xbd, 0x99, 0x1d, 0x8b, 0x3e,
  0x6e, 0x4d, 0xd3, 0xbe, 0xa0, 0xeb, 0xae, 0x3e, 0x75, 0x17, 0x83, 0xbd,
  0x64, 0x98, 0xad, 0xbe, 0xce, 0x4d, 0x81, 0x3e, 0x09, 0x13, 0xdf, 0xbe,
  0x41, 0xc8, 0x0b, 0xbc, 0x95, 0xed, 0xdc, 0xbd, 0xea, 0x26, 0x54, 0x3e,
  0x1c, 0x36, 0x3d, 0x3c, 0x7e, 0x43, 0x0c, 0xbe, 0x06, 0x04, 0xd8, 0xbe,
  0x69, 0xf7, 0x6b, 0xbd, 0x90, 0xa3, 0x38, 0x3d, 0x95, 0xe5, 0x17, 0x3e,
  0x53, 0x67, 0x15, 0xbe, 0xcc, 0x8f, 0xeb, 0xbd, 0xfc, 0x7d, 0xb3, 0xbe,
  0x16, 0xb6, 0x9c, 0x3e, 0x30, 0x7d, 0xe2, 0xbe, 0xba, 0x67, 0x10, 0xbe,
  0x86, 0xeb, 0x13, 0x3e, 0x2c, 0x21, 0xb2, 0x3d, 0x9e, 0x2e, 0x92, 0x3e,
  0xc3, 0x24, 0xdc, 0xbd, 0xa4, 0xf3, 0x4d, 0xbd, 0x93, 0x19, 0x7a, 0xbc,
  0x17, 0x97, 0xe3, 0xbd, 0x02, 0xcd, 0xaf, 0x3d, 0x90, 0x15, 0xde, 0xbd,
  0xe8, 0x05, 0x3c, 0xbe, 0xf6, 0x92, 0x9e, 0xbd, 0x6f, 0x4f, 0x8a, 0x3e,
  0x23, 0xd8, 0x97, 0xbe, 0x38, 0xf8, 0x46, 0xbe, 0x28, 0x6b, 0x07, 0xbe,
  0xa0, 0x7c, 0xe3, 0xbe, 0x5a, 0x15, 0x1a, 0xbe, 0x55, 0xe1, 0xff, 0xbd,
  0x78, 0x5a, 0x9e, 0x3e, 0xe5, 0x4d, 0x61, 0xbe, 0x39, 0xb4, 0x72, 0xbd,
  0x8c, 0xe0, 0xfd, 0x3d, 0xe4, 0xa0, 0x1e, 0xbe, 0xfc, 0x60, 0xda, 0x3c,
  0x2b, 0xc1, 0x30, 0x3d, 0xfb, 0x09, 0x0f, 0xbe, 0xd1, 0x03, 0x1c, 0x3d,
  0x83, 0x29, 0x44, 0xbe, 0xb1, 0x90, 0x38, 0xbe, 0x13, 0x07, 0x84, 0x3d,
  0xf2, 0x07, 0x07, 0xbe, 0xf6, 0x83, 0x32, 0x3e, 0x77, 0x75, 0x61, 0x3e,
  0xc9, 0xc4, 0xc1, 0xbd, 0x42, 0x1c, 0xa2, 0xbe, 0xeb, 0xc1, 0xe2, 0x3d,
  0xc6, 0x16, 0x43, 0x3e, 0xab, 0xd5, 0xee, 0xbd, 0x4d, 0xf6, 0xc2, 0x3e,
  0xe6, 0x71, 0xa8, 0xbe, 0xdd, 0x8a, 0x93, 0xbe, 0x25, 0xfc, 0x5f, 0x3e,
  0xa1, 0x77, 0x70, 0xbe, 0x56, 0xed, 0xa9, 0x3c, 0xc8, 0xcf, 0xba, 0x3e,
  0xd3, 0x95, 0x82, 0x3e, 0xe0, 0x19, 0x31, 0x3b, 0x31, 0xdd, 0xf0, 0xbd,
  0x32, 0x3d, 0x08, 0x3e, 0xb2, 0x6b, 0x40, 0x3d, 0xf4, 0xba, 0x14, 0x3e,
  0x97, 0xd5, 0x6b, 0x3e, 0x94, 0x78, 0x85, 0xbe, 0x0f, 0x44, 0xfe, 0x3d,
  0xf9, 0x93, 0xd4, 0x3d, 0x90, 0x07, 0x1a, 0xbe, 0x14, 0x71, 0x05, 0xbe,
  0x9d, 0x0b, 0x49, 0x3e, 0xb2, 0xc2, 0x2d, 0x3d, 0xfd, 0x37, 0x9f, 0xbd,
  0x32, 0xa5, 0xb7, 0xbb, 0x28, 0xda, 0x80, 0xbd, 0xae, 0xa9, 0xdb, 0x3e,
  0x91, 0xc2, 0x98, 0x3c, 0xc5, 0x26, 0xe8, 0xbc, 0x57, 0x50, 0xa2, 0xbe,
  0xc0, 0xe9, 0xac, 0xbe, 0xfb, 0x7b, 0x1c, 0x3e, 0xb2, 0x11, 0xeb, 0xbc,
  0xd0, 0x23, 0x88, 0xbe, 0xc8, 0xc6, 0x88, 0x3e, 0xba, 0xec, 0x2c, 0x3d,
  0x72, 0x1e, 0xaa, 0x3c, 0x42, 0x6d, 0x94, 0x3d, 0x01, 0x48, 0x8a, 0x3e,
  0x31, 0x3e, 0x2d, 0xbe, 0xf0, 0x6f, 0x5e, 0x3e, 0x9c, 0x8f, 0x0e, 0x3e,
  0x28, 0xd0, 0x41, 0x3e, 0x88, 0xde, 0x0b, 0xbe, 0x89, 0x82, 0x38, 0x3e,
  0xad, 0x99, 0x67, 0x3e, 0x02, 0x32, 0x88, 0xbc, 0xcd, 0x52, 0xaf, 0xbd,
  0x47, 0x00, 0xa5, 0xbe, 0xe3, 0x96, 0xb4, 0x3e, 0xe0, 0x8c, 0xd2, 0xbd,
  0x4d, 0xae, 0x22, 0xbe, 0xdb, 0xf8, 0xe2, 0x3c, 0x3d, 0xa0, 0xc1, 0x3d,
  0x9d, 0xa5, 0x1e, 0x3c, 0x16, 0xe9, 0x40, 0x3d, 0xa9, 0x8b, 0xd1, 0xbd,
  0xaf, 0xd8, 0x62, 0xbd, 0x1b, 0xaa, 0x49, 0x3e, 0x52, 0x59, 0x96, 0x3d,
  0xc7, 0xa4, 0x57, 0xbe, 0x42, 0xe5, 0xf4, 0x3d, 0x8e, 0x4d, 0x7d, 0xbe,
  0xf8, 0x75, 0xf5, 0xbd, 0xc3, 0x0f, 0xb4, 0xbd, 0x51, 0x92, 0x59, 0x3e,
  0x8d, 0xea, 0x0f, 0x3e, 0x61, 0xa2, 0x36, 0xbe, 0x95, 0xce, 0xc1, 0xbe,
  0x11, 0x75, 0x07, 0x3e, 0x71, 0x5e, 0x49, 0x3e, 0x8b, 0x88, 0x05, 0xbe,
  0x01, 0xc7, 0x29, 0x3e, 0x6e, 0x1f, 0xdf, 0xbd, 0x9e, 0x9e, 0xe9, 0x3e,
  0x13, 0xda, 0xf9, 0x3d, 0xe9, 0x16, 0x82, 0xbe, 0x0b, 0x84, 0x89, 0xbe,
  0xc1, 0x89, 0x80, 0xbd, 0x13, 0x17, 0x14, 0x3d, 0x61, 0x5e, 0x2c, 0x3e,
  0x8a, 0x79, 0xab, 0xbe, 0xe7, 0x07, 0x1b, 0x3e, 0xb9, 0x4b, 0x6e, 0x3e,
  0xaf, 0x6a, 0xb0, 0xbd, 0x93, 0x36, 0x82, 0xbe, 0x18, 0xd3, 0xd0, 0x3d,
  0xf5, 0x4f, 0x82, 0xbe, 0x3e, 0x03, 0xab, 0xbe, 0x5b, 0x88, 0x8f, 0x3e,
  0xe0, 0x96, 0xf0, 0xbd, 0x95, 0xbe, 0x53, 0x3e, 0x02, 0xc5, 0xb5, 0xbc,
  0x0d, 0x04, 0x67, 0xbe, 0x5f, 0x38, 0x55, 0x3d, 0x5e, 0x62, 0x61, 0xbc,
  0x8f, 0x78, 0x53, 0xbe, 0xfa, 0xf8, 0xca, 0x3d, 0x0e, 0x82, 0xc6, 0x3c,
  0x18, 0xef, 0x7c, 0xbe, 0x9c, 0x23, 0xcd, 0xbc, 0x3e, 0x23, 0xf4, 0xbd,
  0x9e, 0x8d, 0x54, 0xbe, 0x57, 0xa1, 0x7e, 0x3d, 0x7a, 0xff, 0x05, 0xbe,
  0x7b, 0x7c, 0x72, 0x3e, 0x6c, 0xd8, 0x18, 0x3d, 0x06, 0xff, 0xff, 0xff,
  0x04, 0x00, 0x00, 0x00, 0x0c, 0x00, 0x00, 0x00, 0xff, 0xff, 0xff, 0xff,
  0x06, 0x00, 0x00, 0x00, 0x10, 0x00, 0x00, 0x00, 0x1e, 0xff, 0xff, 0xff,
  0x04, 0x00, 0x00, 0x00, 0x40, 0x00, 0x00, 0x00, 0x2a, 0x06, 0x00, 0xbf,
  0xd5, 0x13, 0xc4, 0x3e, 0xa4, 0xe4, 0x87, 0x3e, 0x77, 0xf0, 0xb8, 0xbe,
  0xed, 0xd3, 0x46, 0x3d, 0x16, 0xa8, 0xc2, 0x3e, 0xf4, 0xcd, 0x19, 0xbe,
  0xe4, 0x1f, 0x28, 0xbc, 0x53, 0x2a, 0x64, 0xbc, 0x1e, 0x46, 0x4d, 0x3d,
  0x39, 0x0b, 0x78, 0xbc, 0x6a, 0xe7, 0x59, 0x3e, 0x8f, 0xa0, 0xe4, 0xbe,
  0xb9, 0x58, 0x0f, 0xbe, 0xde, 0x63, 0xc1, 0x3e, 0x91, 0xa3, 0x68, 0xbe,
  0x5c, 0xf6, 0xff, 0xff, 0x60, 0xf6, 0xff, 0xff, 0x0f, 0x00, 0x00, 0x00,
  0x4d, 0x4c, 0x49, 0x52, 0x20, 0x43, 0x6f, 0x6e, 0x76, 0x65, 0x72, 0x74,
  0x65, 0x64, 0x2e, 0x00, 0x01, 0x00, 0x00, 0x00, 0x14, 0x00, 0x00, 0x00,
  0x00, 0x00, 0x0e, 0x00, 0x18, 0x00, 0x14, 0x00, 0x10, 0x00, 0x0c, 0x00,
  0x08, 0x00, 0x04, 0x00, 0x0e, 0x00, 0x00, 0x00, 0x14, 0x00, 0x00, 0x00,
  0x1c, 0x00, 0x00, 0x00, 0x00, 0x02, 0x00, 0x00, 0x04, 0x02, 0x00, 0x00,
  0x08, 0x02, 0x00, 0x00, 0x04, 0x00, 0x00, 0x00, 0x6d, 0x61, 0x69, 0x6e,
  0x00, 0x00, 0x00, 0x00, 0x08, 0x00, 0x00, 0x00, 0xb8, 0x01, 0x00, 0x00,
  0x58, 0x01, 0x00, 0x00, 0x24, 0x01, 0x00, 0x00, 0xf0, 0x00, 0x00, 0x00,
  0xbc, 0x00, 0x00, 0x00, 0x78, 0x00, 0x00, 0x00, 0x40, 0x00, 0x00, 0x00,
  0x04, 0x00, 0x00, 0x00, 0xd2, 0xfe, 0xff, 0xff, 0x1c, 0x00, 0x00, 0x00,
  0x00, 0x00, 0x00, 0x09, 0x1c, 0x00, 0x00, 0x00, 0x20, 0x00, 0x00, 0x00,
  0x06, 0x00, 0x00, 0x00, 0x00, 0x00, 0x06, 0x00, 0x08, 0x00, 0x04, 0x00,
  0x06, 0x00, 0x00, 0x00, 0x00, 0x00, 0x80, 0x3f, 0x01, 0x00, 0x00, 0x00,
  0x11, 0x00, 0x00, 0x00, 0x01, 0x00, 0x00, 0x00, 0x10, 0x00, 0x00, 0x00,
  0x0a, 0xff, 0xff, 0xff, 0x14, 0x00, 0x00, 0x00, 0x00, 0x00, 0x00, 0x08,
  0x10, 0x00, 0x00, 0x00, 0x14, 0x00, 0x00, 0x00, 0x05, 0x00, 0x00, 0x00,
  0x28, 0xf7, 0xff, 0xff, 0x01, 0x00, 0x00, 0x00, 0x10, 0x00, 0x00, 0x00,
  0x03, 0x00, 0x00, 0x00, 0x0f, 0x00, 0x00, 0x00, 0x04, 0x00, 0x00, 0x00,
  0x07, 0x00, 0x00, 0x00, 0x3e, 0xff, 0xff, 0xff, 0x1c, 0x00, 0x00, 0x00,
  0x00, 0x00, 0x00, 0x08, 0x1c, 0x00, 0x00, 0x00, 0x20, 0x00, 0x00, 0x00,
  0x05, 0x00, 0x00, 0x00, 0x00, 0x00, 0x06, 0x00, 0x08, 0x00, 0x07, 0x00,
  0x06, 0x00, 0x00, 0x00, 0x00, 0x00, 0x00, 0x01, 0x01, 0x00, 0x00, 0x00,
  0x0f, 0x00, 0x00, 0x00, 0x03, 0x00, 0x00, 0x00, 0x0e, 0x00, 0x00, 0x00,
  0x05, 0x00, 0x00, 0x00, 0x06, 0x00, 0x00, 0x00, 0x7e, 0xff, 0xff, 0xff,
  0x14, 0x00, 0x00, 0x00, 0x00, 0x00, 0x00, 0x1b, 0x10, 0x00, 0x00, 0x00,
  0x14, 0x00, 0x00, 0x00, 0x04, 0x00, 0x00, 0x00, 0x9c, 0xf7, 0xff, 0xff,
  0x01, 0x00, 0x00, 0x00, 0x0e, 0x00, 0x00, 0x00, 0x02, 0x00, 0x00, 0x00,
  0x0d, 0x00, 0x00, 0x00, 0x08, 0x00, 0x00, 0x00, 0xda, 0xff, 0xff, 0xff,
  0x0c, 0x00, 0x00, 0x00, 0x10, 0x00, 0x00, 0x00, 0x03, 0x00, 0x00, 0x00,
  0x01, 0x00, 0x00, 0x00, 0x0d, 0x00, 0x00, 0x00, 0x02, 0x00, 0x00, 0x00,
  0x0c, 0x00, 0x00, 0x00, 0x02, 0x00, 0x00, 0x00, 0x00, 0x00, 0x0a, 0x00,
  0x10, 0x00, 0x0c, 0x00, 0x08, 0x00, 0x04, 0x00, 0x0a, 0x00, 0x00, 0x00,
  0x0c, 0x00, 0x00, 0x00, 0x10, 0x00, 0x00, 0x00, 0x02, 0x00, 0x00, 0x00,
  0x01, 0x00, 0x00, 0x00, 0x0c, 0x00, 0x00, 0x00, 0x01, 0x00, 0x00, 0x00,
  0x0b, 0x00, 0x00, 0x00, 0x00, 0x00, 0x0e, 0x00, 0x1a, 0x00, 0x14, 0x00,
  0x10, 0x00, 0x0c, 0x00, 0x0b, 0x00, 0x04, 0x00, 0x0e, 0x00, 0x00, 0x00,
  0x20, 0x00, 0x00, 0x00, 0x00, 0x00, 0x00, 0x01, 0x28, 0x00, 0x00, 0x00,
  0x2c, 0x00, 0x00, 0x00, 0x01, 0x00, 0x00, 0x00, 0x00, 0x00, 0x0a, 0x00,
  0x10, 0x00, 0x0f, 0x00, 0x08, 0x00, 0x04, 0x00, 0x0a, 0x00, 0x00, 0x00,
  0x01, 0x00, 0x00, 0x00, 0x01, 0x00, 0x00, 0x00, 0x00, 0x00, 0x00, 0x01,
  0x01, 0x00, 0x00, 0x00, 0x0b, 0x00, 0x00, 0x00, 0x03, 0x00, 0x00, 0x00,
  0x0a, 0x00, 0x00, 0x00, 0x03, 0x00, 0x00, 0x00, 0x01, 0x00, 0x00, 0x00,
  0x00, 0x00, 0x0e, 0x00, 0x14, 0x00, 0x00, 0x00, 0x10, 0x00, 0x0c, 0x00,
  0x0b, 0x00, 0x04, 0x00, 0x0e, 0x00, 0x00, 0x00, 0x10, 0x00, 0x00, 0x00,
  0x00, 0x00, 0x00, 0x34, 0x0c, 0x00, 0x00, 0x00, 0x10, 0x00, 0x00, 0x00,
  0x84, 0xf8, 0xff, 0xff, 0x01, 0x00, 0x00, 0x00, 0x0a, 0x00, 0x00, 0x00,
  0x02, 0x00, 0x00, 0x00, 0x00, 0x00, 0x00, 0x00, 0x09, 0x00, 0x00, 0x00,
  0x01, 0x00, 0x00, 0x00, 0x11, 0x00, 0x00, 0x00, 0x01, 0x00, 0x00, 0x00,
  0x00, 0x00, 0x00, 0x00, 0x12, 0x00, 0x00, 0x00, 0x24, 0x07, 0x00, 0x00,
  0xd0, 0x06, 0x00, 0x00, 0x78, 0x06, 0x00, 0x00, 0x18, 0x06, 0x00, 0x00,
  0xd8, 0x05, 0x00, 0x00, 0x98, 0x05, 0x00, 0x00, 0x5c, 0x05, 0x00, 0x00,
  0x20, 0x05, 0x00, 0x00, 0xe4, 0x04, 0x00, 0x00, 0x84, 0x04, 0x00, 0x00,
  0x04, 0x04, 0x00, 0x00, 0x48, 0x03, 0x00, 0x00, 0x94, 0x02, 0x00, 0x00,
  0xe4, 0x01, 0x00, 0x00, 0x74, 0x01, 0x00, 0x00, 0xe0, 0x00, 0x00, 0x00,
  0x60, 0x00, 0x00, 0x00, 0x04, 0x00, 0x00, 0x00, 0x3a, 0xf9, 0xff, 0xff,
  0x00, 0x00, 0x00, 0x01, 0x14, 0x00, 0x00, 0x00, 0x1c, 0x00, 0x00, 0x00,
  0x1c, 0x00, 0x00, 0x00, 0x12, 0x00, 0x00, 0x00, 0x34, 0x00, 0x00, 0x00,
  0x02, 0x00, 0x00, 0x00, 0xff, 0xff, 0xff, 0xff, 0x03, 0x00, 0x00, 0x00,
  0x20, 0xf9, 0xff, 0xff, 0x1b, 0x00, 0x00, 0x00, 0x53, 0x74, 0x61, 0x74,
  0x65, 0x66, 0x75, 0x6c, 0x50, 0x61, 0x72, 0x74, 0x69, 0x74, 0x69, 0x6f,
  0x6e, 0x65, 0x64, 0x43, 0x61, 0x6c, 0x6c, 0x5f, 0x31, 0x3a, 0x30, 0x00,
  0x02, 0x00, 0x00, 0x00, 0x01, 0x00, 0x00, 0x00, 0x03, 0x00, 0x00, 0x00,
  0x92, 0xf9, 0xff, 0xff, 0x00, 0x00, 0x00, 0x01, 0x14, 0x00, 0x00, 0x00,
  0x1c, 0x00, 0x00, 0x00, 0x1c, 0x00, 0x00, 0x00, 0x11, 0x00, 0x00, 0x00,
  0x58, 0x00, 0x00, 0x00, 0x02, 0x00, 0x00, 0x00, 0xff, 0xff, 0xff, 0xff,
  0x03, 0x00, 0x00, 0x00, 0x78, 0xf9, 0xff, 0xff, 0x3c, 0x00, 0x00, 0x00,
  0x73, 0x65, 0x71, 0x75, 0x65, 0x6e, 0x74, 0x69, 0x61, 0x6c, 0x5f, 0x31,
  0x2f, 0x64, 0x65, 0x6e, 0x73, 0x65, 0x5f, 0x31, 0x5f, 0x32, 0x2f, 0x4d,
  0x61, 0x74, 0x4d, 0x75, 0x6c, 0x3b, 0x73, 0x65, 0x71, 0x75, 0x65, 0x6e,
  0x74, 0x69, 0x61, 0x6c, 0x5f, 0x31, 0x2f, 0x64, 0x65, 0x6e, 0x73, 0x65,
  0x5f, 0x31, 0x5f, 0x32, 0x2f, 0x42, 0x69, 0x61, 0x73, 0x41, 0x64, 0x64,
  0x00, 0x00, 0x00, 0x00, 0x02, 0x00, 0x00, 0x00, 0x01, 0x00, 0x00, 0x00,
  0x03, 0x00, 0x00, 0x00, 0x0e, 0xfa, 0xff, 0xff, 0x00, 0x00, 0x00, 0x01,
  0x14, 0x00, 0x00, 0x00, 0x1c, 0x00, 0x00, 0x00, 0x1c, 0x00, 0x00, 0x00,
  0x10, 0x00, 0x00, 0x00, 0x6c, 0x00, 0x00, 0x00, 0x02, 0x00, 0x00, 0x00,
  0xff, 0xff, 0xff, 0xff, 0x08, 0x00, 0x00, 0x00, 0xf4, 0xf9, 0xff, 0xff,
  0x52, 0x00, 0x00, 0x00, 0x73, 0x65, 0x71, 0x75, 0x65, 0x6e, 0x74, 0x69,
  0x61, 0x6c, 0x5f, 0x31, 0x2f, 0x64, 0x65, 0x6e, 0x73, 0x65, 0x5f, 0x31,
  0x2f, 0x4d, 0x61, 0x74, 0x4d, 0x75, 0x6c, 0x3b, 0x73, 0x65, 0x71, 0x75,
  0x65, 0x6e, 0x74, 0x69, 0x61, 0x6c, 0x5f, 0x31, 0x2f, 0x64, 0x65, 0x6e,
  0x73, 0x65, 0x5f, 0x31, 0x2f, 0x52, 0x65, 0x6c, 0x75, 0x3b, 0x73, 0x65,
  0x71, 0x75, 0x65, 0x6e, 0x74, 0x69, 0x61, 0x6c, 0x5f, 0x31, 0x2f, 0x64,
  0x65, 0x6e, 0x73, 0x65, 0x5f, 0x31, 0x2f, 0x42, 0x69, 0x61, 0x73, 0x41,
  0x64, 0x64, 0x00, 0x00, 0x02, 0x00, 0x00, 0x00, 0x01, 0x00, 0x00, 0x00,
  0x08, 0x00, 0x00, 0x00, 0x9e, 0xfa, 0xff, 0xff, 0x00, 0x00, 0x00, 0x01,
  0x14, 0x00, 0x00, 0x00, 0x1c, 0x00, 0x00, 0x00, 0x1c, 0x00, 0x00, 0x00,
  0x0f, 0x00, 0x00, 0x00, 0x48, 0x00, 0x00, 0x00, 0x02, 0x00, 0x00, 0x00,
  0xff, 0xff, 0xff, 0xff, 0x10, 0x00, 0x00, 0x00, 0x84, 0xfa, 0xff, 0xff,
  0x2c, 0x00, 0x00, 0x00, 0x73, 0x65, 0x71, 0x75, 0x65, 0x6e, 0x74, 0x69,
  0x61, 0x6c, 0x5f, 0x31, 0x2f, 0x67, 0x6c, 0x6f, 0x62, 0x61, 0x6c, 0x5f,
  0x61, 0x76, 0x65, 0x72, 0x61, 0x67, 0x65, 0x5f, 0x70, 0x6f, 0x6f, 0x6c,
  0x69, 0x6e, 0x67, 0x31, 0x64, 0x5f, 0x31, 0x2f, 0x4d, 0x65, 0x61, 0x6e,
  0x00, 0x00, 0x00, 0x00, 0x02, 0x00, 0x00, 0x00, 0x01, 0x00, 0x00, 0x00,
  0x10, 0x00, 0x00, 0x00, 0x0a, 0xfb, 0xff, 0xff, 0x00, 0x00, 0x00, 0x01,
  0x14, 0x00, 0x00, 0x00, 0x20, 0x00, 0x00, 0x00, 0x20, 0x00, 0x00, 0x00,
  0x0e, 0x00, 0x00, 0x00, 0x84, 0x00, 0x00, 0x00, 0x03, 0x00, 0x00, 0x00,
  0xff, 0xff, 0xff, 0xff, 0x06, 0x00, 0x00, 0x00, 0x10, 0x00, 0x00, 0x00,
  0xf4, 0xfa, 0xff, 0xff, 0x64, 0x00, 0x00, 0x00, 0x73, 0x65, 0x71, 0x75,
  0x65, 0x6e, 0x74, 0x69, 0x61, 0x6c, 0x5f, 0x31, 0x2f, 0x63, 0x6f, 0x6e,
  0x76, 0x31, 0x64, 0x5f, 0x31, 0x2f, 0x54, 0x61, 0x6e, 0x68, 0x3b, 0x73,
  0x65, 0x71, 0x75, 0x65, 0x6e, 0x74, 0x69, 0x61, 0x6c, 0x5f, 0x31, 0x2f,
  0x63, 0x6f, 0x6e, 0x76, 0x31, 0x64, 0x5f, 0x31, 0x2f, 0x42, 0x69, 0x61,
  0x73, 0x41, 0x64, 0x64, 0x3b, 0x73, 0x65, 0x71, 0x75, 0x65, 0x6e, 0x74,
  0x69, 0x61, 0x6c, 0x5f, 0x31, 0x2f, 0x63, 0x6f, 0x6e, 0x76, 0x31, 0x64,
  0x5f, 0x31, 0x2f, 0x63, 0x6f, 0x6e, 0x76, 0x6f, 0x6c, 0x75, 0x74, 0x69,
  0x6f, 0x6e, 0x2f, 0x53, 0x71, 0x75, 0x65, 0x65, 0x7a, 0x65, 0x3b, 0x31,
  0x00, 0x00, 0x00, 0x00, 0x03, 0x00, 0x00, 0x00, 0x01, 0x00, 0x00, 0x00,
  0x06, 0x00, 0x00, 0x00, 0x10, 0x00, 0x00, 0x00, 0xb6, 0xfb, 0xff, 0xff,
  0x00, 0x00, 0x00, 0x01, 0x14, 0x00, 0x00, 0x00, 0x24, 0x00, 0x00, 0x00,
  0x24, 0x00, 0x00, 0x00, 0x0d, 0x00, 0x00, 0x00, 0x84, 0x00, 0x00, 0x00,
  0x04, 0x00, 0x00, 0x00, 0xff, 0xff, 0xff, 0xff, 0x01, 0x00, 0x00, 0x00,
  0x06, 0x00, 0x00, 0x00, 0x10, 0x00, 0x00, 0x00, 0xa4, 0xfb, 0xff, 0xff,
  0x63, 0x00, 0x00, 0x00, 0x73, 0x65, 0x71, 0x75, 0x65, 0x6e, 0x74, 0x69,
  0x61, 0x6c, 0x5f, 0x31, 0x2f, 0x63, 0x6f, 0x6e, 0x76, 0x31, 0x64, 0x5f,
  0x31, 0x2f, 0x54, 0x61, 0x6e, 0x68, 0x3b, 0x73, 0x65, 0x71, 0x75, 0x65,
  0x6e, 0x74, 0x69, 0x61, 0x6c, 0x5f, 0x31, 0x2f, 0x63, 0x6f, 0x6e, 0x76,
  0x31, 0x64, 0x5f, 0x31, 0x2f, 0x42, 0x69, 0x61, 0x73, 0x41, 0x64, 0x64,
  0x3b, 0x73, 0x65, 0x71, 0x75, 0x65, 0x6e, 0x74, 0x69, 0x61, 0x6c, 0x5f,
  0x31, 0x2f, 0x63, 0x6f, 0x6e, 0x76, 0x31, 0x64, 0x5f, 0x31, 0x2f, 0x63,
  0x6f, 0x6e, 0x76, 0x6f, 0x6c, 0x75, 0x74, 0x69, 0x6f, 0x6e, 0x2f, 0x53,
  0x71, 0x75, 0x65, 0x65, 0x7a, 0x65, 0x3b, 0x00, 0x04, 0x00, 0x00, 0x00,
  0x01, 0x00, 0x00, 0x00, 0x01, 0x00, 0x00, 0x00, 0x06, 0x00, 0x00, 0x00,
  0x10, 0x00, 0x00, 0x00, 0x66, 0xfc, 0xff, 0xff, 0x00, 0x00, 0x00, 0x01,
  0x14, 0x00, 0x00, 0x00, 0x24, 0x00, 0x00, 0x00, 0x24, 0x00, 0x00, 0x00,
  0x0c, 0x00, 0x00, 0x00, 0x8c, 0x00, 0x00, 0x00, 0x04, 0x00, 0x00, 0x00,
  0xff, 0xff, 0xff, 0xff, 0x01, 0x00, 0x00, 0x00, 0x06, 0x00, 0x00, 0x00,
  0x10, 0x00, 0x00, 0x00, 0x54, 0xfc, 0xff, 0xff, 0x6a, 0x00, 0x00, 0x00,
  0x73, 0x65, 0x71, 0x75, 0x65, 0x6e, 0x74, 0x69, 0x61, 0x6c, 0x5f, 0x31,
  0x2f, 0x63, 0x6f, 0x6e, 0x76, 0x31, 0x64, 0x5f, 0x31, 0x2f, 0x42, 0x69,
  0x61, 0x73, 0x41, 0x64, 0x64, 0x3b, 0x73, 0x65, 0x71, 0x75, 0x65, 0x6e,
  0x74, 0x69, 0x61, 0x6c, 0x5f, 0x31, 0x2f, 0x63, 0x6f, 0x6e, 0x76, 0x31,
  0x64, 0x5f, 0x31, 0x2f, 0x63, 0x6f, 0x6e, 0x76, 0x6f, 0x6c, 0x75, 0x74,
  0x69, 0x6f, 0x6e, 0x2f, 0x53, 0x71, 0x75, 0x65, 0x65, 0x7a, 0x65, 0x3b,
  0x3b, 0x73, 0x65, 0x71, 0x75, 0x65, 0x6e, 0x74, 0x69, 0x61, 0x6c, 0x5f,
  0x31, 0x2f, 0x63, 0x6f, 0x6e, 0x76, 0x31, 0x64, 0x5f, 0x31, 0x2f, 0x63,
  0x6f, 0x6e, 0x76, 0x6f, 0x6c, 0x75, 0x74, 0x69, 0x6f, 0x6e, 0x00, 0x00,
  0x04, 0x00, 0x00, 0x00, 0x01, 0x00, 0x00, 0x00, 0x01, 0x00, 0x00, 0x00,
  0x06, 0x00, 0x00, 0x00, 0x10, 0x00, 0x00, 0x00, 0x1e, 0xfd, 0xff, 0xff,
  0x00, 0x00, 0x00, 0x01, 0x14, 0x00, 0x00, 0x00, 0x24, 0x00, 0x00, 0x00,
  0x24, 0x00, 0x00, 0x00, 0x0b, 0x00, 0x00, 0x00, 0x50, 0x00, 0x00, 0x00,
  0x04, 0x00, 0x00, 0x00, 0xff, 0xff, 0xff, 0xff, 0x01, 0x00, 0x00, 0x00,
  0x08, 0x00, 0x00, 0x00, 0x06, 0x00, 0x00, 0x00, 0x0c, 0xfd, 0xff, 0xff,
  0x2c, 0x00, 0x00, 0x00, 0x73, 0x65, 0x71, 0x75, 0x65, 0x6e, 0x74, 0x69,
  0x61, 0x6c, 0x5f, 0x31, 0x2f, 0x63, 0x6f, 0x6e, 0x76, 0x31, 0x64, 0x5f,
  0x31, 0x2f, 0x63, 0x6f, 0x6e, 0x76, 0x6f, 0x6c, 0x75, 0x74, 0x69, 0x6f,
  0x6e, 0x2f, 0x45, 0x78, 0x70, 0x61, 0x6e, 0x64, 0x44, 0x69, 0x6d, 0x73,
  0x00, 0x00, 0x00, 0x00, 0x04, 0x00, 0x00, 0x00, 0x01, 0x00, 0x00, 0x00,
  0x01, 0x00, 0x00, 0x00, 0x08, 0x00, 0x00, 0x00, 0x06, 0x00, 0x00, 0x00,
  0x3e, 0xfe, 0xff, 0xff, 0x00, 0x00, 0x00, 0x01, 0x14, 0x00, 0x00, 0x00,
  0x14, 0x00, 0x00, 0x00, 0x0a, 0x00, 0x00, 0x00, 0x00, 0x00, 0x00, 0x02,
  0x40, 0x00, 0x00, 0x00, 0x74, 0xfd, 0xff, 0xff, 0x30, 0x00, 0x00, 0x00,
  0x73, 0x65, 0x71, 0x75, 0x65, 0x6e, 0x74, 0x69, 0x61, 0x6c, 0x5f, 0x31,
  0x2f, 0x63, 0x6f, 0x6e, 0x76, 0x31, 0x64, 0x5f, 0x31, 0x2f, 0x63, 0x6f,
  0x6e, 0x76, 0x6f, 0x6c, 0x75, 0x74, 0x69, 0x6f, 0x6e, 0x2f, 0x45, 0x78,
  0x70, 0x61, 0x6e, 0x64, 0x44, 0x69, 0x6d, 0x73, 0x2f, 0x64, 0x69, 0x6d,
  0x00, 0x00, 0x00, 0x00, 0x00, 0x00, 0x00, 0x00, 0x9a, 0xfe, 0xff, 0xff,
  0x00, 0x00, 0x00, 0x01, 0x14, 0x00, 0x00, 0x00, 0x14, 0x00, 0x00, 0x00,
  0x09, 0x00, 0x00, 0x00, 0x00, 0x00, 0x00, 0x02, 0x1c, 0x00, 0x00, 0x00,
  0xd0, 0xfd, 0xff, 0xff, 0x0f, 0x00, 0x00, 0x00, 0x61, 0x72, 0x69, 0x74,
  0x68, 0x2e, 0x63, 0x6f, 0x6e, 0x73, 0x74, 0x61, 0x6e, 0x74, 0x37, 0x00,
  0x00, 0x00, 0x00, 0x00, 0x7e, 0xfe, 0xff, 0xff, 0x00, 0x00, 0x00, 0x01,
  0x10, 0x00, 0x00, 0x00, 0x10, 0x00, 0x00, 0x00, 0x08, 0x00, 0x00, 0x00,
  0x1c, 0x00, 0x00, 0x00, 0x04, 0xfe, 0xff, 0xff, 0x0f, 0x00, 0x00, 0x00,
  0x61, 0x72, 0x69, 0x74, 0x68, 0x2e, 0x63, 0x6f, 0x6e, 0x73, 0x74, 0x61,
  0x6e, 0x74, 0x36, 0x00, 0x01, 0x00, 0x00, 0x00, 0x03, 0x00, 0x00, 0x00,
  0xb6, 0xfe, 0xff, 0xff, 0x00, 0x00, 0x00, 0x01, 0x10, 0x00, 0x00, 0x00,
  0x10, 0x00, 0x00, 0x00, 0x07, 0x00, 0x00, 0x00, 0x1c, 0x00, 0x00, 0x00,
  0x3c, 0xfe, 0xff, 0xff, 0x0f, 0x00, 0x00, 0x00, 0x61, 0x72, 0x69, 0x74,
  0x68, 0x2e, 0x63, 0x6f, 0x6e, 0x73, 0x74, 0x61, 0x6e, 0x74, 0x35, 0x00,
  0x01, 0x00, 0x00, 0x00, 0x08, 0x00, 0x00, 0x00, 0xee, 0xfe, 0xff, 0xff,
  0x00, 0x00, 0x00, 0x01, 0x10, 0x00, 0x00, 0x00, 0x10, 0x00, 0x00, 0x00,
  0x06, 0x00, 0x00, 0x00, 0x1c, 0x00, 0x00, 0x00, 0x74, 0xfe, 0xff, 0xff,
  0x0f, 0x00, 0x00, 0x00, 0x61, 0x72, 0x69, 0x74, 0x68, 0x2e, 0x63, 0x6f,
  0x6e, 0x73, 0x74, 0x61, 0x6e, 0x74, 0x34, 0x00, 0x02, 0x00, 0x00, 0x00,
  0x08, 0x00, 0x00, 0x00, 0x10, 0x00, 0x00, 0x00, 0x2a, 0xff, 0xff, 0xff,
  0x00, 0x00, 0x00, 0x01, 0x10, 0x00, 0x00, 0x00, 0x10, 0x00, 0x00, 0x00,
  0x05, 0x00, 0x00, 0x00, 0x1c, 0x00, 0x00, 0x00, 0xb0, 0xfe, 0xff, 0xff,
  0x0f, 0x00, 0x00, 0x00, 0x61, 0x72, 0x69, 0x74, 0x68, 0x2e, 0x63, 0x6f,
  0x6e, 0x73, 0x74, 0x61, 0x6e, 0x74, 0x33, 0x00, 0x02, 0x00, 0x00, 0x00,
  0x03, 0x00, 0x00, 0x00, 0x08, 0x00, 0x00, 0x00, 0x66, 0xff, 0xff, 0xff,
  0x00, 0x00, 0x00, 0x01, 0x10, 0x00, 0x00, 0x00, 0x10, 0x00, 0x00, 0x00,
  0x04, 0x00, 0x00, 0x00, 0x1c, 0x00, 0x00, 0x00, 0xec, 0xfe, 0xff, 0xff,
  0x0f, 0x00, 0x00, 0x00, 0x61, 0x72, 0x69, 0x74, 0x68, 0x2e, 0x63, 0x6f,
  0x6e, 0x73, 0x74, 0x61, 0x6e, 0x74, 0x32, 0x00, 0x04, 0x00, 0x00, 0x00,
  0x10, 0x00, 0x00, 0x00, 0x01, 0x00, 0x00, 0x00, 0x03, 0x00, 0x00, 0x00,
  0x06, 0x00, 0x00, 0x00, 0x00, 0x00, 0x16, 0x00, 0x1c, 0x00, 0x18, 0x00,
  0x17, 0x00, 0x10, 0x00, 0x0c, 0x00, 0x08, 0x00, 0x00, 0x00, 0x00, 0x00,
  0x00, 0x00, 0x07, 0x00, 0x16, 0x00, 0x00, 0x00, 0x00, 0x00, 0x00, 0x01,
  0x14, 0x00, 0x00, 0x00, 0x14, 0x00, 0x00, 0x00, 0x03, 0x00, 0x00, 0x00,
  0x00, 0x00, 0x00, 0x02, 0x1c, 0x00, 0x00, 0x00, 0x4c, 0xff, 0xff, 0xff,
  0x0f, 0x00, 0x00, 0x00, 0x61, 0x72, 0x69, 0x74, 0x68, 0x2e, 0x63, 0x6f,
  0x6e, 0x73, 0x74, 0x61, 0x6e, 0x74, 0x31, 0x00, 0x01, 0x00, 0x00, 0x00,
  0x03, 0x00, 0x00, 0x00, 0x00, 0x00, 0x16, 0x00, 0x18, 0x00, 0x14, 0x00,
  0x00, 0x00, 0x10, 0x00, 0x0c, 0x00, 0x08, 0x00, 0x00, 0x00, 0x00, 0x00,
  0x00, 0x00, 0x07, 0x00, 0x16, 0x00, 0x00, 0x00, 0x00, 0x00, 0x00, 0x01,
  0x10, 0x00, 0x00, 0x00, 0x10, 0x00, 0x00, 0x00, 0x02, 0x00, 0x00, 0x00,
  0x1c, 0x00, 0x00, 0x00, 0x9c, 0xff, 0xff, 0xff, 0x0e, 0x00, 0x00, 0x00,
  0x61, 0x72, 0x69, 0x74, 0x68, 0x2e, 0x63, 0x6f, 0x6e, 0x73, 0x74, 0x61,
  0x6e, 0x74, 0x00, 0x00, 0x01, 0x00, 0x00, 0x00, 0x10, 0x00, 0x00, 0x00,
  0x00, 0x00, 0x16, 0x00, 0x1c, 0x00, 0x18, 0x00, 0x00, 0x00, 0x14, 0x00,
  0x10, 0x00, 0x0c, 0x00, 0x00, 0x00, 0x00, 0x00, 0x08, 0x00, 0x07, 0x00,
  0x16, 0x00, 0x00, 0x00, 0x00, 0x00, 0x00, 0x01, 0x14, 0x00, 0x00, 0x00,
  0x24, 0x00, 0x00, 0x00, 0x24, 0x00, 0x00, 0x00, 0x01, 0x00, 0x00, 0x00,
  0x40, 0x00, 0x00, 0x00, 0x03, 0x00, 0x00, 0x00, 0xff, 0xff, 0xff, 0xff,
  0x08, 0x00, 0x00, 0x00, 0x06, 0x00, 0x00, 0x00, 0x04, 0x00, 0x04, 0x00,
  0x04, 0x00, 0x00, 0x00, 0x1e, 0x00, 0x00, 0x00, 0x73, 0x65, 0x72, 0x76,
  0x69, 0x6e, 0x67, 0x5f, 0x64, 0x65, 0x66, 0x61, 0x75, 0x6c, 0x74, 0x5f,
  0x6b, 0x65, 0x72, 0x61, 0x73, 0x5f, 0x74, 0x65, 0x6e, 0x73, 0x6f, 0x72,
  0x3a, 0x30, 0x00, 0x00, 0x03, 0x00, 0x00, 0x00, 0x01, 0x00, 0x00, 0x00,
  0x08, 0x00, 0x00, 0x00, 0x06, 0x00, 0x00, 0x00, 0x07, 0x00, 0x00, 0x00,
  0x70, 0x00, 0x00, 0x00, 0x54, 0x00, 0x00, 0x00, 0x44, 0x00, 0x00, 0x00,
  0x34, 0x00, 0x00, 0x00, 0x24, 0x00, 0x00, 0x00, 0x14, 0x00, 0x00, 0x00,
  0x04, 0x00, 0x00, 0x00, 0xb8, 0xff, 0xff, 0xff, 0x19, 0x00, 0x00, 0x00,
  0x00, 0x00, 0x00, 0x19, 0xc4, 0xff, 0xff, 0xff, 0x09, 0x00, 0x00, 0x00,
  0x00, 0x00, 0x00, 0x09, 0xd0, 0xff, 0xff, 0xff, 0x28, 0x00, 0x00, 0x00,
  0x00, 0x00, 0x00, 0x28, 0xdc, 0xff, 0xff, 0xff, 0x16, 0x00, 0x00, 0x00,
  0x00, 0x00, 0x00, 0x16, 0xe8, 0xff, 0xff, 0xff, 0x1c, 0x00, 0x00, 0x00,
  0x00, 0x00, 0x00, 0x1c, 0xf4, 0xff, 0xff, 0xff, 0x03, 0x00, 0x00, 0x00,
  0x00, 0x00, 0x00, 0x03, 0x0c, 0x00, 0x0c, 0x00, 0x0b, 0x00, 0x00, 0x00,
  0x00, 0x00, 0x04, 0x00, 0x0c, 0x00, 0x00, 0x00, 0x46, 0x00, 0x00, 0x00,
  0x00, 0x00, 0x00, 0x46
};
unsigned int boxing_model_right_8_tflite_len = 5176;
